<pad>	0
<unk>	0
[CLS]	0
[SEP]	0
[MASK]	0
(	0
)	0
'	0
"	0
-	0
.	0
–	0
£	0
€	0
$	0
·	0
´	0
▁	-2.37776
▁de	-3.15669
,	-3.18109
▁la	-3.66702
▁i	-3.77312
▁a	-3.95775
▁que	-3.99472
’	-4.05665
▁el	-4.24132
▁l	-4.38263
▁d	-4.38803
▁en	-4.51422
s	-4.56153
▁per	-4.61145
▁del	-4.72904
▁les	-4.75154
▁amb	-4.92848
▁un	-4.97433
▁els	-4.98291
▁una	-5.19904
▁al	-5.32778
▁es	-5.40733
▁no	-5.43555
▁és	-5.45081
▁va	-5.56395
▁més	-5.5673
▁com	-5.61514
▁dels	-5.66364
▁ha	-5.73746
a	-5.75819
:	-5.85567
▁o	-5.94927
▁El	-5.95355
▁La	-6.03279
▁s	-6.15678
▁fer	-6.35706
▁ser	-6.46637
▁L	-6.46692
▁A	-6.48909
▁tot	-6.51561
t	-6.52062
▁seva	-6.52068
▁seu	-6.52727
es	-6.53182
r	-6.54112
▁molt	-6.54397
▁“	-6.55076
▁hi	-6.56978
▁aquest	-6.57346
en	-6.58214
▁als	-6.58738
▁però	-6.59326
un	-6.62486
▁En	-6.6793
o	-6.69418
▁també	-6.69826
▁ja	-6.70215
▁ens	-6.71126
▁van	-6.71457
▁aquesta	-6.74069
se	-6.74286
▁sobre	-6.7631
”	-6.78178
▁si	-6.78883
i	-6.81097
una	-6.82793
▁pel	-6.85191
▁són	-6.8569
ha	-6.86256
▁anys	-6.87686
▁han	-6.88267
▁entre	-6.88315
▁cap	-6.90087
n	-6.92482
▁on	-6.93124
▁fins	-6.93437
▁I	-6.96027
▁fa	-6.9625
da	-6.97113
la	-6.9876
▁Els	-7.02216
;	-7.02567
▁Per	-7.07316
▁perquè	-7.09886
▁dia	-7.09978
?	-7.1267
▁tots	-7.14754
▁part	-7.169
▁des	-7.17837
▁fet	-7.18716
▁Catalunya	-7.19003
ment	-7.23279
▁pot	-7.24373
▁col	-7.24552
nt	-7.2585
▁persones	-7.27875
hi	-7.27908
▁seus	-7.27926
!	-7.28325
l	-7.28368
à	-7.28479
▁quan	-7.29178
des	-7.29366
em	-7.29496
e	-7.29806
▁gran	-7.29949
▁ho	-7.30346
▁això	-7.31081
m	-7.31139
▁sense	-7.31626
▁Barcelona	-7.31721
any	-7.31833
▁està	-7.32754
/	-7.33185
▁estat	-7.33729
▁té	-7.35477
va	-7.38271
▁altres	-7.39304
▁què	-7.4314
▁Les	-7.44001
▁No	-7.44032
▁tant	-7.44361
▁dos	-7.45473
▁temps	-7.46528
▁cada	-7.46856
▁després	-7.48905
▁manera	-7.4991
▁Sant	-7.50208
▁durant	-7.50898
▁li	-7.51109
ar	-7.51567
▁lloc	-7.51754
▁se	-7.51942
▁només	-7.53697
▁hem	-7.53934
▁així	-7.57205
▁mateix	-7.57377
▁qual	-7.57408
▁m	-7.57698
▁diferents	-7.60279
▁S	-7.60792
ho	-7.61792
▁era	-7.61956
▁Un	-7.62204
▁primer	-7.62897
▁ara	-7.6308
▁em	-7.63428
▁dir	-7.63679
▁encara	-7.63819
▁Si	-7.64179
▁2	-7.64731
▁cas	-7.6491
▁ni	-7.65284
ia	-7.6554
▁vida	-7.65913
▁veure	-7.66185
▁1	-7.66566
▁És	-7.6717
lo	-7.68124
▁seves	-7.69969
han	-7.70241
▁món	-7.71289
▁poder	-7.71378
▁ciutat	-7.71962
▁tenir	-7.72121
in	-7.72377
▁bé	-7.72646
aquest	-7.72793
▁nostra	-7.75325
▁nostre	-7.75579
▁3	-7.75673
▁forma	-7.75777
▁Es	-7.76606
▁sempre	-7.76678
an	-7.76749
▁nou	-7.76905
u	-7.78036
▁primera	-7.7858
▁passat	-7.79195
▁Aquest	-7.80337
▁tres	-7.81925
▁havia	-7.82011
▁projecte	-7.82204
aquesta	-7.8231
▁contra	-7.82486
▁totes	-7.82702
▁De	-7.82789
▁treball	-7.83604
A	-7.84348
▁D	-7.85921
▁qui	-7.86522
at	-7.87109
h	-7.87667
▁moment	-7.87686
▁nostres	-7.88002
▁poden	-7.88134
les	-7.8895
▁millor	-7.89128
▁dies	-7.89692
▁cal	-7.90012
▁vaig	-7.90991
de	-7.91644
▁pels	-7.92193
1	-7.92493
▁Com	-7.93241
▁4	-7.93347
▁Al	-7.93612
▁donar	-7.93729
ven	-7.94214
▁dues	-7.94789
▁tal	-7.9488
▁uns	-7.9518
Ajuntament	-7.95301
▁tan	-7.95399
▁Una	-7.95775
▁Però	-7.96178
ts	-7.97887
▁gent	-7.99391
2	-7.9967
▁us	-8.00292
▁tota	-8.00791
▁tenen	-8.0109
▁publicació	-8.01243
▁casa	-8.01463
d	-8.01769
ne	-8.01972
te	-8.02047
▁web	-8.0208
li	-8.02334
▁grup	-8.02635
▁informació	-8.04336
▁sol	-8.04506
▁qualsevol	-8.04529
c	-8.05179
▁Aquesta	-8.05721
▁«	-8.06039
▁través	-8.06062
▁dins	-8.06584
▁re	-8.06601
▁sigui	-8.06804
▁Amb	-8.06811
▁10	-8.07455
▁cosa	-8.07505
al	-8.07746
▁punt	-8.08245
▁ben	-8.08917
▁5	-8.09424
»	-8.09742
▁davant	-8.1001
ada	-8.10018
3	-8.10348
▁any	-8.10365
▁abans	-8.10516
▁social	-8.1118
▁C	-8.12073
▁he	-8.13005
ció	-8.1304
▁cop	-8.13484
▁partir	-8.13754
▁nova	-8.13867
▁recupera	-8.1399
▁serà	-8.14383
▁També	-8.14896
▁final	-8.15278
”,	-8.15635
▁anar	-8.15866
▁molts	-8.15882
S	-8.15983
▁dades	-8.16039
▁aquests	-8.16086
▁estan	-8.1623
▁vol	-8.16236
]	-8.16289
os	-8.1638
000	-8.16505
nos	-8.16711
▁Des	-8.17116
me	-8.17845
▁vam	-8.18016
▁banda	-8.18382
▁serveis	-8.18511
▁18	-8.19294
el	-8.19542
▁vegada	-8.19554
▁́	-8.19917
▁mes	-8.2024
altres	-8.20501
▁setmana	-8.21181
▁català	-8.21382
ta	-8.21659
▁arribar	-8.21971
▁llibre	-8.23697
▁tipus	-8.23839
▁públic	-8.24006
y	-8.24322
▁activitats	-8.24351
▁història	-8.24461
▁centre	-8.24477
▁Joan	-8.24512
▁hores	-8.24772
▁res	-8.25028
er	-8.25179
▁servei	-8.25258
▁trobar	-8.25788
▁poc	-8.26047
los	-8.27162
▁país	-8.27178
▁segons	-8.27223
▁govern	-8.2731
▁grans	-8.2749
▁6	-8.27909
▁bona	-8.28731
▁M	-8.28842
▁sinó	-8.29197
▁posar	-8.29819
▁curs	-8.29929
▁altre	-8.30664
▁fan	-8.30865
▁poble	-8.3133
C	-8.32096
▁coses	-8.32229
▁unes	-8.32609
▁programa	-8.32637
et	-8.33059
▁pas	-8.33305
re	-8.34044
▁general	-8.34181
no	-8.3443
▁terme	-8.34897
▁important	-8.35036
▁20	-8.36046
com	-8.36679
▁alguns	-8.36685
▁quals	-8.36685
▁et	-8.36804
▁B	-8.36809
▁menys	-8.37071
▁altra	-8.37187
▁suport	-8.37238
▁Tot	-8.37572
▁nom	-8.37679
▁procés	-8.37721
▁aquestes	-8.37731
▁alumnes	-8.37953
▁moltes	-8.38228
ant	-8.38786
▁qualitat	-8.38797
L	-8.38938
on	-8.39346
▁canvi	-8.3993
▁sistema	-8.40061
▁12	-8.41016
▁jo	-8.41087
▁[	-8.41136
▁15	-8.41663
cions	-8.41696
▁bon	-8.41939
▁mateixa	-8.4214
▁mai	-8.42758
▁persona	-8.43098
▁segle	-8.43201
▁política	-8.43678
▁Així	-8.44184
▁començar	-8.46042
octubre	-8.46389
▁zona	-8.46487
▁passar	-8.46837
▁situació	-8.47004
▁carrer	-8.47043
▁avui	-8.47262
▁|	-8.47367
▁formació	-8.47483
▁8	-8.47541
▁nosaltres	-8.47941
▁partit	-8.48222
▁quatre	-8.48436
▁personal	-8.48483
▁música	-8.48488
▁mica	-8.48576
▁9	-8.49144
▁fent	-8.49765
▁Després	-8.49868
és	-8.5
▁possible	-8.50072
▁tenim	-8.50284
ús	-8.50624
▁nivell	-8.50832
è	-8.50836
▁haver	-8.5096
eu	-8.51326
▁podem	-8.51347
▁llarg	-8.52096
▁7	-8.52144
▁camí	-8.52166
▁instal	-8.52448
▁in	-8.52491
▁sentit	-8.52549
▁societat	-8.52565
▁Generalitat	-8.53051
▁Hi	-8.53161
aigua	-8.53683
na	-8.53812
rà	-8.53816
▁n	-8.54316
▁mentre	-8.54474
▁Josep	-8.54998
▁exemple	-8.55156
▁força	-8.55162
▁dones	-8.55397
▁P	-8.55449
í	-8.5545
▁conèixer	-8.55602
que	-8.55822
escola	-8.5589
▁Universitat	-8.55908
equip	-8.56397
▁tracta	-8.57124
objectiu	-8.57771
▁feina	-8.58009
▁socials	-8.58051
El	-8.58085
é	-8.58341
▁¦	-8.58509
▁etc	-8.58688
▁diu	-8.5876
▁deixar	-8.58781
▁setembre	-8.58794
▁diversos	-8.58816
p	-8.5928
▁meu	-8.59361
▁sota	-8.59523
▁mesos	-8.59924
▁17	-8.60116
or	-8.60182
▁president	-8.60368
ista	-8.60567
▁dret	-8.60746
x	-8.60943
▁Va	-8.61542
▁nens	-8.61784
▁Ja	-8.6256
▁relació	-8.62576
▁aconseguir	-8.63633
▁segona	-8.63703
▁16	-8.63895
▁14	-8.64021
▁estar	-8.64108
▁família	-8.64277
▁diverses	-8.6471
▁aquí	-8.64881
▁productes	-8.64944
▁Jordi	-8.65406
▁‘	-8.65413
4	-8.65493
is	-8.65649
▁resta	-8.65727
▁novembre	-8.65786
▁maig	-8.65922
▁vegades	-8.65973
▁juny	-8.66197
▁població	-8.66588
▁participació	-8.66624
us	-8.66635
▁sí	-8.66762
ca	-8.67152
ades	-8.67185
▁gaudir	-8.67282
D	-8.67289
g	-8.67434
▁obres	-8.67626
▁gestió	-8.67719
▁joves	-8.67933
cat	-8.67936
▁edició	-8.68187
O	-8.68254
▁noves	-8.68371
▁13	-8.68449
▁alguna	-8.68535
▁sembla	-8.68535
▁Ara	-8.68672
▁projectes	-8.687
▁porta	-8.68757
▁Quan	-8.68854
▁total	-8.6887
▁compte	-8.69156
▁llengua	-8.6916
▁O	-8.69174
acord	-8.69214
▁catalana	-8.69336
▁saber	-8.69339
▁gràcies	-8.69604
▁espai	-8.69616
▁segon	-8.69752
Estat	-8.698
▁il	-8.69924
▁empreses	-8.69987
▁realitat	-8.7029
La	-8.70358
art	-8.70808
▁seua	-8.71197
▁permet	-8.71425
▁Consell	-8.71704
▁T	-8.72081
▁sector	-8.72357
ns	-8.7277
▁juliol	-8.72783
▁Govern	-8.73109
per	-8.73176
▁19	-8.73346
ls	-8.73544
▁ell	-8.73843
▁punts	-8.74037
▁meva	-8.74297
ra	-8.74591
▁clar	-8.74676
▁drets	-8.74713
5	-8.74759
▁algunes	-8.74789
ó	-8.74877
▁majoria	-8.74878
▁tenia	-8.7508
▁30	-8.75134
▁comunicació	-8.75181
itat	-8.75261
▁sobretot	-8.75431
laboració	-8.75458
▁mitjançant	-8.75465
▁dona	-8.75505
▁cultura	-8.76595
ri	-8.76805
▁participar	-8.76916
▁veu	-8.76951
▁dissabte	-8.76958
▁desenvolupament	-8.77212
▁mi	-8.77404
▁local	-8.77923
▁2018	-8.77983
▁març	-8.78156
▁Cal	-8.783
▁fi	-8.78914
▁costat	-8.79206
▁ells	-8.79295
▁fou	-8.79328
▁nous	-8.79396
abril	-8.79432
era	-8.79602
▁grups	-8.79665
▁desembre	-8.797
▁paper	-8.80015
▁joc	-8.80015
▁treballar	-8.80468
▁València	-8.80705
▁Centre	-8.80711
▁professionals	-8.80833
I	-8.80861
ació	-8.8102
isme	-8.81249
altra	-8.81263
dor	-8.81283
▁Maria	-8.81525
B	-8.81923
▁foto	-8.82023
▁eren	-8.82137
obra	-8.82176
▁futur	-8.82258
▁matí	-8.82373
▁massa	-8.82425
istes	-8.82599
▁espanyol	-8.82665
▁Santa	-8.82794
▁public	-8.83204
▁plaça	-8.83216
ir	-8.83233
▁nit	-8.83237
▁tornar	-8.83448
▁Girona	-8.83567
empresa	-8.83595
▁25	-8.83667
▁presentar	-8.8381
▁major	-8.83977
▁oculta	-8.83978
T	-8.841
ga	-8.843
▁proper	-8.84444
▁realitzar	-8.8454
▁tema	-8.84739
▁respecte	-8.8476
E	-8.84851
ament	-8.8486
▁mort	-8.84885
co	-8.84954
▁cos	-8.85227
▁Ha	-8.85275
▁mal	-8.85299
▁mapa	-8.8535
▁temporada	-8.85511
▁Re	-8.85515
▁troba	-8.85532
▁F	-8.85576
activitat	-8.85756
▁gener	-8.85896
▁doncs	-8.85917
▁conjunt	-8.85946
▁seguir	-8.86181
ran	-8.86224
▁con	-8.86723
▁algun	-8.86819
▁especial	-8.86843
▁acabar	-8.86854
▁càrrec	-8.86855
▁mar	-8.86866
estat	-8.86994
k	-8.87008
▁passa	-8.87444
ma	-8.87554
▁crear	-8.8764
▁centres	-8.87643
▁euros	-8.87659
hora	-8.87662
▁Això	-8.87778
▁parlar	-8.88087
▁milions	-8.88155
▁entitats	-8.88329
▁servir	-8.88732
▁favorita	-8.88866
▁G	-8.88908
M	-8.88975
▁línia	-8.89006
do	-8.89108
▁Pla	-8.89393
30	-8.89545
▁Jo	-8.89604
▁Durant	-8.89666
▁Fundació	-8.89688
▁minuts	-8.90059
▁fora	-8.90298
F	-8.90348
ien	-8.90658
to	-8.90765
ats	-8.90849
aquests	-8.91001
▁tothom	-8.91158
▁teu	-8.9119
▁model	-8.91273
▁diumenge	-8.91296
▁llibres	-8.91482
P	-8.91564
▁recursos	-8.91712
▁seguretat	-8.91736
tes	-8.91966
▁mitjans	-8.92079
▁ofereix	-8.92123
▁salut	-8.92139
▁Mar	-8.92145
b	-8.92264
▁pública	-8.92268
▁problemes	-8.92517
▁11	-8.92835
he	-8.92999
▁municipal	-8.9332
▁terra	-8.93372
▁millorar	-8.93442
▁2017	-8.93528
▁condicions	-8.9362
▁famílies	-8.93689
▁mostra	-8.94214
àmbit	-8.94242
▁estava	-8.9438
▁territori	-8.94743
▁cinc	-8.94825
▁divendres	-8.94844
▁motiu	-8.94957
▁principal	-8.95
▁recerca	-8.95097
sa	-8.9518
▁jornada	-8.9552
▁mig	-8.95545
▁Can	-8.95682
f	-8.95766
▁E	-8.95779
▁mà	-8.96332
▁base	-8.9643
▁som	-8.96487
▁especialment	-8.9686
▁viure	-8.96866
ja	-8.96942
▁valor	-8.96978
▁creació	-8.97089
▁petit	-8.97092
▁fons	-8.9718
▁festa	-8.97205
▁febrer	-8.9726
▁Espanya	-8.97315
▁21	-8.97339
19	-8.97549
▁prop	-8.97767
z	-8.98026
▁molta	-8.98251
7	-8.98318
le	-8.98592
educació	-8.98687
▁director	-8.9906
▁camp	-8.9965
▁professional	-8.99806
vos	-9.00131
▁allò	-9.0017
acte	-9.00433
▁membres	-9.00501
▁estem	-9.00572
▁ve	-9.00621
estiu	-9.00734
▁potser	-9.00925
▁podeu	-9.00982
▁llocs	-9.01063
▁pàgina	-9.01095
accés	-9.01099
▁Fa	-9.01215
ina	-9.01376
▁visita	-9.01482
▁imatge	-9.01653
▁cultural	-9.01725
▁Avui	-9.01916
espai	-9.01981
aquestes	-9.01994
▁nombre	-9.02059
▁municipi	-9.02295
▁Col	-9.02403
si	-9.02486
▁xarxa	-9.02588
▁tingut	-9.02648
0	-9.02866
▁fàcil	-9.03121
▁presentació	-9.03156
▁tu	-9.03373
00	-9.03584
▁tarda	-9.03713
▁construcció	-9.0399
▁proposta	-9.04016
▁idea	-9.04026
ria	-9.04109
▁direcció	-9.04228
▁mercat	-9.04247
▁24	-9.04271
▁marc	-9.04406
▁nord	-9.04832
rem	-9.04844
▁haurà	-9.04947
▁resultat	-9.05001
▁obra	-9.05011
▁internacional	-9.05087
▁casos	-9.05168
▁sortir	-9.05322
▁resultats	-9.05331
▁metres	-9.05338
▁format	-9.0549
lacions	-9.05967
▁equip	-9.06061
▁problema	-9.06221
▁tindrà	-9.06237
di	-9.06255
eta	-9.06575
▁següent	-9.06761
▁nov	-9.06835
▁països	-9.06948
▁barri	-9.07132
▁dit	-9.07181
▁millors	-9.07192
▁present	-9.07303
▁volem	-9.07333
ització	-9.07353
▁gairebé	-9.07392
▁control	-9.07406
▁campanya	-9.07473
▁farà	-9.07739
6	-9.07806
▁ple	-9.07825
▁portar	-9.07894
il	-9.08091
▁primers	-9.08126
ble	-9.08196
Associació	-9.08245
▁22	-9.084
▁presència	-9.08467
▁causa	-9.08565
▁principals	-9.08784
▁aquells	-9.08872
▁propi	-9.08887
▁lliure	-9.08974
▁color	-9.09028
▁cara	-9.09158
▁capacitat	-9.09263
▁vist	-9.09431
▁Pere	-9.09722
▁pròpia	-9.09745
▁pares	-9.1002
it	-9.10177
▁dur	-9.10202
▁paraules	-9.10224
ter	-9.10281
▁catalans	-9.10316
▁llei	-9.10442
ci	-9.10547
▁natural	-9.10617
▁vi	-9.10626
▁2016	-9.1071
▁sent	-9.10875
▁pla	-9.10927
▁aquell	-9.10935
▁títol	-9.10946
▁necessitats	-9.11071
ós	-9.11198
▁seria	-9.11331
▁pugui	-9.11467
▁R	-9.11468
▁novel	-9.11478
▁Tarragona	-9.11522
▁podria	-9.11595
V	-9.11633
▁caràcter	-9.1178
▁pensar	-9.12058
▁feia	-9.12088
▁espais	-9.12184
▁prou	-9.12194
▁/	-9.12341
▁anat	-9.12504
ing	-9.12547
▁sols	-9.13101
▁material	-9.13111
▁fem	-9.13192
▁#	-9.13308
▁experiència	-9.13416
▁Lleida	-9.13421
▁sèrie	-9.1345
▁coneixement	-9.13503
▁petits	-9.13909
▁dóna	-9.13929
▁disseny	-9.13937
agost	-9.14187
▁quedar	-9.14527
▁Segons	-9.14826
▁sortida	-9.14844
▁llegir	-9.15209
entrada	-9.15258
▁cor	-9.15464
▁producció	-9.15465
▁partits	-9.15482
▁polítics	-9.15535
▁explicar	-9.15735
▁activitat	-9.15849
▁Catalana	-9.15898
▁Que	-9.16034
▁t	-9.16077
altre	-9.16322
ro	-9.1644
8	-9.16505
▁guerra	-9.16735
▁Madrid	-9.16872
▁voltant	-9.16961
▁por	-9.17023
▁teva	-9.17165
▁temes	-9.17243
man	-9.17318
▁necessitat	-9.17422
N	-9.17431
▁fills	-9.17547
•	-9.17875
▁hagi	-9.1794
▁hauria	-9.18288
▁Déu	-9.18401
atenció	-9.18437
▁2015	-9.18556
▁decidir	-9.18601
Institut	-9.18709
Escola	-9.18951
▁Mas	-9.19
▁cert	-9.19031
ni	-9.19331
▁pare	-9.19359
▁marxa	-9.19444
ba	-9.1968
▁vista	-9.19742
▁polítiques	-9.19787
▁llum	-9.19836
▁referència	-9.19911
▁N	-9.19955
▁prova	-9.19977
▁mantenir	-9.20263
illa	-9.20337
im	-9.20553
▁pots	-9.20633
▁propostes	-9.20836
qui	-9.21004
▁període	-9.21018
▁Jaume	-9.21075
▁podrà	-9.21214
▁diferent	-9.21271
▁h	-9.21273
ent	-9.21363
ell	-9.21395
▁havien	-9.21505
▁text	-9.2155
▁popular	-9.21685
▁premi	-9.21723
▁contacte	-9.21883
▁Ho	-9.21907
▁V	-9.22114
▁ciutadans	-9.2225
▁preu	-9.22455
▁ningú	-9.22546
▁via	-9.2266
▁importants	-9.22791
▁Llei	-9.22801
▁23	-9.23003
lació	-9.23015
▁pogut	-9.23149
organització	-9.23233
▁data	-9.23284
▁puguin	-9.23345
▁actual	-9.23371
▁pre	-9.23386
▁elements	-9.23453
▁viatge	-9.23588
havia	-9.23722
Espanya	-9.23883
▁econòmica	-9.24057
▁Entre	-9.24119
▁explica	-9.24212
▁funció	-9.24267
▁Departament	-9.24367
ies	-9.24426
▁defensa	-9.24428
▁llibertat	-9.24536
▁rebre	-9.24766
▁públics	-9.25014
▁Gran	-9.2502
▁Nacional	-9.25047
go	-9.25059
▁mare	-9.25079
▁Ens	-9.25159
▁PP	-9.25242
▁sala	-9.25291
▁màxim	-9.25308
lar	-9.25315
▁veritat	-9.25371
▁DE	-9.25389
dors	-9.25494
▁participants	-9.25506
▁son	-9.25683
▁millora	-9.25767
estudi	-9.25957
▁resposta	-9.26021
▁usuaris	-9.26257
▁cuina	-9.26287
▁presenta	-9.26316
ti	-9.26528
▁classe	-9.26871
▁sovint	-9.26887
▁polític	-9.26969
▁pràctica	-9.26976
▁mesura	-9.26978
▁locals	-9.27014
▁General	-9.27026
▁bo	-9.27047
▁demanar	-9.27129
▁tractament	-9.27344
ells	-9.27449
▁Se	-9.27464
▁comunitat	-9.27498
▁comença	-9.27742
R	-9.27883
▁petita	-9.28038
▁27	-9.28108
▁pa	-9.2817
▁donat	-9.28191
▁moviment	-9.2821
▁Club	-9.28282
eix	-9.28343
▁menjar	-9.28443
▁Més	-9.28454
▁compartir	-9.28534
▁J	-9.28636
▁dijous	-9.28959
9	-9.29066
fa	-9.29177
res	-9.29253
▁>	-9.294
▁utilitzar	-9.29402
▁mans	-9.29421
▁treballadors	-9.29507
▁consum	-9.29582
▁amics	-9.2961
▁baixa	-9.29692
▁homes	-9.29714
▁jove	-9.30074
▁concert	-9.30107
▁seran	-9.30133
exposició	-9.30175
▁celebrar	-9.30407
vi	-9.30526
▁continguts	-9.30796
▁Museu	-9.30823
▁sentir	-9.30903
▁responsable	-9.31117
▁moments	-9.31195
▁iniciativa	-9.31217
10	-9.31436
▁crisi	-9.31437
▁dreta	-9.31476
ge	-9.31576
▁Cultura	-9.31581
▁falta	-9.31694
▁tinc	-9.31702
▁evitar	-9.31773
▁mesures	-9.31836
▁enllà	-9.31933
▁endavant	-9.31991
▁Pel	-9.32013
▁fos	-9.32032
▁possibilitat	-9.32052
▁jocs	-9.32124
▁Em	-9.32226
18	-9.32725
usuari	-9.32818
▁veïns	-9.32834
haver	-9.3298
▁teatre	-9.3301
▁arriba	-9.33028
▁estudis	-9.3305
mo	-9.33267
▁transport	-9.33309
G	-9.33509
▁equips	-9.33565
▁siguin	-9.33606
▁valors	-9.33662
▁tard	-9.33788
▁guanyar	-9.33862
▁ajudar	-9.33935
▁trobem	-9.34071
▁diners	-9.34292
▁2014	-9.34297
▁Tots	-9.34315
▁mateixos	-9.3443
ed	-9.34443
▁clients	-9.34604
ques	-9.34701
▁lluita	-9.3478
▁canviar	-9.34781
▁imatges	-9.34813
▁taula	-9.34867
▁eleccions	-9.34968
v	-9.34999
▁voluntat	-9.351
▁lectura	-9.35112
aquí	-9.35113
▁y	-9.35203
▁intel	-9.35739
▁sap	-9.35829
▁capital	-9.35851
▁mena	-9.3603
@	-9.36151
▁oferir	-9.36166
▁fets	-9.36196
uns	-9.36222
▁just	-9.36276
▁debat	-9.36391
▁visitar	-9.36401
▁volen	-9.36426
▁sessió	-9.36534
▁producte	-9.36551
▁In	-9.36575
▁queda	-9.36598
▁riu	-9.36608
▁crec	-9.36634
▁dilluns	-9.36762
▁recorregut	-9.36872
acció	-9.36904
ara	-9.36992
▁difícil	-9.37117
aire	-9.3716
amb	-9.37246
▁trobada	-9.37275
▁correu	-9.37443
▁co	-9.37496
▁importància	-9.37599
▁Vila	-9.37685
▁fill	-9.37756
▁superior	-9.37765
▁central	-9.38047
▁hora	-9.38075
▁llavors	-9.38134
▁número	-9.385
▁mitjà	-9.38533
▁28	-9.38623
▁carrers	-9.38689
▁viu	-9.38909
▁comarca	-9.38951
inici	-9.39025
▁Parlament	-9.3913
▁clau	-9.39397
!!	-9.39447
▁Us	-9.39676
▁objectius	-9.39724
▁protecció	-9.39769
ins	-9.39858
▁parla	-9.39877
legi	-9.39968
▁aviat	-9.40014
▁50	-9.40069
▁arribat	-9.40111
▁canvis	-9.40114
▁26	-9.40168
▁aspectes	-9.40365
▁tasca	-9.40366
▁tercer	-9.40441
▁—	-9.4055
▁Social	-9.40606
▁Miquel	-9.40754
▁concurs	-9.40804
▁seguit	-9.40876
▁ahir	-9.40956
autor	-9.4102
11	-9.41101
▁entrar	-9.41341
ella	-9.41342
▁marca	-9.41361
▁segur	-9.41363
ix	-9.41574
▁podran	-9.41609
mes	-9.41643
▁zones	-9.41679
▁laboral	-9.41701
▁llista	-9.4172
▁infants	-9.41733
▁familiar	-9.41762
article	-9.41802
▁ella	-9.41836
interès	-9.41839
▁Pi	-9.41858
▁posa	-9.41911
▁principi	-9.41954
▁empresa	-9.41965
▁Pau	-9.42061
▁perdre	-9.42076
▁musical	-9.42111
▁responsabilitat	-9.42166
osa	-9.42435
▁necessari	-9.42448
▁sé	-9.4254
▁alhora	-9.4273
ce	-9.42821
▁darrers	-9.42947
▁2013	-9.42959
▁prendre	-9.43083
▁Carles	-9.43384
entorn	-9.43521
▁sud	-9.43723
▁taller	-9.43845
▁quin	-9.4386
▁2012	-9.43867
▁últims	-9.43921
H	-9.4395
car	-9.43962
▁actes	-9.44042
▁igual	-9.44051
▁jugar	-9.44089
▁quantitat	-9.4412
▁ex	-9.44129
▁Ma	-9.44197
ig	-9.44298
▁K	-9.44307
lectiu	-9.44395
ex	-9.4447
▁to	-9.44482
▁objectiu	-9.44582
▁planta	-9.44629
Educació	-9.44662
▁medi	-9.44694
▁descobrir	-9.44713
▁termini	-9.44917
▁ciutadania	-9.44987
▁Internacional	-9.45028
▁xarxes	-9.4506
int	-9.45085
ida	-9.45247
lecció	-9.45251
ava	-9.45258
▁tampoc	-9.45276
anar	-9.45292
▁categoria	-9.45309
▁següents	-9.45447
▁finalment	-9.45478
▁deu	-9.45502
▁dubte	-9.45511
▁actualment	-9.45599
edat	-9.45757
▁Co	-9.45907
lícula	-9.46014
15	-9.46046
▁treballs	-9.46061
ària	-9.46073
▁Són	-9.46095
▁darrera	-9.46167
▁accions	-9.4618
▁risc	-9.46318
▁Unió	-9.46332
▁algú	-9.46345
▁Francesc	-9.4637
▁entorn	-9.46373
▁Casa	-9.46375
▁continuar	-9.46461
▁muntanya	-9.4647
experiència	-9.46542
▁compta	-9.46542
▁Hem	-9.46646
▁cicle	-9.46822
▁convertir	-9.46961
▁directament	-9.47019
▁matèria	-9.47031
▁Sa	-9.47099
▁29	-9.4714
▁personatges	-9.47217
▁nacional	-9.4727
ten	-9.47411
▁malgrat	-9.47424
ul	-9.47462
▁escrit	-9.47468
K	-9.47554
pa	-9.47616
▁mil	-9.47725
­	-9.47945
▁sort	-9.47985
▁Diputació	-9.4816
▁He	-9.48161
▁contingut	-9.48245
▁Camp	-9.48283
▁recordar	-9.48355
▁disc	-9.48442
▁Cap	-9.48448
▁obert	-9.48467
▁deixa	-9.48494
▁gènere	-9.48532
▁favor	-9.48618
▁companyia	-9.48811
▁Con	-9.48822
▁juntament	-9.49035
alcalde	-9.49072
▁club	-9.49264
▁pocs	-9.49313
tra	-9.49586
▁Parc	-9.49606
▁Nadal	-9.49695
▁municipals	-9.49748
▁materials	-9.49834
▁França	-9.49961
▁entendre	-9.50042
▁publicat	-9.50069
▁tècnica	-9.50206
▁podia	-9.50423
▁posició	-9.505
▁espanyola	-9.50619
està	-9.50803
▁escoles	-9.51033
▁real	-9.51085
▁sis	-9.51143
iu	-9.51212
▁desenvolupar	-9.51226
▁tradicional	-9.51231
▁funcionament	-9.51264
▁finalitat	-9.51301
estar	-9.51325
▁construir	-9.51486
▁Premi	-9.51661
▁relacions	-9.51879
ch	-9.51924
esquerra	-9.51926
agrada	-9.52111
ad	-9.52169
▁tallers	-9.5217
▁memòria	-9.5226
▁institucions	-9.52266
entre	-9.52374
▁econòmic	-9.52378
origen	-9.52388
▁conegut	-9.52444
activitats	-9.52483
▁oficial	-9.5251
▁personals	-9.52564
▁plena	-9.52606
▁finals	-9.52734
▁peu	-9.52752
▁qüestió	-9.52764
▁Vi	-9.52897
▁paraula	-9.53068
actual	-9.53102
▁costa	-9.53146
alta	-9.53393
▁Ramon	-9.5342
▁Teatre	-9.5344
▁continua	-9.53668
▁X	-9.53678
▁buscar	-9.53709
entitat	-9.53748
tor	-9.53798
edifici	-9.53817
▁dimecres	-9.53918
▁formar	-9.53959
▁ambient	-9.5401
ets	-9.5402
▁cel	-9.54066
w	-9.54101
▁ganes	-9.54138
▁pro	-9.54185
Europa	-9.54234
▁castellà	-9.54262
▁Municipal	-9.54289
▁anterior	-9.54331
▁home	-9.54355
▁aquella	-9.54357
▁comú	-9.5452
▁situat	-9.54643
▁troben	-9.54653
▁Fins	-9.54766
▁pràctiques	-9.54963
▁set	-9.5516
▁digital	-9.55193
!!!	-9.55218
▁H	-9.5528
▁versió	-9.55414
▁tècniques	-9.55448
▁Li	-9.55454
▁carretera	-9.55493
▁totalment	-9.55535
est	-9.55645
amor	-9.5585
elles	-9.55865
▁Només	-9.55882
▁estaven	-9.55915
▁infantil	-9.55945
▁darrer	-9.55969
▁setmanes	-9.56128
▁estudiants	-9.56198
▁document	-9.56451
ves	-9.56641
▁primeres	-9.56823
▁100	-9.56854
▁nenes	-9.56863
▁raó	-9.56912
ck	-9.5697
▁posat	-9.57062
característiques	-9.57085
▁mínim	-9.57305
▁formes	-9.57313
▁violència	-9.57358
▁programes	-9.57367
▁cinema	-9.5748
▁escriure	-9.57512
▁of	-9.57516
▁pes	-9.5752
▁Sala	-9.57588
▁quina	-9.57681
▁Aquests	-9.57744
▁Europa	-9.57911
▁cotxe	-9.5795
▁principis	-9.57975
▁actuacions	-9.57989
ve	-9.58033
informació	-9.58037
um	-9.58084
No	-9.58262
▁pista	-9.58268
▁vídeo	-9.5831
gui	-9.58324
▁km	-9.58411
▁obtenir	-9.58424
▁2011	-9.58443
▁allà	-9.58502
▁interessant	-9.58508
▁patrimoni	-9.58524
▁Finalment	-9.58647
▁compromís	-9.58684
▁reunió	-9.58816
▁Vall	-9.58821
tar	-9.58884
▁Servei	-9.58892
▁figura	-9.59043
itzar	-9.59198
▁companys	-9.59243
mar	-9.59311
▁Estats	-9.59386
▁cursos	-9.59392
▁festes	-9.59462
▁gaire	-9.59484
▁professor	-9.59578
▁blog	-9.59594
▁selecció	-9.59616
▁40	-9.59631
con	-9.59734
▁comprar	-9.59937
▁directe	-9.59997
▁electrònic	-9.60022
▁rei	-9.60045
▁Lluís	-9.60413
▁p	-9.6047
j	-9.60492
▁premsa	-9.6058
▁dimarts	-9.60591
▁Balears	-9.60598
▁ruta	-9.60668
nes	-9.60673
▁Grup	-9.60731
ons	-9.60733
▁Cada	-9.60763
home	-9.60862
▁car	-9.60889
▁visió	-9.60899
església	-9.60908
▁Català	-9.60938
gen	-9.61
▁celebració	-9.61067
▁Antoni	-9.61089
ver	-9.61174
▁varen	-9.61181
▁decisió	-9.61241
ana	-9.61263
▁Comissió	-9.61308
▁The	-9.61325
▁Aquestes	-9.61422
▁baix	-9.6156
últim	-9.616
▁bloc	-9.61634
bo	-9.61645
▁creixement	-9.61691
▁accedir	-9.618
▁Salut	-9.6185
▁destacar	-9.6195
▁aconseguit	-9.61984
▁llarga	-9.62102
▁aquelles	-9.62472
▁presentat	-9.62804
▁Mallorca	-9.62899
▁diari	-9.62911
▁aprendre	-9.62923
▁rebut	-9.62951
avui	-9.63172
actuació	-9.63237
▁recull	-9.63245
▁continuació	-9.63282
▁jugadors	-9.63404
▁ciutats	-9.63455
aprenentatge	-9.63457
▁premis	-9.63539
port	-9.63598
▁tradició	-9.63637
▁sigut	-9.6373
època	-9.63793
▁colors	-9.63965
▁explicat	-9.64018
U	-9.64071
▁te	-9.64081
▁hagut	-9.64403
▁públiques	-9.64442
ador	-9.64472
▁mostrar	-9.64486
▁W	-9.64758
aplicació	-9.64801
▁Palau	-9.64815
▁inter	-9.64849
▁Nova	-9.6489
ber	-9.64905
▁organitzat	-9.64926
▁Units	-9.64985
▁sub	-9.65019
▁2010	-9.65084
▁promoció	-9.65099
▁pagar	-9.65132
ur	-9.65156
▁diuen	-9.65349
▁garantir	-9.65363
alumnat	-9.65387
▁municipis	-9.65407
▁literatura	-9.65466
▁convocatòria	-9.65476
▁cost	-9.6553
▁grau	-9.65561
▁tercera	-9.65579
▁foc	-9.65594
▁obrir	-9.6563
▁Sol	-9.65959
euros	-9.66
ren	-9.66221
[	-9.6625
gues	-9.66323
▁futbol	-9.66345
▁idees	-9.6635
▁trobat	-9.66578
▁acabat	-9.66598
jo	-9.66602
▁tècnic	-9.66669
▁mitjana	-9.66707
▁post	-9.66745
▁realment	-9.66767
▁culturals	-9.66797
▁Dia	-9.6692
W	-9.66923
oli	-9.66925
▁tenien	-9.67013
://	-9.67093
únic	-9.67107
▁peces	-9.67136
▁independència	-9.67184
▁escolar	-9.6729
12	-9.67384
▁realitzat	-9.67464
▁efectes	-9.67629
▁fotografia	-9.67701
▁doble	-9.67894
▁classes	-9.67962
ic	-9.67971
▁membre	-9.68011
▁inclou	-9.68015
▁fotos	-9.68038
ers	-9.68079
▁pobles	-9.68092
▁proves	-9.6828
▁Guerra	-9.68295
17	-9.68332
▁31	-9.68334
▁José	-9.68356
▁Major	-9.68384
economia	-9.68489
▁deixat	-9.68736
▁comercial	-9.68811
ton	-9.68861
▁segueix	-9.68932
ura	-9.68971
▁the	-9.69058
▁humans	-9.69139
▁Jesús	-9.69217
▁disposa	-9.69224
▁sistemes	-9.69231
▁bones	-9.69247
▁Festival	-9.6951
▁recuperar	-9.69571
▁tens	-9.69664
▁puc	-9.69701
fer	-9.69702
▁cursa	-9.69781
▁gust	-9.69792
▁pàgines	-9.70323
▁publicar	-9.70385
▁ulls	-9.70461
▁obstant	-9.70515
▁treballant	-9.70535
▁portes	-9.70566
▁Europea	-9.70582
▁fase	-9.70637
▁manteniment	-9.70674
▁diferència	-9.70755
▁suposa	-9.7082
▁ajuda	-9.70835
▁tranquil	-9.70869
▁treure	-9.70883
▁Aquí	-9.70886
▁Fira	-9.70929
▁torna	-9.70962
»,	-9.71034
▁coneixements	-9.71207
▁ús	-9.71226
▁U	-9.71328
▁disposició	-9.71335
▁Mont	-9.71354
X	-9.71372
▁considera	-9.71505
▁processos	-9.71544
▁vostra	-9.71713
▁fotografies	-9.71791
par	-9.71847
▁negoci	-9.71872
▁facilitar	-9.71936
lent	-9.71948
▁Illes	-9.72006
▁II	-9.72112
▁estic	-9.72119
▁creu	-9.72165
Ebre	-9.72206
▁Festa	-9.72252
▁original	-9.72371
▁representació	-9.72387
actualitat	-9.72399
▁tecnologia	-9.72438
als	-9.72679
▁tram	-9.72688
bi	-9.72928
▁eines	-9.7301
▁castell	-9.73025
20	-9.73034
pe	-9.73168
▁Perquè	-9.73288
dora	-9.73294
á	-9.73304
▁passant	-9.73326
▁francès	-9.73333
▁propietat	-9.7348
▁manca	-9.73514
èxit	-9.73664
▁reconeixement	-9.73773
▁meitat	-9.7386
▁font	-9.73927
+	-9.73964
ol	-9.74142
▁damunt	-9.74187
▁acaba	-9.7419
▁parts	-9.74254
▁esta	-9.74461
▁Ca	-9.74514
▁donen	-9.74573
▁parc	-9.74606
▁èxit	-9.74741
▁blanc	-9.74794
▁me	-9.74822
▁vols	-9.74862
▁quedat	-9.74937
▁faci	-9.74955
▁TV	-9.74991
▁Gràcies	-9.7509
àrea	-9.75144
▁Federació	-9.75265
etes	-9.75363
▁c	-9.75383
▁Pro	-9.75618
▁revista	-9.75624
▁línies	-9.75652
▁places	-9.75659
_	-9.75797
▁acte	-9.75824
▁0	-9.75946
14	-9.7606
administració	-9.76109
▁Pa	-9.76237
▁animals	-9.76246
▁David	-9.7635
▁front	-9.76358
lla	-9.76378
du	-9.76406
▁arreu	-9.76461
els	-9.7655
▁cançons	-9.76603
▁Di	-9.76642
▁Què	-9.76813
▁Puig	-9.76843
unes	-9.77061
▁Martí	-9.77086
interior	-9.77106
▁valencià	-9.77111
▁civil	-9.77225
▁estudi	-9.7725
hotel	-9.7735
▁situacions	-9.77446
▁venda	-9.77531
▁context	-9.77716
am	-9.77762
▁educatiu	-9.7781
▁Marc	-9.77828
lat	-9.77844
16	-9.77848
▁habitual	-9.77939
En	-9.77957
▁meus	-9.77964
▁màxima	-9.77997
▁pressupost	-9.7803
▁representants	-9.78077
▁XX	-9.78194
▁celebra	-9.78255
ç	-9.78443
▁iniciar	-9.78491
▁Valenciana	-9.78665
▁vull	-9.78673
▁pell	-9.78691
▁so	-9.78714
▁cases	-9.78768
▁necessita	-9.79016
▁Civil	-9.79084
▁volta	-9.79165
▁pujar	-9.79183
▁familiars	-9.79331
▁Reus	-9.79396
▁teniu	-9.79459
▁República	-9.79489
▁formen	-9.79658
▁solució	-9.79706
▁fort	-9.79746
▁fusta	-9.79927
▁article	-9.80056
▁client	-9.80237
▁morir	-9.80341
energia	-9.80625
▁quasi	-9.80653
▁consulta	-9.80816
▁and	-9.80839
▁donant	-9.81063
▁programació	-9.81067
▁Cor	-9.81072
▁demana	-9.81083
▁pedra	-9.81124
▁mitja	-9.81245
ajuntament	-9.81256
men	-9.81307
▁vuit	-9.81325
cal	-9.81332
▁lluny	-9.81391
▁turisme	-9.81432
▁victòria	-9.81438
▁volia	-9.81487
edició	-9.81529
▁Del	-9.81545
▁contrari	-9.816
ocupació	-9.81608
▁feta	-9.8163
▁Encara	-9.81634
▁concepte	-9.81761
▁possibles	-9.81791
ris	-9.81937
▁secció	-9.82011
▁platja	-9.82027
▁representa	-9.82044
▁Vallès	-9.82114
oses	-9.82142
▁sabem	-9.82259
eres	-9.82315
▁històric	-9.82368
▁socis	-9.82411
▁Ciutat	-9.82421
▁oberta	-9.82611
▁Mo	-9.82663
osos	-9.8269
▁pretén	-9.82712
▁anem	-9.82743
▁Font	-9.82756
▁rep	-9.82818
pi	-9.82835
▁pregunta	-9.82913
▁règim	-9.83016
▁ritme	-9.83168
▁vot	-9.83172
▁sal	-9.83291
▁2009	-9.8333
▁festival	-9.83543
▁60	-9.83562
▁Baix	-9.83722
▁anti	-9.83757
▁vehicles	-9.83759
▁mirar	-9.83795
ò	-9.83932
ka	-9.83971
▁para	-9.83978
bles	-9.84018
▁permetre	-9.84055
▁venir	-9.84089
son	-9.84119
Al	-9.84167
gar	-9.84389
▁definitiva	-9.84543
▁presó	-9.84564
▁Terra	-9.84571
▁regidor	-9.84683
dia	-9.84745
▁organitza	-9.84819
be	-9.84955
▁natura	-9.84987
▁televisió	-9.84989
▁Actualment	-9.84999
lusió	-9.85051
esport	-9.85101
▁ma	-9.85105
▁artistes	-9.8512
▁bons	-9.85148
▁Biblioteca	-9.85181
▁anglès	-9.85195
▁Llobregat	-9.85207
▁País	-9.85258
▁heu	-9.85334
▁Barça	-9.85409
▁malaltia	-9.85422
▁surt	-9.8548
▁començat	-9.85528
▁comerç	-9.85679
▁forces	-9.85713
▁petites	-9.85829
▁habitants	-9.859
▁comptar	-9.85965
za	-9.86028
▁Vic	-9.86068
▁parella	-9.86188
▁sa	-9.86272
alt	-9.86341
▁treballa	-9.86406
▁tren	-9.86549
▁nen	-9.8671
J	-9.86742
▁parell	-9.86777
▁particular	-9.86801
tu	-9.86816
▁mundial	-9.86829
ís	-9.86839
estil	-9.86868
lic	-9.8688
▁funcions	-9.86928
▁interessos	-9.86998
▁industrial	-9.87018
▁senyor	-9.87024
▁àmbits	-9.87045
▁normativa	-9.8706
▁creat	-9.8712
iva	-9.87157
▁concret	-9.87262
▁experiències	-9.87278
net	-9.87283
vo	-9.87295
▁passada	-9.87394
▁alt	-9.87471
▁tingui	-9.87639
▁Treball	-9.87682
▁propis	-9.87731
▁sóc	-9.87735
eria	-9.87781
▁Comunitat	-9.87819
▁roba	-9.87886
▁vostre	-9.87888
▁plataforma	-9.87928
▁naturals	-9.88004
▁Mundial	-9.88037
▁llegint	-9.88044
mp	-9.88069
▁Sí	-9.88104
▁paisatge	-9.88231
▁excel	-9.88265
▁Doncs	-9.88294
▁missatge	-9.88305
▁San	-9.88412
po	-9.88431
▁global	-9.88448
▁tècnics	-9.88471
▁tocar	-9.88526
▁física	-9.88543
▁carrera	-9.88629
▁pròpies	-9.88671
▁val	-9.88704
▁confiança	-9.88715
▁Serveis	-9.88805
▁Le	-9.88809
▁dinar	-9.88817
▁Potser	-9.88862
estació	-9.88879
▁sopar	-9.89008
▁cent	-9.89043
cer	-9.8908
▁democràcia	-9.8927
▁Sabadell	-9.89323
▁època	-9.89335
tin	-9.8935
▁sessions	-9.89383
▁possibilitats	-9.89457
▁Música	-9.89481
▁pena	-9.89616
▁agafar	-9.89625
▁Port	-9.89681
▁documents	-9.89726
▁Na	-9.89796
▁Xavier	-9.89819
▁superar	-9.89882
▁corresponent	-9.89957
Els	-9.89966
▁aniversari	-9.90076
sos	-9.90095
▁tasques	-9.90103
▁preguntes	-9.90108
▁2007	-9.90114
▁permeten	-9.90133
associació	-9.9015
▁anteriors	-9.90185
der	-9.90187
ajuda	-9.90223
esa	-9.90313
▁humà	-9.90318
▁personatge	-9.90338
ull	-9.90398
▁Costa	-9.90423
▁nivells	-9.90475
única	-9.90503
▁fe	-9.9063
arribada	-9.90681
ESO	-9.90716
▁participat	-9.90808
▁Juan	-9.90834
▁Som	-9.90871
▁recollir	-9.90981
▁articles	-9.91015
▁consultar	-9.91021
▁cura	-9.91023
▁reflexió	-9.91093
ut	-9.91122
▁poesia	-9.91139
▁Cultural	-9.91146
▁+	-9.91177
▁pagament	-9.91235
▁tractar	-9.91259
▁quart	-9.91264
ki	-9.91285
▁carta	-9.91285
▁intervenció	-9.91287
▁Serra	-9.91365
▁motius	-9.91374
▁negre	-9.91396
▁reserva	-9.91457
▁professors	-9.91596
▁→	-9.91603
▁Plaça	-9.91616
▁eina	-9.91617
▁documentació	-9.91682
▁plantes	-9.91693
▁afegir	-9.91776
▁volgut	-9.91815
ari	-9.91908
▁seues	-9.91932
espera	-9.9205
ès	-9.92064
ensenyament	-9.92092
▁pau	-9.92112
▁Montserrat	-9.92238
▁catalanes	-9.92279
▁2008	-9.92347
atur	-9.92365
última	-9.92391
▁dedicat	-9.92401
▁conseqüència	-9.92425
Y	-9.92516
del	-9.92536
tiva	-9.92606
▁Pre	-9.92617
▁apareix	-9.92713
▁decidit	-9.92881
▁estigui	-9.9294
▁Ni	-9.92951
▁néixer	-9.92992
▁ocasió	-9.93003
▁capaç	-9.93023
▁llenguatge	-9.93036
▁alta	-9.93064
▁seguint	-9.93113
▁Congrés	-9.93131
▁intenció	-9.93274
▁reduir	-9.93288
ré	-9.93411
Administració	-9.93435
▁comentaris	-9.9344
▁PSC	-9.93452
▁enguany	-9.93489
▁vostres	-9.93516
▁Continua	-9.93517
▁vint	-9.93548
▁autors	-9.93572
això	-9.93585
▁tenint	-9.93594
▁Castell	-9.93835
▁gens	-9.93898
ines	-9.93909
▁for	-9.94002
▁be	-9.94034
▁responsables	-9.94054
▁completa	-9.94106
gi	-9.94137
▁volum	-9.94227
▁produir	-9.94326
▁organitzar	-9.94381
13	-9.94384
ner	-9.94418
estructura	-9.94601
▁Terrassa	-9.94608
ot	-9.94615
ke	-9.9474
ordre	-9.94768
Art	-9.94799
▁significa	-9.94824
▁agents	-9.94828
ero	-9.94894
▁cançó	-9.94994
▁internacionals	-9.95029
▁difusió	-9.95043
▁protagonista	-9.95049
▁Car	-9.95116
▁reforma	-9.95135
▁destaca	-9.95389
▁vila	-9.95398
▁Bo	-9.95468
▁assistir	-9.95488
je	-9.95519
▁escoltar	-9.95538
ll	-9.95612
▁biblioteca	-9.95613
th	-9.95638
▁única	-9.95715
sta	-9.95807
▁faran	-9.95935
▁Malgrat	-9.95944
▁perdut	-9.96084
▁recorda	-9.96194
▁bar	-9.96283
▁compra	-9.9632
▁silenci	-9.96412
50	-9.96447
▁intentar	-9.9645
exercici	-9.96475
▁policia	-9.96518
▁relacionats	-9.96656
▁resulta	-9.96725
▁humana	-9.96813
▁preus	-9.96823
ona	-9.96855
▁voler	-9.96858
▁telèfon	-9.9699
Església	-9.97031
▁visites	-9.97046
▁resoldre	-9.97066
▁Qui	-9.97136
▁mestres	-9.97193
▁dificultats	-9.97409
—	-9.97512
▁clara	-9.9752
▁vosaltres	-9.97558
ure	-9.97643
▁torn	-9.97737
xi	-9.97854
via	-9.97874
▁Google	-9.97887
▁Mon	-9.97984
ï	-9.98016
▁Junta	-9.98162
▁vacances	-9.98165
▁diversitat	-9.98303
▁establir	-9.98403
▁•	-9.98411
▁hagués	-9.98512
▁decisions	-9.98742
▁visitants	-9.98756
ru	-9.98885
so	-9.98921
▁primària	-9.98954
▁Ar	-9.98964
▁trans	-9.98969
id	-9.99024
▁Està	-9.99152
enc	-9.99187
▁previst	-9.99201
▁vespre	-9.99291
Hospital	-9.993
▁Ràdio	-9.99328
▁realitza	-9.9936
▁sectors	-9.99366
▁Lo	-9.99387
▁tancar	-9.99484
atge	-9.99562
ió	-9.9962
tre	-9.99695
▁crítica	-9.99791
	-9.99826
▁Valencià	-9.99837
▁normal	-9.99855
▁trobareu	-9.9995
▁educativa	-10
▁competició	-10.0009
▁aigua	-10.0011
▁pati	-10.0011
▁interior	-10.0011
▁realització	-10.0013
▁accés	-10.0018
▁discurs	-10.0022
▁greu	-10.0035
ou	-10.0043
▁record	-10.0048
▁mobilitat	-10.0055
lectius	-10.0062
▁restaurant	-10.0066
▁propera	-10.0069
▁documental	-10.0073
▁fonts	-10.0075
▁conseller	-10.0075
▁preparar	-10.0078
▁generació	-10.0088
Alt	-10.0089
“	-10.009
▁conveni	-10.009
▁competències	-10.0091
mi	-10.01
▁vent	-10.0103
ologia	-10.0104
▁certa	-10.0107
▁tecnologies	-10.0125
st	-10.0127
▁fil	-10.0137
▁proposa	-10.015
▁notícia	-10.0156
▁ciència	-10.0178
▁Nou	-10.0183
▁mòbil	-10.0184
▁concerts	-10.0192
▁llengües	-10.0198
▁contracte	-10.0209
rat	-10.0216
▁promoure	-10.022
tem	-10.0226
▁resolució	-10.0227
▁superfície	-10.0231
▁permanent	-10.0242
▁jornades	-10.0244
pat	-10.0247
▁votar	-10.0247
▁notícies	-10.0248
▁Ne	-10.0249
▁presents	-10.0255
▁justícia	-10.0263
▁Man	-10.0267
▁inicial	-10.0268
▁teus	-10.0271
▁camps	-10.0276
▁actuals	-10.0278
▁recuperació	-10.0279
habitatge	-10.0292
▁distància	-10.0297
▁cita	-10.0299
▁estarà	-10.0303
▁sensació	-10.0304
▁ca	-10.0306
▁defensar	-10.031
▁convertit	-10.0312
op	-10.0313
▁terreny	-10.0315
▁Castelló	-10.0316
▁demanda	-10.0321
▁caure	-10.0337
▁investigació	-10.0341
▁velocitat	-10.0348
&	-10.0357
▁referèndum	-10.0358
àries	-10.0359
elaboració	-10.0364
▁contes	-10.0366
esta	-10.037
▁ideal	-10.0378
acions	-10.038
▁mida	-10.038
▁neu	-10.038
tal	-10.0388
▁queden	-10.039
▁noms	-10.0394
▁Local	-10.0397
able	-10.0404
fi	-10.0407
25	-10.0413
▁històrica	-10.0414
▁bany	-10.0416
ú	-10.0419
▁agrada	-10.042
as	-10.0426
▁distribució	-10.0431
anàlisi	-10.0436
▁complir	-10.0443
▁textos	-10.0444
ena	-10.0444
▁XIX	-10.0446
▁plat	-10.046
evolució	-10.0462
▁simple	-10.0464
▁patir	-10.0466
▁pi	-10.0467
▁seguiment	-10.0468
licitud	-10.0475
▁dalt	-10.0483
▁diàleg	-10.0489
▁Partit	-10.0489
▁demà	-10.0512
▁200	-10.0515
▁Palma	-10.0518
▁criteris	-10.0528
▁comptes	-10.0529
▁finançament	-10.0533
▁fred	-10.0541
▁comissió	-10.0549
▁educatius	-10.0555
▁necessària	-10.0565
▁x	-10.0569
▁Ri	-10.0577
▁amic	-10.0579
ry	-10.0584
lu	-10.059
▁quants	-10.059
▁sang	-10.059
▁enviar	-10.0591
▁aprofitar	-10.0593
ly	-10.0598
▁únic	-10.0602
▁estona	-10.0607
▁menor	-10.0611
escenari	-10.0612
▁entrada	-10.0621
▁París	-10.0635
▁Bon	-10.0637
▁Ta	-10.0639
▁consciència	-10.0646
▁comarques	-10.0646
ES	-10.0653
▁partida	-10.0677
▁voleu	-10.0679
▁peça	-10.0682
▁destacat	-10.0684
oportunitat	-10.0687
▁Manuel	-10.069
▁estil	-10.0694
▁poca	-10.0696
sol	-10.07
▁organitzacions	-10.0709
▁atenció	-10.0713
▁ocasions	-10.072
▁unitat	-10.0723
▁perill	-10.0731
▁situada	-10.0735
▁detalls	-10.0737
tat	-10.0738
▁mateixes	-10.0741
▁toca	-10.0742
▁Societat	-10.0743
▁Turisme	-10.0745
▁calor	-10.0746
▁àrees	-10.075
▁trajectòria	-10.0751
▁solucions	-10.0753
▁vots	-10.0754
▁calendari	-10.0762
▁terres	-10.0768
ger	-10.0769
▁bases	-10.0773
▁detall	-10.0789
▁conflicte	-10.0792
▁pèrdua	-10.0795
▁gratuïta	-10.0804
▁antic	-10.081
▁precisament	-10.0811
▁moviments	-10.0814
▁afegit	-10.0814
▁opció	-10.0818
▁darrere	-10.0827
▁port	-10.0829
▁generar	-10.0832
▁termes	-10.0839
▁constant	-10.0854
▁exposició	-10.0857
▁Ciències	-10.0858
▁manté	-10.0861
▁protagonistes	-10.0866
▁qüestions	-10.0869
▁bastant	-10.0869
existència	-10.0871
▁anava	-10.0886
▁mirada	-10.0887
▁Nord	-10.09
▁individual	-10.091
▁munt	-10.091
▁Sense	-10.0913
gu	-10.0913
▁cookies	-10.0916
40	-10.092
▁Vaig	-10.0923
▁relat	-10.0924
ya	-10.0935
antic	-10.0937
més	-10.0938
▁assegurar	-10.0939
▁associacions	-10.0941
▁Comarcal	-10.0942
expressió	-10.0944
▁Rosa	-10.0947
▁nota	-10.0956
▁Popular	-10.0962
ides	-10.0968
oferta	-10.0969
▁relacionades	-10.0971
▁entitat	-10.0978
▁enrere	-10.0981
▁estudiar	-10.0982
▁vins	-10.0988
Or	-10.0988
▁Menorca	-10.0989
▁propers	-10.0997
▁Bar	-10.0998
▁dic	-10.1003
▁periodista	-10.1014
aula	-10.1014
▁electoral	-10.1018
▁tret	-10.1019
▁Sr	-10.102
▁LA	-10.1026
bar	-10.1029
▁ball	-10.1039
▁coneguda	-10.104
▁bosc	-10.104
▁acord	-10.1042
▁lloguer	-10.1043
hivern	-10.1046
▁recollida	-10.1049
esforç	-10.1054
▁&	-10.1056
▁Te	-10.1058
cu	-10.1059
▁domini	-10.106
▁farem	-10.1066
▁Salvador	-10.1066
▁opcions	-10.1072
▁tinguin	-10.1072
▁populars	-10.1078
án	-10.1086
▁Tribunal	-10.1087
▁quilòmetres	-10.1087
ita	-10.1089
▁indústria	-10.109
▁ampli	-10.1099
▁considerar	-10.1101
▁Medi	-10.1103
▁Ra	-10.1103
▁Manresa	-10.1104
oci	-10.1108
▁¿	-10.1108
▁has	-10.1114
▁Andreu	-10.1115
▁Han	-10.1116
▁Albert	-10.1116
▁migdia	-10.1117
▁portaveu	-10.1119
▁milers	-10.1119
enllaç	-10.1121
▁pis	-10.1125
▁guia	-10.1129
Re	-10.1134
▁80	-10.1139
às	-10.114
empreses	-10.1142
www	-10.1144
▁sola	-10.1144
▁assistents	-10.1151
500	-10.1153
▁hauran	-10.116
▁viuen	-10.1161
espectacle	-10.1163
litat	-10.1163
▁Ser	-10.1167
▁carn	-10.117
▁repte	-10.118
▁etapa	-10.1181
▁legal	-10.1189
▁identitat	-10.1191
▁forn	-10.1205
▁camins	-10.1205
▁dedicar	-10.1205
▁super	-10.1211
▁boca	-10.1216
artista	-10.1217
▁paral	-10.1224
▁maneres	-10.1224
▁*	-10.123
▁models	-10.1235
▁Ter	-10.1244
▁Web	-10.1248
▁jugador	-10.1252
▁espectacle	-10.1254
tic	-10.126
cio	-10.1268
▁Direcció	-10.127
▁especials	-10.1286
▁departament	-10.1287
▁privat	-10.1292
▁Fi	-10.1292
▁principalment	-10.1295
lectual	-10.1301
▁existeix	-10.1302
tà	-10.1306
xa	-10.1311
▁esdeveniments	-10.1314
▁segles	-10.1318
▁edificis	-10.1319
▁Sal	-10.1326
▁plegat	-10.133
▁Mare	-10.1334
hem	-10.1339
vin	-10.1347
nts	-10.1348
▁llet	-10.1357
íem	-10.1366
au	-10.1368
tiu	-10.138
cs	-10.1388
▁filla	-10.1398
cen	-10.1399
lí	-10.1404
▁pressió	-10.1406
▁treballat	-10.141
vem	-10.142
▁registre	-10.142
▁autor	-10.1421
▁Feliu	-10.1421
▁poques	-10.1425
▁pintura	-10.1428
▁econòmics	-10.143
▁regió	-10.1434
▁comercials	-10.1437
▁vehicle	-10.1438
▁fonamental	-10.1442
▁nucli	-10.1443
▁dansa	-10.1447
▁Dr	-10.1451
▁manifest	-10.1469
▁varietat	-10.1473
▁pensament	-10.1475
▁professorat	-10.1477
▁novetats	-10.1477
▁coneix	-10.1483
iana	-10.1486
mat	-10.1491
▁tradicionals	-10.1496
ny	-10.1497
▁mestre	-10.1504
▁celebrat	-10.1517
▁habitatges	-10.152
▁treballen	-10.1527
▁històries	-10.153
▁feien	-10.1534
ía	-10.1537
▁Primer	-10.1545
▁Xarxa	-10.1547
▁podreu	-10.1549
▁compliment	-10.1559
ler	-10.1562
▁residus	-10.1564
▁interès	-10.1567
▁busca	-10.1567
tives	-10.1571
▁directa	-10.1587
▁retorn	-10.159
▁Catalans	-10.1591
▁prevenció	-10.1594
▁Van	-10.16
àvem	-10.1603
▁Internet	-10.1603
▁Gra	-10.1613
▁Creu	-10.1614
▁normes	-10.1618
▁neteja	-10.1619
▁últim	-10.1628
ssa	-10.1631
▁fomentar	-10.1632
▁restes	-10.1634
▁menors	-10.1641
▁veus	-10.1649
alguns	-10.165
▁Abans	-10.1653
▁b	-10.166
Estudis	-10.166
▁Té	-10.1661
▁Era	-10.167
▁Be	-10.1675
>	-10.1679
45	-10.168
▁evident	-10.168
▁Bi	-10.1695
▁mala	-10.17
▁administracions	-10.1702
▁conseqüències	-10.1705
▁posterior	-10.1723
▁implica	-10.1731
▁Sánchez	-10.1732
▁oportunitat	-10.174
▁traducció	-10.1741
▁quins	-10.1749
▁podrien	-10.1759
itzat	-10.1767
▁perspectiva	-10.1767
▁Tant	-10.1769
▁necessàries	-10.177
laborar	-10.1772
▁conte	-10.1774
▁líder	-10.1775
▁ràpid	-10.1777
▁prèvia	-10.1786
ng	-10.1789
▁sant	-10.179
▁su	-10.1794
lles	-10.1795
org	-10.1796
▁espècies	-10.1802
▁assolir	-10.1803
▁urbà	-10.1804
▁mon	-10.1808
▁espanyols	-10.1814
▁pròxim	-10.1815
▁gestionar	-10.1819
▁anomenat	-10.182
tur	-10.183
▁triar	-10.1837
▁preveu	-10.1838
▁militar	-10.1839
▁escola	-10.1839
▁pacients	-10.1845
▁Me	-10.1848
▁simplement	-10.185
[1]	-10.1854
▁tornat	-10.1858
▁baixar	-10.1859
▁reconèixer	-10.186
▁proximitat	-10.1862
▁conjuntament	-10.1865
aquell	-10.187
▁quines	-10.1874
antiga	-10.1875
▁colla	-10.1876
adors	-10.188
Agència	-10.1884
▁pràcticament	-10.1886
▁bi	-10.1887
▁beneficis	-10.1887
▁malalties	-10.1892
ie	-10.1895
▁plans	-10.1901
▁portat	-10.1901
▁crida	-10.1908
▁fruit	-10.1908
▁veiem	-10.1915
bor	-10.1921
▁hagin	-10.1927
▁element	-10.1931
pen	-10.1931
▁fira	-10.1932
▁regal	-10.1937
ec	-10.1938
▁pal	-10.1941
▁deia	-10.1956
▁Penedès	-10.1956
Z	-10.196
ència	-10.1963
▁vistes	-10.1966
▁durada	-10.1967
ion	-10.1967
▁organitzada	-10.1969
▁perfil	-10.1969
ser	-10.1974
▁Formació	-10.1974
ko	-10.1985
▁Or	-10.1991
▁mares	-10.1998
▁Totes	-10.2
▁acompanyat	-10.2005
guen	-10.2014
Assemblea	-10.2021
▁transformació	-10.2025
▁pont	-10.2042
▁consisteix	-10.2047
nia	-10.2053
ià	-10.2055
▁junts	-10.2056
▁trànsit	-10.2058
allò	-10.206
ives	-10.2071
▁faig	-10.2075
▁procediment	-10.2078
▁necessaris	-10.2088
▁reptes	-10.2095
▁portal	-10.2103
▁conferència	-10.2106
▁botiga	-10.2106
▁complet	-10.2107
▁70	-10.2107
▁cotxes	-10.211
▁Ver	-10.2114
▁poeta	-10.2116
▁Coll	-10.2117
▁exemples	-10.2121
▁peus	-10.213
▁Mataró	-10.2134
▁Lliga	-10.2137
▁benestar	-10.2139
auto	-10.2146
▁preparat	-10.2158
07	-10.2163
▁presenten	-10.2168
▁serveix	-10.217
cle	-10.2174
▁referent	-10.2181
▁Programa	-10.2185
▁domicili	-10.2185
▁dedicada	-10.2187
▁marques	-10.2187
▁deixem	-10.2188
▁CUP	-10.2189
▁Grau	-10.2196
licitar	-10.2201
fe	-10.2201
▁museu	-10.2211
▁President	-10.2217
▁porten	-10.2219
▁benefici	-10.2219
▁almenys	-10.2229
▁vostè	-10.2232
▁Compromís	-10.2234
itzada	-10.2238
▁Molt	-10.2242
▁can	-10.2245
▁forta	-10.2252
▁acció	-10.2255
▁núm	-10.2257
Andorra	-10.2261
▁anual	-10.2262
▁conservació	-10.2264
35	-10.227
▁Son	-10.2271
▁objecte	-10.2272
▁titular	-10.2286
▁dirigit	-10.2293
▁celebrarà	-10.2294
lícules	-10.2295
mon	-10.2299
havien	-10.2301
▁condició	-10.2308
cia	-10.2311
dis	-10.2316
sió	-10.2316
▁Andorra	-10.2325
▁Moltes	-10.2326
▁parlant	-10.233
▁Sud	-10.2332
▁víctimes	-10.234
▁Central	-10.2342
▁http	-10.2342
▁Comerç	-10.2348
▁Mentre	-10.235
21	-10.2359
▁Torre	-10.2363
▁sostenible	-10.2368
▁minut	-10.2374
▁codi	-10.2379
ments	-10.2397
ze	-10.24
▁concentració	-10.2402
▁comunitats	-10.2417
▁motor	-10.2423
▁pu	-10.2427
▁Roca	-10.2429
▁elles	-10.2439
cà	-10.2452
▁www	-10.2465
zo	-10.2467
io	-10.2469
▁dolor	-10.247
23	-10.2484
▁gra	-10.2488
▁Alguns	-10.2491
▁curt	-10.2492
▁secretari	-10.2497
▁Ju	-10.2501
▁temperatura	-10.2506
▁ajuntaments	-10.2507
▁gira	-10.2511
pes	-10.2519
▁completament	-10.2521
▁innovació	-10.2528
▁cadascun	-10.2529
▁film	-10.2529
▁Rei	-10.2533
▁Reial	-10.2533
tro	-10.2535
▁llar	-10.2541
▁correspon	-10.2555
che	-10.2557
▁vigent	-10.2558
▁aprovar	-10.2566
▁Tu	-10.2585
▁tardor	-10.2586
tres	-10.2587
▁PSOE	-10.259
▁coll	-10.2591
essin	-10.2592
▁despeses	-10.2598
▁comunicar	-10.2605
▁produeix	-10.261
▁Da	-10.2611
lia	-10.2612
▁empresarial	-10.2618
▁descans	-10.2618
▁generals	-10.2619
▁objectes	-10.2626
▁Carme	-10.2645
04	-10.2648
▁auto	-10.2649
▁província	-10.2649
ual	-10.2651
▁Cu	-10.2652
ants	-10.2652
mos	-10.2656
pro	-10.2658
dos	-10.2659
oposició	-10.2662
ans	-10.267
▁vies	-10.267
AC	-10.2674
▁independent	-10.2683
▁pluja	-10.2692
▁Tanmateix	-10.2695
▁passen	-10.2698
▁ràdio	-10.2699
pel	-10.2699
▁demostrar	-10.2702
▁comentari	-10.2709
ces	-10.2714
▁músics	-10.2723
▁efecte	-10.273
Per	-10.2732
▁dubtes	-10.2735
ents	-10.2735
▁desig	-10.2745
▁tirar	-10.2746
▁inscripció	-10.2746
▁musicals	-10.2747
tge	-10.2751
▁To	-10.2753
quen	-10.2753
▁fiscal	-10.2756
▁segurament	-10.2757
là	-10.2757
instal	-10.2761
▁Toni	-10.2764
dre	-10.2769
obertura	-10.2771
▁manifestació	-10.2771
arribar	-10.2778
▁igualtat	-10.2781
form	-10.2785
alçada	-10.2787
▁300	-10.279
ard	-10.2791
ges	-10.2795
▁teves	-10.2795
vis	-10.28
▁tercers	-10.2802
▁Podeu	-10.2812
▁impossible	-10.2813
▁plats	-10.2815
▁aprovat	-10.2816
▁iniciatives	-10.2825
▁assegura	-10.2826
▁menjador	-10.2829
▁dirigir	-10.2833
efecte	-10.2836
▁solidaritat	-10.2844
▁bellesa	-10.2847
▁UE	-10.2852
mit	-10.2855
its	-10.2857
▁tindran	-10.2862
▁haurien	-10.2867
▁foren	-10.2874
▁ministre	-10.2878
▁llegit	-10.2882
▁Setmana	-10.2884
▁Z	-10.2892
▁artística	-10.2899
▁cm	-10.2901
▁pujada	-10.2911
▁Ka	-10.2912
▁Tal	-10.2924
▁Superior	-10.2928
▁ambiental	-10.2931
▁aplicar	-10.2932
In	-10.2934
▁conté	-10.2935
▁Facultat	-10.2936
▁recurs	-10.2938
▁Comunicació	-10.2943
apartat	-10.2945
▁convivència	-10.2949
assistència	-10.295
ín	-10.2952
▁Sempre	-10.2955
▁permetrà	-10.2956
▁actuació	-10.2957
▁Mossos	-10.2957
▁oferta	-10.2958
ses	-10.2959
05	-10.296
▁competència	-10.2963
▁raons	-10.2965
▁últimes	-10.2967
▁reducció	-10.2969
▁Anna	-10.2969
anys	-10.2984
▁posteriorment	-10.2985
▁vaga	-10.2994
ino	-10.2996
▁35	-10.3
▁breu	-10.3005
▁créixer	-10.3005
▁viscut	-10.3006
impacte	-10.3012
▁universitat	-10.3012
aquells	-10.3015
▁germà	-10.3017
▁canal	-10.3029
ac	-10.3034
▁comprovar	-10.3035
▁feu	-10.305
▁restauració	-10.3054
vers	-10.3064
aprovació	-10.3067
▁plaer	-10.3069
▁arriben	-10.307
▁Ple	-10.3072
▁disposar	-10.3088
▁dura	-10.3093
▁aleshores	-10.3095
▁homenatge	-10.3095
▁lleis	-10.3096
▁activa	-10.3108
▁consta	-10.3109
anes	-10.311
▁Roma	-10.3115
▁naturalesa	-10.3115
▁augmentar	-10.3118
▁Marta	-10.3122
estan	-10.3122
▁Ben	-10.3124
▁modificació	-10.3133
▁europeu	-10.3133
oest	-10.3141
▁visual	-10.3148
▁López	-10.3148
▁Ba	-10.3149
▁Mercat	-10.3156
informe	-10.3169
lectiva	-10.3174
abast	-10.3179
▁institució	-10.3181
’1	-10.3184
▁declaració	-10.3186
▁laborals	-10.3188
▁educació	-10.3189
▁funciona	-10.319
▁extra	-10.3194
met	-10.3198
▁moda	-10.32
24	-10.3202
▁Su	-10.3208
▁territorial	-10.3209
hagi	-10.3209
▁Badalona	-10.3217
▁Conselleria	-10.3222
▁naixement	-10.3226
den	-10.3232
▁reunir	-10.3233
▁Mi	-10.3238
▁Als	-10.324
▁quant	-10.3248
enguany	-10.3249
ola	-10.3252
▁vulguin	-10.3252
▁marge	-10.3253
▁publicitat	-10.3257
▁deixant	-10.3259
tion	-10.3273
▁primavera	-10.3275
▁gol	-10.3281
▁Prat	-10.3284
▁recepta	-10.3288
▁tancat	-10.3292
▁CiU	-10.3298
▁adults	-10.3304
▁lliga	-10.3305
▁2006	-10.3309
▁malament	-10.3313
▁organització	-10.3318
▁noies	-10.3319
▁Seu	-10.3319
▁suficient	-10.3323
col	-10.3326
br	-10.3332
▁cooperació	-10.3332
▁mental	-10.3335
ens	-10.3335
▁informar	-10.3336
▁utilització	-10.3341
len	-10.3346
lit	-10.3348
▁ofereixen	-10.3353
▁xifra	-10.3353
▁creixent	-10.3353
▁veig	-10.3355
▁àmplia	-10.3359
▁pitjor	-10.3364
▁europea	-10.3369
ERC	-10.3371
06	-10.3372
▁majors	-10.3376
▁lliurament	-10.3377
2018	-10.3377
▁directora	-10.3379
▁provocar	-10.3381
▁Pol	-10.3387
▁Regne	-10.3387
▁respondre	-10.3391
▁aliments	-10.3392
▁Jocs	-10.3394
▁verd	-10.3395
▁pres	-10.3396
Ensenyament	-10.3397
▁acompanyar	-10.34
▁participa	-10.3405
▁Gràcia	-10.3405
▁Vilanova	-10.3406
▁Val	-10.3407
Es	-10.3417
ificació	-10.3419
▁dècada	-10.3424
▁estructura	-10.3425
avaluació	-10.3428
▁guanyat	-10.3434
%	-10.3436
▁discapacitat	-10.3438
▁vulgui	-10.3438
▁esportiva	-10.3439
▁Seguretat	-10.3446
estranger	-10.3447
▁Bu	-10.3448
▁Martínez	-10.345
▁edifici	-10.3451
▁Tra	-10.3452
▁ciutadana	-10.3452
▁filosofia	-10.3454
▁gas	-10.3455
▁vall	-10.3455
▁Mal	-10.3464
▁classificació	-10.3468
▁podrem	-10.347
▁imprescindible	-10.3477
ça	-10.3479
▁Gal	-10.348
▁lector	-10.3484
▁pantalla	-10.3486
all	-10.3497
▁xerrada	-10.3501
▁Gar	-10.3502
▁lluitar	-10.3503
▁Vam	-10.3504
Barcelona	-10.3504
▁pensat	-10.3518
guer	-10.352
▁este	-10.3521
▁estiguin	-10.3524
▁recent	-10.3528
▁sumar	-10.353
▁càncer	-10.3532
▁III	-10.3541
sis	-10.355
▁decret	-10.3551
min	-10.3555
▁situa	-10.3555
dem	-10.3557
ències	-10.3557
▁pren	-10.3568
▁refugi	-10.357
land	-10.358
▁lliures	-10.3582
▁cim	-10.3582
▁físic	-10.3583
▁corrent	-10.3584
▁participen	-10.3586
▁Ferran	-10.3591
▁tantes	-10.3592
De	-10.3594
quem	-10.3602
▁avançar	-10.3619
▁perfectament	-10.3621
▁Països	-10.3623
▁entrades	-10.363
Espai	-10.3633
▁vendre	-10.3634
▁piscina	-10.364
▁Go	-10.364
▁veuen	-10.3649
obres	-10.365
ón	-10.3652
▁barris	-10.3655
▁factors	-10.3657
reu	-10.366
▁habitacions	-10.3663
▁inversió	-10.3664
▁Fer	-10.3666
▁parar	-10.3667
▁Xina	-10.3667
▁passeig	-10.3671
▁barreja	-10.3676
▁presa	-10.3682
▁gratuït	-10.3682
▁vàrem	-10.3683
adreça	-10.3685
▁suma	-10.3691
▁actuar	-10.3697
CAT	-10.3697
À	-10.3698
▁contribuir	-10.3698
▁roda	-10.3702
▁esforç	-10.3703
▁voluntaris	-10.3704
▁judicial	-10.3707
AL	-10.3707
▁establiments	-10.3709
▁sens	-10.371
▁ordre	-10.3717
cul	-10.3719
▁valorar	-10.3722
▁flors	-10.3723
▁Natural	-10.3728
▁institucional	-10.3731
▁observar	-10.3733
ius	-10.3741
▁sorpresa	-10.3741
▁creure	-10.3743
▁apareixen	-10.3744
▁posada	-10.3745
▁sortit	-10.3745
▁aporta	-10.375
▁Punt	-10.3752
▁Bé	-10.3755
ine	-10.3768
▁torre	-10.3777
▁exercir	-10.3777
▁econòmiques	-10.378
▁Carlos	-10.3784
guin	-10.3796
▁York	-10.3802
▁propietaris	-10.3803
▁Nosaltres	-10.3806
OR	-10.3806
don	-10.3806
▁90	-10.3813
ju	-10.3813
▁demostra	-10.3814
▁amunt	-10.3825
▁Jove	-10.3827
▁experts	-10.3829
esperit	-10.3831
▁antics	-10.3838
▁localitat	-10.384
▁permès	-10.3845
▁posem	-10.385
▁vers	-10.3857
▁façana	-10.3858
▁integral	-10.386
▁comporta	-10.3863
▁sentència	-10.3864
▁dibuix	-10.3865
tec	-10.3868
▁sou	-10.3871
22	-10.3876
Con	-10.3877
99	-10.388
▁viatges	-10.3884
▁resistència	-10.3884
▁vora	-10.3888
tori	-10.3894
▁resum	-10.3896
▁definir	-10.3898
cur	-10.39
▁Valls	-10.3904
▁consistori	-10.3905
▁saben	-10.3909
▁connexió	-10.3918
ví	-10.3919
▁dirigida	-10.3924
▁Enguany	-10.3932
▁oficials	-10.3934
▁petició	-10.394
tos	-10.3947
▁privada	-10.3955
up	-10.3957
▁clàssic	-10.3957
▁tants	-10.3959
ang	-10.3963
▁Enric	-10.3966
exèrcit	-10.3967
mer	-10.398
▁degut	-10.3983
▁Autònoma	-10.3983
▁bicicleta	-10.3985
bat	-10.3993
▁Ahir	-10.3996
▁útil	-10.4002
let	-10.4004
Q	-10.4005
▁demanat	-10.4006
Les	-10.4012
▁pols	-10.4014
▁formulari	-10.4016
▁límits	-10.4018
vol	-10.4018
▁escala	-10.4019
▁inferior	-10.4023
▁marxar	-10.4024
hauria	-10.4028
▁afecta	-10.4029
▁finalitzar	-10.403
▁interessants	-10.4035
tí	-10.4037
aven	-10.4038
02	-10.404
▁jardí	-10.4042
▁cau	-10.4044
▁neix	-10.4046
Urgell	-10.4052
▁mira	-10.4054
▁cant	-10.4058
▁Decret	-10.4059
▁Ministeri	-10.406
▁Pep	-10.4068
▁proposar	-10.407
▁germans	-10.4076
▁peix	-10.4076
▁Vol	-10.4078
▁clarament	-10.4079
▁arran	-10.4084
▁corresponents	-10.4086
▁Europeu	-10.4095
▁converteix	-10.4101
nd	-10.4106
anterior	-10.4107
lle	-10.4113
▁categories	-10.4116
▁indica	-10.4118
▁llit	-10.4121
3%	-10.4121
▁conceptes	-10.4125
▁tra	-10.4129
▁perfecte	-10.4131
▁reconegut	-10.4135
▁enllaç	-10.4142
Economia	-10.4146
▁Consorci	-10.4152
01	-10.4158
utilitza	-10.4161
▁facin	-10.4162
▁Ci	-10.4162
▁2000	-10.4164
▁Mai	-10.4174
▁utilitza	-10.4175
▁pobresa	-10.4177
▁f	-10.4178
▁poemes	-10.4179
▁científica	-10.4191
▁company	-10.4192
ron	-10.4194
▁nombrosos	-10.4197
▁regidora	-10.4198
▁docent	-10.4203
bal	-10.4203
alguna	-10.4208
▁Alemanya	-10.4215
dores	-10.4215
▁estiu	-10.4217
▁Núria	-10.422
Si	-10.4222
▁lectors	-10.4222
▁Informació	-10.4222
▁bàsics	-10.423
▁Campionat	-10.4232
▁Casal	-10.4236
▁límit	-10.4236
▁sexual	-10.4238
▁cerca	-10.4239
▁45	-10.4248
▁necessiten	-10.4253
▁Fe	-10.4257
▁estableix	-10.426
▁positiu	-10.4265
▁formada	-10.4269
▁Copa	-10.4273
▁obertes	-10.4278
OS	-10.4278
▁comencen	-10.4282
▁moral	-10.4283
▁aspecte	-10.4283
▁Ros	-10.4285
▁pilota	-10.4293
▁seguida	-10.4296
▁teoria	-10.4298
▁tanta	-10.43
▁Pe	-10.4302
lada	-10.4306
▁legislació	-10.4308
▁mètode	-10.4312
▁Inter	-10.4316
ist	-10.4318
ano	-10.4323
▁ERC	-10.4324
▁reunions	-10.4327
▁europeus	-10.4327
▁potenciar	-10.4328
ions	-10.4341
▁Davant	-10.4341
▁Pen	-10.4346
▁oct	-10.4347
09	-10.4354
▁ràpida	-10.4356
▁tornada	-10.4357
ez	-10.4359
▁edat	-10.436
▁García	-10.4362
▁Sembla	-10.4367
ps	-10.437
▁residència	-10.437
▁Policia	-10.4373
▁Res	-10.4374
▁jurat	-10.4378
tant	-10.4381
▁sucre	-10.4383
▁Via	-10.4384
▁preguntar	-10.4387
▁Jornada	-10.4388
vel	-10.4389
=	-10.439
▁Protecció	-10.4393
AR	-10.44
▁tendència	-10.4401
▁exterior	-10.4411
▁aigües	-10.4428
▁%	-10.443
▁contractació	-10.4431
▁planteja	-10.4431
▁únicament	-10.4443
▁Projecte	-10.4445
▁penso	-10.4448
▁lletres	-10.4448
part	-10.4452
esca	-10.4455
▁disponible	-10.4457
▁representant	-10.4465
tot	-10.4466
▁fàbrica	-10.4473
▁cadascú	-10.448
▁internet	-10.4484
arreu	-10.4487
gro	-10.449
for	-10.4494
▁planeta	-10.4496
sin	-10.4499
▁utilitzant	-10.4502
▁150	-10.4502
▁diferències	-10.4503
▁podien	-10.4505
▁multi	-10.4506
▁posant	-10.4506
▁Altres	-10.4508
▁Política	-10.4509
▁Joventut	-10.4511
fec	-10.4514
84	-10.4519
▁Crec	-10.452
▁frase	-10.4521
▁dècades	-10.4527
▁valencians	-10.453
▁entrevista	-10.4531
▁comportament	-10.4532
tel	-10.4543
▁emocions	-10.4545
yo	-10.4551
▁Ru	-10.4554
▁Segona	-10.4556
▁rural	-10.4563
▁Patrimoni	-10.4565
▁cantant	-10.4568
anglès	-10.4573
▁Podem	-10.4574
opinió	-10.4575
▁Ro	-10.4578
▁cadascuna	-10.4579
▁Banc	-10.4579
▁Caixa	-10.458
▁darreres	-10.458
▁secundària	-10.4583
▁Història	-10.4587
▁dificultat	-10.4594
▁meves	-10.4596
▁espera	-10.4606
▁dis	-10.4606
▁conversa	-10.4608
▁ràpidament	-10.4613
▁triomf	-10.4625
▁esdeveniment	-10.4626
ud	-10.4632
▁Figueres	-10.4633
vet	-10.4635
▁rendiment	-10.4636
investigació	-10.464
▁analitzar	-10.4643
▁emocional	-10.4644
▁Du	-10.4646
▁acollir	-10.4651
▁basa	-10.4653
gon	-10.4657
bu	-10.4658
▁Plataforma	-10.4663
▁electrònica	-10.4667
▁Ex	-10.4674
▁parlat	-10.4676
▁protegir	-10.4676
ejar	-10.468
▁tancament	-10.4681
▁plantejar	-10.4683
▁produït	-10.4687
US	-10.4698
▁disponibles	-10.4706
▁Antonio	-10.4709
▁Tri	-10.4709
▁poblacions	-10.471
▁senzill	-10.471
cri	-10.4713
▁actors	-10.4713
▁marcar	-10.4714
cl	-10.4716
▁cops	-10.4717
▁repetir	-10.472
▁Po	-10.4721
cis	-10.4724
▁tri	-10.4724
▁Socials	-10.4725
▁Pot	-10.4727
escriptor	-10.4729
▁circumstàncies	-10.4737
▁esperar	-10.4738
aconseguir	-10.4738
▁pressupostos	-10.4739
▁nombroses	-10.4741
▁nois	-10.4742
▁So	-10.4744
▁amor	-10.4748
▁Gestió	-10.4749
▁mostren	-10.4759
▁oblidar	-10.4765
▁riquesa	-10.4765
▁causes	-10.4767
▁micro	-10.477
▁parlem	-10.4772
▁desenvolupat	-10.4772
▁cartell	-10.4774
dic	-10.4775
▁valoració	-10.4777
▁Estem	-10.4788
▁interpretació	-10.4791
▁utilitzat	-10.4793
AP	-10.4796
▁creativitat	-10.4798
▁figures	-10.4807
▁autoritats	-10.4808
▁tele	-10.4816
▁informa	-10.4819
ster	-10.4819
▁traslladar	-10.482
▁salt	-10.4823
nya	-10.4824
▁online	-10.4824
▁conflictes	-10.4826
▁Constitució	-10.4827
▁Guàrdia	-10.4829
▁similar	-10.4829
60	-10.483
▁xocolata	-10.4831
▁probablement	-10.4834
▁habilitats	-10.4837
▁potencial	-10.4846
Com	-10.4849
ica	-10.4851
▁basat	-10.4852
▁aposta	-10.4855
▁posen	-10.4857
▁capítol	-10.4859
▁morts	-10.4864
▁sexe	-10.4866
▁marcat	-10.4868
cha	-10.487
▁canviat	-10.4871
▁EL	-10.4872
▁regular	-10.4872
intercanvi	-10.4873
▁trencar	-10.4878
▁lletra	-10.4882
▁recentment	-10.4889
▁Pedro	-10.4889
▁Sobre	-10.4891
▁restaurants	-10.4891
08	-10.4895
bra	-10.4898
▁fetes	-10.4898
▁augment	-10.4898
▁crea	-10.49
execució	-10.4901
▁aproximadament	-10.4903
▁muntatge	-10.4904
▁conserva	-10.4911
▁caldrà	-10.4917
▁For	-10.4917
▁Dret	-10.4917
leg	-10.4919
▁desenvolupa	-10.4922
▁comunicat	-10.4922
▁vídeos	-10.4923
▁preparació	-10.4924
▁esperem	-10.4925
▁coordinació	-10.4925
lència	-10.4929
▁aplicació	-10.4931
ambient	-10.4934
▁sòl	-10.4935
▁vital	-10.4937
▁arbres	-10.4938
▁tindre	-10.4939
▁impulsar	-10.4941
▁subvencions	-10.4945
▁500	-10.4946
cor	-10.4949
▁requisits	-10.4951
▁parada	-10.4953
▁muntanyes	-10.4954
opció	-10.4955
Àrea	-10.4957
▁batalla	-10.4958
▁aportar	-10.4958
▁afirma	-10.497
▁medieval	-10.4972
▁crema	-10.4977
▁definició	-10.498
establiment	-10.4985
03	-10.4991
▁comentar	-10.4996
q	-10.4997
▁particulars	-10.4998
▁junt	-10.5011
ple	-10.5017
▁dormir	-10.5019
▁Inici	-10.502
▁continuïtat	-10.502
▁soci	-10.5025
▁identificar	-10.5026
▁espectacular	-10.503
[2]	-10.5034
▁veritable	-10.5036
▁cadena	-10.5039
ones	-10.5042
▁acceptar	-10.5045
▁vinent	-10.5051
▁agradable	-10.5052
▁Disseny	-10.5052
▁circuit	-10.5055
▁Gu	-10.5058
▁Puigdemont	-10.5059
▁CO	-10.506
▁mor	-10.506
28	-10.506
▁consells	-10.5064
▁antiga	-10.5064
▁controlar	-10.5065
▁valenciana	-10.5066
▁taules	-10.5072
ric	-10.5072
▁Londres	-10.5088
bre	-10.5091
▁aplicacions	-10.51
▁docents	-10.5102
▁passió	-10.5104
▁provoca	-10.5106
▁An	-10.5107
▁aconsegueix	-10.5109
augment	-10.511
▁havíem	-10.5112
Un	-10.5114
▁escolars	-10.5114
▁tall	-10.5122
▁parelles	-10.5125
▁candidat	-10.5127
26	-10.5127
▁signat	-10.5128
▁càrrecs	-10.5129
▁edicions	-10.513
▁properes	-10.5133
▁Justícia	-10.5134
cin	-10.5134
▁omplir	-10.5135
▁Ell	-10.5138
▁instruments	-10.5141
▁Luis	-10.5144
▁ampliar	-10.5144
▁somni	-10.5144
▁unitats	-10.5145
▁lingüística	-10.5149
▁testimoni	-10.5155
▁Ti	-10.5155
▁genera	-10.5156
▁reconeix	-10.5157
▁senyal	-10.5161
▁2005	-10.5165
▁Facebook	-10.5171
▁actiu	-10.5181
▁esportiu	-10.5182
▁universitats	-10.5189
▁Notícies	-10.519
ora	-10.5193
▁gos	-10.5193
▁pensa	-10.5195
pos	-10.5195
▁composició	-10.5196
▁esforços	-10.5196
▁escollir	-10.52
▁Itàlia	-10.5201
▁Pública	-10.5206
▁continu	-10.5206
aeroport	-10.5207
▁semblant	-10.5207
eixen	-10.5211
▁Quin	-10.522
▁moció	-10.5223
val	-10.5223
▁títols	-10.5223
▁territoris	-10.523
▁agradat	-10.5233
ros	-10.5237
▁oportunitats	-10.5238
▁clima	-10.5239
▁Marina	-10.5239
Ar	-10.5244
▁juvenil	-10.525
▁jutge	-10.5254
▁declaracions	-10.5254
És	-10.5256
▁descarregar	-10.5257
▁càrrega	-10.5259
IB	-10.5267
▁Gi	-10.527
▁científic	-10.5275
▁elaborat	-10.5279
xo	-10.528
alimentació	-10.5282
▁considerat	-10.5288
▁moderna	-10.5299
▁energètica	-10.5302
▁trenta	-10.5302
▁estratègies	-10.5304
▁esportives	-10.5307
▁revolució	-10.5316
▁adquirir	-10.532
▁temporal	-10.5327
▁francesa	-10.5331
▁capaços	-10.5335
▁Pérez	-10.534
actes	-10.5341
▁modificar	-10.5344
IN	-10.5345
lin	-10.5354
▁dates	-10.5361
cre	-10.5362
▁concretament	-10.5366
▁segueixen	-10.5369
▁vermell	-10.5369
▁múltiples	-10.5373
▁requereix	-10.5373
esdeveniment	-10.5374
▁Data	-10.5377
aris	-10.5387
▁dimensions	-10.5388
▁senzilla	-10.539
▁iniciat	-10.5391
▁@	-10.5391
nis	-10.5391
▁personalitat	-10.5393
▁tracte	-10.54
dó	-10.54
▁complicat	-10.5408
SA	-10.5413
▁habituals	-10.5415
IT	-10.5416
▁positiva	-10.5417
▁escrita	-10.542
▁consell	-10.542
▁aportacions	-10.5427
▁Ferrer	-10.5428
▁relleu	-10.5441
▁quelcom	-10.5443
▁Recerca	-10.5443
▁trimestre	-10.5449
▁Mercè	-10.5453
IC	-10.5455
▁bio	-10.5457
exterior	-10.5458
▁Pujol	-10.5461
27	-10.5462
▁St	-10.5465
▁democràtica	-10.5465
▁provar	-10.547
encia	-10.547
▁noia	-10.547
▁projecció	-10.547
▁ensenyar	-10.5474
▁100%	-10.5475
nat	-10.5481
‘	-10.5484
▁metge	-10.5484
▁paga	-10.549
▁sentiments	-10.5491
▁estatal	-10.5492
agradaria	-10.5495
▁Tres	-10.5497
line	-10.55
aparició	-10.55
▁FC	-10.5502
▁universal	-10.5502
tri	-10.5506
▁coneguts	-10.5511
▁Vella	-10.5514
▁temàtica	-10.5516
▁respon	-10.5518
▁reals	-10.5523
▁fruita	-10.5526
▁flor	-10.553
▁donarà	-10.5532
▁culpa	-10.5534
▁dient	-10.5537
▁On	-10.5542
IM	-10.5543
▁situar	-10.5556
▁parlen	-10.5556
▁despesa	-10.5558
▁siga	-10.5571
▁sabia	-10.5573
▁acords	-10.5574
labora	-10.558
▁nacionals	-10.5588
▁Par	-10.5599
pre	-10.56
▁turística	-10.5602
▁circular	-10.5606
▁dotze	-10.5607
ep	-10.5608
▁ronda	-10.5609
▁respostes	-10.5614
▁boscos	-10.5616
Í	-10.5617
▁deixen	-10.5617
▁alternativa	-10.5617
▁monestir	-10.5619
tru	-10.5623
▁previ	-10.5624
▁mercats	-10.5625
▁taxa	-10.5628
▁presidenta	-10.5629
gué	-10.5632
▁Art	-10.5635
tir	-10.5642
▁Dins	-10.565
▁guanyador	-10.5654
▁absoluta	-10.5658
▁dut	-10.5658
alumne	-10.5663
▁vingut	-10.5665
▁art	-10.5666
▁Presentació	-10.5668
▁pensant	-10.5668
▁pendent	-10.5672
▁pacient	-10.5674
▁danys	-10.568
llo	-10.5685
▁turístic	-10.5686
▁caminar	-10.5686
▁2019	-10.569
quet	-10.569
▁assegurat	-10.5691
gol	-10.5693
▁Hu	-10.5693
AS	-10.5693
EM	-10.5699
▁última	-10.5701
▁VI	-10.5702
entendre	-10.5705
▁bici	-10.5707
1%	-10.5708
▁teixit	-10.5709
▁Et	-10.5709
▁transmetre	-10.5709
▁Rajoy	-10.571
▁Primera	-10.5723
▁espectacles	-10.5723
▁Mag	-10.5728
Oficina	-10.5728
▁passos	-10.5728
▁full	-10.5729
arquitectura	-10.5736
▁conscient	-10.5736
tica	-10.574
▁XXI	-10.574
▁inclòs	-10.5743
ètica	-10.5747
▁vell	-10.5747
▁buscant	-10.5748
▁artístic	-10.575
horari	-10.5754
▁Crist	-10.5755
▁mereix	-10.5756
acaba	-10.5765
▁llicència	-10.5766
▁botigues	-10.5767
gue	-10.5768
Ã	-10.577
▁fes	-10.5777
▁fenomen	-10.578
gent	-10.5781
▁informe	-10.5782
▁XVIII	-10.5787
tó	-10.5789
▁cobrir	-10.5798
endemà	-10.5799
70	-10.5801
▁Vicent	-10.5803
cap	-10.5805
od	-10.5809
▁Cugat	-10.5814
▁Her	-10.5816
2%	-10.582
IS	-10.5822
estrena	-10.583
90	-10.5836
▁Ber	-10.5839
ordinador	-10.5845
infraestructures	-10.5846
chi	-10.5848
▁baixada	-10.585
▁esport	-10.5851
▁conferències	-10.5853
▁claus	-10.5868
▁Fabra	-10.5868
▁virtual	-10.5874
sh	-10.5877
qu	-10.5878
▁Ana	-10.588
▁NO	-10.588
▁Diari	-10.5882
rí	-10.5882
import	-10.5883
75	-10.5885
95	-10.5897
▁cartes	-10.59
▁plana	-10.5911
▁adequat	-10.5915
▁literària	-10.5916
▁64	-10.5921
iment	-10.5924
▁mur	-10.5924
▁gest	-10.5931
▁man	-10.5933
▁normalment	-10.5934
▁percentatge	-10.5934
▁nu	-10.5939
▁400	-10.5948
▁paret	-10.5955
▁moure	-10.5956
▁navegació	-10.5959
▁Llibre	-10.5962
bro	-10.5964
8%	-10.5966
TA	-10.5967
escriptura	-10.5968
▁Alta	-10.5978
▁màquina	-10.598
▁hom	-10.5981
▁prèviament	-10.5981
▁córrer	-10.5985
▁destí	-10.5985
▁poema	-10.5993
▁Ribera	-10.6001
institut	-10.6004
▁bàsiques	-10.6007
▁diaris	-10.6008
ira	-10.601
jar	-10.6013
▁proporciona	-10.6016
▁catàleg	-10.6021
sor	-10.6023
▁informat	-10.6024
▁béns	-10.6024
▁Desenvolupament	-10.6032
▁transparència	-10.6034
▁expressar	-10.6038
▁Ambient	-10.6038
▁secret	-10.6038
▁Arts	-10.6039
▁realitzen	-10.6042
▁dinàmica	-10.6045
▁estada	-10.6046
▁Infantil	-10.6049
▁missió	-10.6053
▁femení	-10.6059
▁dibuixos	-10.606
▁plantilla	-10.606
▁nena	-10.6064
història	-10.6066
4%	-10.6067
▁quarta	-10.6072
anomena	-10.6073
▁corre	-10.6081
▁determinar	-10.6082
alcaldessa	-10.6086
▁reflexionar	-10.6087
▁Cre	-10.6092
IES	-10.6107
▁viatjar	-10.6109
▁opinió	-10.611
til	-10.6111
arquitecte	-10.6115
pol	-10.6117
▁absolut	-10.6117
▁sabeu	-10.6125
▁interessats	-10.6131
▁Teresa	-10.6133
▁complex	-10.6135
▁parets	-10.6142
▁influència	-10.6143
fin	-10.6144
bes	-10.6148
▁podràs	-10.6152
▁basada	-10.6155
▁Tenim	-10.616
hospital	-10.616
▁anirà	-10.6164
▁solament	-10.6169
▁rutes	-10.6171
6%	-10.6178
▁pacte	-10.6183
▁podríem	-10.6183
guem	-10.6185
▁anunciat	-10.6187
▁Primària	-10.6191
▁juga	-10.6194
▁Garcia	-10.6198
▁recinte	-10.6199
▁representar	-10.6201
▁publicacions	-10.6205
▁escriptor	-10.6213
odi	-10.622
2017	-10.6222
▁joventut	-10.6223
▁mu	-10.6227
▁Concurs	-10.6231
▁diputat	-10.6233
▁circulació	-10.6233
▁vessant	-10.6235
▁destaquen	-10.6237
her	-10.6237
▁estratègia	-10.6239
▁semblar	-10.6242
▁pistes	-10.6242
enca	-10.6246
▁gel	-10.6247
▁riscos	-10.6247
▁aparèixer	-10.625
gat	-10.6251
▁cafè	-10.6251
▁espècie	-10.6259
▁regidors	-10.626
29	-10.6263
▁Educació	-10.6264
uri	-10.6265
▁di	-10.6274
▁2004	-10.6274
▁Oficial	-10.6275
▁oferim	-10.6279
▁originals	-10.6279
▁temple	-10.6281
▁novetat	-10.6286
*	-10.6286
▁començament	-10.6287
cció	-10.6289
▁negra	-10.6294
▁existents	-10.6296
eja	-10.6296
▁cossos	-10.6297
▁gols	-10.6298
▁greus	-10.63
▁rere	-10.63
▁sortides	-10.6304
arròs	-10.6304
▁missatges	-10.6304
ego	-10.6305
▁corrupció	-10.6307
▁Ad	-10.6308
obre	-10.631
gin	-10.6312
▁Far	-10.6312
▁instrument	-10.6321
mina	-10.6322
▁Dos	-10.6326
▁tanca	-10.6326
cent	-10.6329
▁estats	-10.6333
▁notes	-10.6336
gua	-10.6337
Hospitalet	-10.6338
▁blau	-10.6342
▁convida	-10.6343
▁viva	-10.6344
▁interna	-10.6344
▁combat	-10.6345
ligència	-10.6345
▁marcador	-10.6347
▁demostrat	-10.6348
▁Pirineu	-10.6354
▁agrair	-10.6356
▁feliç	-10.6358
▁infantils	-10.6367
▁costos	-10.6369
▁dintre	-10.6374
ting	-10.6374
itzen	-10.6382
ence	-10.6384
▁completar	-10.6388
inter	-10.6388
cada	-10.6389
▁dedica	-10.6394
rien	-10.6394
wa	-10.6399
▁planificació	-10.6409
rre	-10.6413
exili	-10.6414
assa	-10.6417
ésser	-10.6418
EL	-10.6424
▁records	-10.6425
▁màgia	-10.6425
▁mòbils	-10.6432
▁ésser	-10.6433
humor	-10.6434
▁humanitat	-10.6437
Àfrica	-10.6438
ografia	-10.6445
▁entra	-10.6459
▁solar	-10.647
▁recórrer	-10.6473
▁quarts	-10.6479
▁crític	-10.6481
▁realitzada	-10.6483
gà	-10.6486
gut	-10.6489
aquella	-10.6491
Ateneu	-10.6493
▁Just	-10.6494
▁honor	-10.6495
Aragó	-10.6496
▁avall	-10.6501
▁Mira	-10.6501
▁acadèmic	-10.6501
▁ferro	-10.6505
▁individuals	-10.6507
▁exposicions	-10.6511
terra	-10.6519
▁governs	-10.6521
▁decideix	-10.6523
itza	-10.6523
▁semblava	-10.6523
AMPA	-10.6533
▁circ	-10.6535
▁suc	-10.6535
▁Serà	-10.6541
▁afectats	-10.6543
▁intensitat	-10.6545
ado	-10.6546
AE	-10.6552
▁venen	-10.6552
▁vidre	-10.6553
▁deute	-10.6553
▁horaris	-10.6553
▁surten	-10.6555
iga	-10.6555
▁ciutadà	-10.656
mis	-10.6563
88	-10.6565
ors	-10.6565
alumnes	-10.6568
7%	-10.6569
▁exclusivament	-10.6569
▁Món	-10.6572
▁↑	-10.6576
80	-10.6578
▁publicada	-10.6578
▁Espanyola	-10.6586
▁adaptar	-10.6586
▁modern	-10.6587
▁generacions	-10.6589
ty	-10.6589
pu	-10.659
▁matrimoni	-10.659
lica	-10.66
▁independentista	-10.6601
▁Llengua	-10.6601
▁coberta	-10.6602
▁pertany	-10.6602
▁essent	-10.661
▁sales	-10.661
▁ets	-10.6616
▁renovació	-10.6619
▁revisió	-10.662
с	-10.6625
▁facilitat	-10.6625
▁vaixell	-10.6626
▁toc	-10.6629
▁bu	-10.6634
▁Vilafranca	-10.664
▁enllaços	-10.6642
cant	-10.6644
▁climàtic	-10.6644
▁recordat	-10.665
ries	-10.6653
▁Quina	-10.6659
▁Joaquim	-10.6661
▁lema	-10.6664
▁acull	-10.6667
▁rec	-10.6668
Pa	-10.667
▁pisos	-10.6672
▁arts	-10.6672
▁comptarà	-10.6674
▁incloent	-10.6676
▁mostrat	-10.6677
▁comprendre	-10.6678
▁bonic	-10.6679
▁Francisco	-10.668
▁pur	-10.6682
▁Tan	-10.6685
▁mínima	-10.6687
▁Sub	-10.6696
▁incorporar	-10.6698
▁talent	-10.6702
▁blanca	-10.6702
esperança	-10.6705
ula	-10.6705
▁científics	-10.6705
▁certificat	-10.671
▁satisfacció	-10.671
▁Miguel	-10.6711
▁mandat	-10.6713
▁integració	-10.6715
ró	-10.6718
▁poli	-10.6719
▁platges	-10.6722
▁cua	-10.6724
▁clubs	-10.6724
▁pic	-10.6727
▁Pont	-10.673
▁Senyor	-10.6736
▁antigues	-10.6739
tius	-10.6746
▁estructures	-10.6748
▁animal	-10.675
▁publica	-10.675
▁IV	-10.6752
▁trobo	-10.677
▁socialista	-10.6773
▁xifres	-10.6776
▁nascut	-10.6782
▁combinació	-10.6784
▁adolescents	-10.6788
▁gegant	-10.6795
▁professió	-10.6799
▁intent	-10.6799
▁Mor	-10.68
▁enmig	-10.68
adora	-10.6803
▁clàssica	-10.6804
algunes	-10.6806
▁digitals	-10.6807
▁inauguració	-10.681
▁Molts	-10.681
▁privades	-10.6814
▁enfront	-10.6815
▁comunicacions	-10.6817
▁profunditat	-10.6818
▁viatgers	-10.6819
pin	-10.682
▁establert	-10.6821
bri	-10.6822
DA	-10.6828
▁vides	-10.683
▁escollit	-10.6832
▁capacitats	-10.6833
fo	-10.6841
var	-10.6843
ap	-10.6843
▁càmera	-10.6847
independentistes	-10.6849
▁energia	-10.6854
▁modalitat	-10.6854
▁salvar	-10.6856
atac	-10.6861
▁campionat	-10.6863
▁Pu	-10.6867
▁32	-10.6869
▁obtingut	-10.687
IR	-10.6874
▁Volem	-10.6878
▁sostre	-10.6879
▁Corts	-10.6881
▁fonamentals	-10.6883
▁alemany	-10.6883
▁anomenada	-10.6886
▁cèl	-10.6887
▁millores	-10.6888
▁caps	-10.6894
▁fàcilment	-10.6896
▁Y	-10.6897
▁Drets	-10.6899
▁anunciar	-10.6901
laboradors	-10.6903
▁Rodríguez	-10.6904
▁derrota	-10.6906
▁caixa	-10.6908
▁Vicenç	-10.691
▁permeti	-10.692
eig	-10.692
▁elèctrica	-10.6923
Ma	-10.6925
▁representen	-10.6927
▁blocs	-10.6928
▁prestació	-10.6934
▁nau	-10.6937
eg	-10.694
▁introduir	-10.6941
▁finestra	-10.6943
▁teatral	-10.6943
▁sostenibilitat	-10.6943
mà	-10.6945
98	-10.6949
▁Pan	-10.6949
estratègia	-10.6951
▁Granollers	-10.6952
▁denunciar	-10.6955
▁foment	-10.6957
▁sentiment	-10.6961
▁Llavors	-10.6962
▁investigadors	-10.6966
▁estudiant	-10.6967
guera	-10.697
▁Màster	-10.6974
oc	-10.6977
▁reglament	-10.6979
nar	-10.698
▁començarà	-10.6983
post	-10.6983
▁retallades	-10.6984
▁determinats	-10.6985
▁gràcia	-10.6986
gla	-10.6991
▁guanya	-10.6992
▁posicionament	-10.6992
▁Terres	-10.6994
explica	-10.6995
▁Carrer	-10.6996
▁Maresme	-10.7001
▁tast	-10.7001
▁consideren	-10.7001
▁escriu	-10.7007
▁Twitter	-10.7008
▁parròquia	-10.7012
▁depèn	-10.7013
▁respectivament	-10.7022
▁propietari	-10.7023
Estatut	-10.7029
▁repressió	-10.7033
▁vivint	-10.7043
▁correcte	-10.7043
ombra	-10.7043
▁periodistes	-10.7048
▁fundació	-10.7049
quin	-10.705
▁pogués	-10.705
zi	-10.7058
▁Premis	-10.7062
▁destinat	-10.7064
▁centenars	-10.7068
▁facilita	-10.707
▁comuns	-10.707
▁fulles	-10.7074
▁professora	-10.7077
▁delicte	-10.7079
▁Fo	-10.7081
▁implicació	-10.7089
▁habitació	-10.7089
▁visitant	-10.7095
▁adequada	-10.7096
▁presos	-10.7097
▁Tor	-10.7099
▁candidatura	-10.71
▁pen	-10.7107
animació	-10.7107
MA	-10.7112
▁negocis	-10.7114
▁realitzades	-10.7125
Ocupació	-10.7125
▁2002	-10.7128
34	-10.7133
▁elaborar	-10.7135
▁excepte	-10.7137
▁faltar	-10.7139
tera	-10.7139
▁contractes	-10.7143
pit	-10.7144
▁pilot	-10.7145
▁Sants	-10.7145
▁fum	-10.7146
▁dispositius	-10.7146
encs	-10.7157
▁edats	-10.7159
▁errors	-10.7159
lel	-10.716
▁doctor	-10.7163
real	-10.7163
55	-10.7168
▁mecanismes	-10.7168
32	-10.7168
bel	-10.717
▁renda	-10.7171
entrenament	-10.7173
▁Dissabte	-10.7174
▁difondre	-10.7178
ret	-10.718
▁afegeix	-10.7185
▁Festes	-10.7192
▁rival	-10.7197
▁xiquets	-10.7199
rs	-10.7199
▁cervell	-10.72
▁creiem	-10.7204
▁Roger	-10.7207
▁dignitat	-10.7209
▁sensibilitat	-10.7209
▁Jornades	-10.7214
▁Poble	-10.7216
▁judici	-10.7216
cho	-10.7218
▁suposar	-10.7227
eri	-10.7228
▁ingredients	-10.7231
▁curta	-10.7232
aparcament	-10.7234
nom	-10.7235
▁practicar	-10.7237
▁tensió	-10.7238
▁sorra	-10.7238
▁Cas	-10.7238
▁plens	-10.7244
one	-10.7245
▁felicitat	-10.7247
▁Soler	-10.7248
▁2003	-10.7251
Jo	-10.7255
▁construït	-10.7256
ori	-10.7257
▁avantatges	-10.7259
▁aturar	-10.7262
▁garantia	-10.7263
▁pintor	-10.7264
▁María	-10.7268
▁pateix	-10.7273
▁Daniel	-10.7282
▁increment	-10.7284
2,	-10.7286
ahir	-10.7286
▁Cristina	-10.7288
▁Do	-10.7297
▁Comitè	-10.7305
▁ingressos	-10.7306
▁soroll	-10.7306
▁components	-10.7307
▁pr	-10.7312
▁ficció	-10.7324
▁eliminar	-10.7333
Esquadra	-10.7341
▁caiguda	-10.7341
▁retirar	-10.7341
▁opinions	-10.7347
▁actitud	-10.7349
▁prepara	-10.735
▁Vidal	-10.7351
▁atendre	-10.7352
▁companyies	-10.7354
▁ocupar	-10.7355
▁targeta	-10.7357
ben	-10.7359
▁Bal	-10.736
▁propietats	-10.7361
▁Guillem	-10.7362
▁torneig	-10.7365
▁quantes	-10.7366
▁baixes	-10.7371
▁recomana	-10.7373
▁transformar	-10.7375
▁signar	-10.7377
▁paisatges	-10.7377
▁històrics	-10.7379
▁incorporació	-10.7383
▁existeixen	-10.7383
▁Chi	-10.7384
▁pan	-10.7385
dent	-10.7387
▁significat	-10.7389
▁Lu	-10.7391
▁voltes	-10.7393
AD	-10.7398
▁incloure	-10.7398
▁2017,	-10.7402
86	-10.7403
76	-10.7404
mm	-10.7413
▁dispositiu	-10.7415
33	-10.7418
▁matèries	-10.7419
▁lleure	-10.7423
▁arribem	-10.7423
▁efectiva	-10.7426
74	-10.7427
▁seguim	-10.7429
▁Fernández	-10.7432
fil	-10.7433
▁parcial	-10.7433
explotació	-10.7436
▁rebel	-10.7436
▁Pare	-10.7437
\	-10.7438
▁Fou	-10.7442
▁prestigi	-10.7446
▁2001	-10.7448
48	-10.7451
▁Rafael	-10.7451
▁esdevenir	-10.7454
5%	-10.7455
▁escenari	-10.7456
▁ju	-10.746
AN	-10.7468
pot	-10.7469
cos	-10.7472
ial	-10.7476
73	-10.7478
▁pasta	-10.748
▁adonar	-10.748
▁redacció	-10.748
▁inscripcions	-10.7483
▁formatge	-10.7484
▁diputats	-10.7484
▁campanyes	-10.7491
tina	-10.7496
PA	-10.7497
▁Unit	-10.7498
▁audiovisual	-10.7499
▁declarar	-10.7502
ani	-10.7504
▁destinació	-10.7507
▁regula	-10.7508
▁Torres	-10.751
té	-10.7512
▁descens	-10.7514
▁determinat	-10.752
▁cantar	-10.752
Auditori	-10.7521
▁sindicats	-10.7524
▁segell	-10.7525
▁bus	-10.7525
Història	-10.7526
▁receptes	-10.7532
38	-10.7533
▁Super	-10.754
▁factor	-10.754
rea	-10.7541
▁intens	-10.7543
ller	-10.7543
hort	-10.7547
▁aules	-10.755
▁transició	-10.7551
▁programari	-10.7551
▁absolutament	-10.7553
▁conscients	-10.7556
69	-10.7557
▁urbana	-10.7558
▁hui	-10.7567
mí	-10.7568
▁suposat	-10.757
▁plàstic	-10.757
▁Mostra	-10.7575
▁luxe	-10.7577
▁Los	-10.7586
ms	-10.759
▁Bat	-10.7592
▁terrenys	-10.7592
▁vivim	-10.7593
▁recepció	-10.7597
▁junta	-10.7597
▁turistes	-10.76
▁escena	-10.76
▁Tortosa	-10.7601
▁metodologia	-10.7603
autonomia	-10.7605
▁resultar	-10.7606
ssin	-10.7607
▁hàbits	-10.7613
▁Llegeix	-10.7615
37	-10.7616
tòria	-10.7616
camp	-10.7616
entitats	-10.7618
▁Taller	-10.7619
▁europees	-10.7622
▁trobades	-10.7624
▁realitzarà	-10.7627
▁presentarà	-10.7628
▁divisió	-10.763
87	-10.7631
▁decoració	-10.7638
Ro	-10.764
▁comptat	-10.7641
▁disposen	-10.7645
▁alternatives	-10.7646
▁criteri	-10.7647
▁divertit	-10.7657
ANC	-10.7658
▁ocupa	-10.7661
▁Dones	-10.7662
Internet	-10.7665
we	-10.7665
È	-10.7666
CA	-10.7672
explicar	-10.7673
▁gastronomia	-10.7675
▁bandera	-10.7677
9%	-10.7678
▁Nu	-10.768
pul	-10.7685
▁anàlisi	-10.7687
▁Curs	-10.7689
▁assenyala	-10.7689
▁socialistes	-10.7691
ama	-10.7692
▁frontera	-10.7695
▁continuen	-10.7696
apos	-10.7697
▁Real	-10.77
▁acompanyats	-10.7704
▁educatives	-10.7707
▁escrits	-10.7709
bil	-10.771
▁CCOO	-10.7712
ON	-10.7713
▁literari	-10.7714
▁legals	-10.772
▁altes	-10.7732
Atenció	-10.7733
▁Wi	-10.7733
▁inclosos	-10.7734
fu	-10.7736
▁batxillerat	-10.7737
vell	-10.7739
▁bandes	-10.774
▁gossos	-10.7741
65	-10.7743
▁industrials	-10.7746
Horta	-10.7747
▁pit	-10.7747
63	-10.7749
tura	-10.775
▁religió	-10.775
dir	-10.7753
▁cancel	-10.7753
▁ofertes	-10.7754
▁Ko	-10.7758
▁pol	-10.7758
▁diagnòstic	-10.7758
su	-10.7759
▁Dades	-10.7763
sions	-10.7763
▁lògica	-10.7768
▁puja	-10.7771
ics	-10.7771
ab	-10.7772
ico	-10.7774
▁esperant	-10.7775
far	-10.7776
▁exercici	-10.7779
ici	-10.778
▁crèdit	-10.7781
▁Oriol	-10.7781
▁veïnes	-10.7782
▁sabut	-10.7782
▁33	-10.7783
▁trobava	-10.7785
▁superiors	-10.7786
▁revistes	-10.7787
fort	-10.7788
▁clàssics	-10.7789
2015	-10.7793
▁envers	-10.7794
▁trets	-10.7797
▁Esta	-10.7799
▁Sch	-10.7802
▁Felip	-10.7803
▁Men	-10.7804
▁navegador	-10.7806
▁proporcionar	-10.7806
▁conjunta	-10.7807
▁rehabilitació	-10.7809
ermita	-10.7812
nic	-10.7813
▁Sergi	-10.7814
▁pedres	-10.7815
▁ubicació	-10.7818
▁societats	-10.7818
▁q	-10.782
haurà	-10.7824
▁bàsic	-10.7825
▁Laura	-10.7827
▁perd	-10.7833
Alacant	-10.7835
ló	-10.7836
▁apunta	-10.7838
▁específic	-10.7838
nova	-10.784
▁terrassa	-10.784
rio	-10.7841
▁famós	-10.7843
▁Llorenç	-10.7847
92	-10.785
▁Manel	-10.785
▁eficaç	-10.7854
▁CE	-10.7855
▁Article	-10.7855
▁fabricació	-10.7858
▁Diada	-10.786
▁similars	-10.7861
▁clic	-10.7863
▁exactament	-10.7863
▁potència	-10.7869
quer	-10.7883
Arxiu	-10.7884
▁aprofitant	-10.7886
▁refugiats	-10.7887
▁suau	-10.789
▁màquines	-10.7891
▁especialitzada	-10.7894
avi	-10.7895
▁expressa	-10.7895
▁garanteix	-10.7896
ccions	-10.7899
▁superat	-10.79
▁habitatge	-10.7901
▁votació	-10.7904
▁Unitat	-10.7905
▁reacció	-10.7907
dar	-10.7909
▁afavorir	-10.791
97	-10.791
agricultura	-10.791
▁convidats	-10.791
ek	-10.7912
79	-10.7912
▁pop	-10.7914
▁tradicions	-10.7915
▁adreça	-10.7919
bit	-10.7921
▁matinada	-10.7922
escena	-10.7922
▁símbol	-10.7926
▁Camí	-10.7926
ística	-10.7927
▁John	-10.793
cons	-10.793
UR	-10.7931
▁bancs	-10.7936
▁oficines	-10.7936
tern	-10.7937
tz	-10.7938
▁graus	-10.7941
escriure	-10.7941
▁usos	-10.7949
▁mirant	-10.7953
tric	-10.7954
▁banc	-10.7954
▁cavall	-10.7955
▁potent	-10.7957
▁cens	-10.7959
▁visitat	-10.7963
entrega	-10.7964
▁Sitges	-10.7969
▁bol	-10.7973
▁Miró	-10.7974
▁solidària	-10.7975
▁New	-10.7975
ícia	-10.7975
wi	-10.7976
▁nació	-10.7978
ov	-10.7984
tan	-10.7985
▁Selva	-10.7987
▁Riera	-10.7987
An	-10.7987
▁rector	-10.7989
▁Fòrum	-10.7992
▁triat	-10.7995
mal	-10.7995
▁concessió	-10.7996
AM	-10.7999
ok	-10.7999
▁piano	-10.8003
▁norma	-10.8011
▁quadre	-10.8012
59	-10.8014
▁consentiment	-10.8016
▁quinze	-10.8018
▁correcta	-10.8019
▁indrets	-10.802
▁permís	-10.8021
bol	-10.8024
Po	-10.8028
▁canals	-10.803
▁Canal	-10.8031
estabilitat	-10.8032
ak	-10.804
▁Rússia	-10.8041
▁menú	-10.8044
89	-10.8044
77	-10.8048
▁somriure	-10.8051
▁descobert	-10.8057
itzant	-10.8058
iz	-10.806
▁treballadores	-10.8063
▁XVI	-10.8067
AT	-10.8068
aires	-10.8068
▁Bra	-10.8073
esquena	-10.8075
▁Allà	-10.8077
▁veient	-10.8079
estudis	-10.8084
▁concreta	-10.8086
▁corona	-10.8093
▁esdevé	-10.8093
▁singular	-10.8096
▁interpretar	-10.8097
▁Bel	-10.8099
▁riure	-10.8103
▁Codi	-10.8103
if	-10.8104
sí	-10.8107
▁Família	-10.8111
▁Algunes	-10.8112
▁atès	-10.8117
▁Pal	-10.8118
arc	-10.8118
▁mel	-10.8119
▁inicis	-10.812
▁referències	-10.8121
elecció	-10.8126
arà	-10.813
Vi	-10.8131
▁combina	-10.8132
guda	-10.8134
▁versions	-10.8137
ji	-10.8138
▁inversions	-10.8142
rar	-10.8147
▁sensacions	-10.8149
▁Xavi	-10.815
om	-10.815
▁36	-10.8151
▁repertori	-10.8153
orientació	-10.8162
dura	-10.8162
▁números	-10.8162
▁Pablo	-10.8163
▁portarà	-10.8164
▁rebuig	-10.8164
▁oferint	-10.8164
ag	-10.8164
▁buit	-10.8167
IA	-10.8168
cional	-10.8171
ach	-10.8171
aquelles	-10.8172
▁capdavant	-10.8175
▁compromet	-10.8175
▁jazz	-10.8176
▁Don	-10.8179
É	-10.8182
▁Tur	-10.8182
onada	-10.8184
▁conductor	-10.8184
▁contempla	-10.8187
▁esmorzar	-10.8189
▁meta	-10.819
▁guanyadors	-10.8193
▁oli	-10.8197
▁Robert	-10.8199
▁Mediterrani	-10.8203
▁Martin	-10.8206
arra	-10.8207
▁específica	-10.8208
▁Cha	-10.821
▁avançat	-10.8214
licituds	-10.8215
▁feines	-10.8215
▁elèctric	-10.8217
39	-10.8218
▁amenaça	-10.8218
▁acaben	-10.822
▁ajudes	-10.8223
locar	-10.8227
▁temperatures	-10.8231
▁patit	-10.8233
avinguda	-10.8234
gan	-10.8235
acabar	-10.8238
bus	-10.824
▁illes	-10.8241
▁compositor	-10.8243
▁TIC	-10.8246
▁caracteritza	-10.8247
71	-10.8249
alcohol	-10.825
▁comprensió	-10.8255
▁consens	-10.8256
sc	-10.8256
▁info	-10.8259
arxiu	-10.8264
▁envolta	-10.8268
▁Mèxic	-10.8269
oferir	-10.8272
▁serra	-10.8282
set	-10.8283
▁atac	-10.8284
▁Cambra	-10.8287
▁vagi	-10.8289
king	-10.8289
▁Ciutadans	-10.8302
▁comerços	-10.8307
▁agradar	-10.8309
▁esquerra	-10.831
▁horari	-10.8311
▁relacionat	-10.8312
▁gir	-10.8313
dit	-10.8314
inscripció	-10.8316
baix	-10.8318
▁bàsica	-10.8323
▁equipaments	-10.8325
▁proposem	-10.8333
47	-10.8334
▁formacions	-10.8335
▁Hola	-10.8335
▁intervencions	-10.8335
ures	-10.8335
▁passi	-10.834
2016	-10.834
▁González	-10.8341
▁dissenyat	-10.835
▁biblioteques	-10.8352
▁Especial	-10.8354
bot	-10.8355
anunci	-10.8355
▁detectar	-10.8356
americà	-10.836
nk	-10.8363
▁Bas	-10.8366
can	-10.8371
▁saps	-10.8376
vent	-10.8385
▁2018,	-10.8388
▁balanç	-10.839
▁constitució	-10.8394
univers	-10.8397
▁pateixen	-10.8398
espectador	-10.8401
én	-10.8409
▁declarat	-10.8411
fra	-10.8411
▁50%	-10.842
44	-10.8424
▁assumir	-10.8425
▁manifestacions	-10.8425
▁negres	-10.8426
▁mètodes	-10.8426
▁du	-10.843
▁denúncia	-10.843
▁estrany	-10.8432
▁Esteve	-10.8436
▁etapes	-10.8437
▁prevista	-10.844
▁Empordà	-10.8441
▁Home	-10.8443
▁Director	-10.8444
▁reforçar	-10.8445
dà	-10.8447
ters	-10.8449
▁fre	-10.8457
▁propòsit	-10.8461
▁totalitat	-10.8462
▁servit	-10.8462
EU	-10.8466
▁tindrem	-10.8467
▁organismes	-10.8468
▁rock	-10.8468
▁afrontar	-10.8468
82	-10.8469
impuls	-10.8471
▁legislatura	-10.8472
dran	-10.8473
▁associació	-10.8476
▁medicina	-10.8477
▁brillant	-10.8479
▁calia	-10.8482
lot	-10.8486
▁canvia	-10.8487
▁cooperativa	-10.8487
▁plegats	-10.8489
▁anaven	-10.8492
iem	-10.8492
sca	-10.8494
▁excepcional	-10.8494
▁mostres	-10.8495
▁afirmar	-10.8498
aspecte	-10.8498
▁Nit	-10.8505
▁posicions	-10.8509
ley	-10.8514
▁estacions	-10.8515
estima	-10.8515
ü	-10.8516
▁escenaris	-10.8519
▁Im	-10.8519
▁Rambla	-10.8519
▁democràtic	-10.8523
▁Llegir	-10.8526
▁tendències	-10.8528
▁introducció	-10.8528
▁tractaments	-10.8533
▁residents	-10.8534
▁roca	-10.8537
ians	-10.8539
▁reproducció	-10.8544
▁EUA	-10.8546
▁districte	-10.8548
▁bell	-10.8551
▁bàsicament	-10.8552
gor	-10.8552
▁recomanable	-10.8552
neu	-10.8557
▁penjar	-10.856
▁Reglament	-10.8561
estalvi	-10.8562
gre	-10.8565
▁Escola	-10.8566
▁centenar	-10.8567
▁65	-10.8568
nal	-10.8568
▁Sarrià	-10.8569
▁teníem	-10.8569
49	-10.8569
▁Fem	-10.8572
▁xerrades	-10.8572
▁error	-10.8579
▁víctima	-10.858
ced	-10.8584
km	-10.8587
▁tir	-10.8593
fins	-10.8596
▁trobaràs	-10.8598
▁sabor	-10.8598
▁demanen	-10.8601
▁Za	-10.8605
ssos	-10.8606
adaptació	-10.8606
▁marit	-10.8606
▁Roig	-10.8607
▁fundador	-10.8607
▁ballar	-10.8609
▁matar	-10.8611
ign	-10.8612
▁femenina	-10.8615
Fi	-10.862
▁cre	-10.8621
▁procedents	-10.8621
ètic	-10.8622
▁extraordinària	-10.8623
▁creix	-10.8623
▁Dona	-10.8624
▁veí	-10.8624
gués	-10.8626
▁Mil	-10.8626
▁apropar	-10.8626
▁creant	-10.8626
ub	-10.8627
▁essencial	-10.8627
▁intensa	-10.863
▁castells	-10.8631
▁genial	-10.8633
▁solen	-10.8634
▁Japó	-10.8636
31	-10.8639
esquí	-10.864
▁contactar	-10.8641
rè	-10.8641
▁fiscals	-10.8642
exclusió	-10.8645
▁finca	-10.8645
▁òrgans	-10.8646
▁Coloma	-10.8647
▁transmissió	-10.8651
cel	-10.8651
▁veurem	-10.8655
▁haurem	-10.8655
ct	-10.8657
▁visible	-10.8659
itats	-10.8661
▁imaginació	-10.8666
▁participant	-10.8667
▁editat	-10.8667
▁gal	-10.8669
▁1999	-10.8672
ire	-10.8672
68	-10.8673
▁candidats	-10.8674
▁ciències	-10.8675
▁Il	-10.8676
▁Trans	-10.8678
EN	-10.8682
▁infància	-10.8685
legis	-10.8687
▁mot	-10.8687
ligent	-10.8688
eficiència	-10.8694
▁enviat	-10.8694
▁igualment	-10.8695
excel	-10.8695
▁espanyoles	-10.8696
▁associats	-10.8698
▁Batxillerat	-10.8698
▁intenta	-10.8699
▁determinades	-10.8703
▁creada	-10.8704
▁cares	-10.8706
▁sorgir	-10.8707
▁conservar	-10.8707
▁relacionada	-10.8708
▁defineix	-10.8709
▁consultes	-10.8711
▁Ce	-10.8712
▁dedicació	-10.8715
▁faria	-10.8716
dell	-10.8716
▁ajuden	-10.8723
reta	-10.8728
▁procediments	-10.873
CE	-10.8735
ea	-10.8735
▁afecten	-10.8736
▁constitueix	-10.8738
▁optar	-10.8745
ob	-10.8747
▁respectar	-10.8749
▁Poc	-10.8749
cents	-10.875
▁fon	-10.8752
▁donava	-10.8752
ill	-10.8753
Empordà	-10.8755
▁Conferència	-10.8758
▁quotidiana	-10.8759
▁Dels	-10.8759
▁Hotel	-10.8759
▁divertida	-10.8763
ban	-10.8765
Albert	-10.8766
▁expliquen	-10.877
increment	-10.8773
▁Ball	-10.8774
▁orígens	-10.8777
▁passarà	-10.878
▁profunda	-10.8782
▁compartit	-10.8784
hu	-10.8784
▁llevat	-10.8787
altura	-10.8789
▁referents	-10.8792
ànima	-10.8792
▁importa	-10.8793
ega	-10.8794
exemple	-10.8797
▁punta	-10.8797
etapa	-10.8797
▁contaminació	-10.8798
▁dissenyar	-10.88
molt	-10.8806
▁sorprenent	-10.8807
▁Quant	-10.8811
200	-10.8813
61	-10.8814
▁UAB	-10.8817
▁impacte	-10.8817
fes	-10.8821
legal	-10.8821
▁Pilar	-10.8822
▁semblen	-10.8824
▁passava	-10.8827
▁video	-10.8828
▁vendes	-10.8829
▁colònies	-10.8829
▁Pobla	-10.8833
▁negociació	-10.884
ff	-10.884
van	-10.8841
gra	-10.8841
▁g	-10.8843
▁Tota	-10.8844
▁configuració	-10.8845
▁imaginar	-10.8847
LA	-10.8847
▁Lloc	-10.8848
▁dimensió	-10.885
drà	-10.8852
nen	-10.8855
▁jurídica	-10.8859
▁Torrent	-10.8866
▁provisional	-10.8867
▁recordo	-10.8882
▁Ga	-10.8883
ft	-10.8885
2014	-10.8887
▁provocat	-10.8888
|	-10.8891
▁impostos	-10.8892
`	-10.8898
aga	-10.8899
primi	-10.8899
56	-10.8899
gia	-10.89
▁metro	-10.8906
▁galetes	-10.8912
▁museus	-10.8914
ling	-10.8917
▁Dis	-10.8919
▁mas	-10.892
▁metges	-10.8923
▁funcionar	-10.8923
▁saludable	-10.8924
[3]	-10.8926
▁DEL	-10.8929
▁oberts	-10.8934
aix	-10.8936
lis	-10.8936
bilitat	-10.8937
▁informacions	-10.8937
▁fixa	-10.894
▁àrea	-10.8948
▁Sor	-10.8948
ux	-10.8949
▁parades	-10.8958
▁Cinema	-10.8958
EC	-10.8959
▁SL	-10.8959
lats	-10.896
▁Mediterrània	-10.8961
▁contemporània	-10.8962
▁correctament	-10.8965
cus	-10.8966
nc	-10.8966
и	-10.8967
▁màster	-10.8971
▁cambra	-10.8973
36	-10.8973
83	-10.8974
▁reben	-10.8974
▁descripció	-10.8975
▁solidari	-10.8979
▁consellera	-10.898
equilibri	-10.8981
dí	-10.8983
▁enorme	-10.899
▁diada	-10.899
aleshores	-10.8991
▁coneixem	-10.8994
pur	-10.8996
ai	-10.8997
▁ventall	-10.8998
ER	-10.9001
▁finestres	-10.9002
▁líders	-10.9007
▁Mari	-10.9007
tom	-10.9013
96	-10.9013
▁Segur	-10.9014
▁Posteriorment	-10.9016
▁avis	-10.9016
▁penal	-10.9017
▁Mac	-10.9017
ofereix	-10.9023
ey	-10.9026
▁reclama	-10.9028
▁Divendres	-10.9034
▁espero	-10.9036
▁espectadors	-10.9039
3,	-10.9045
▁fitxer	-10.9049
Acadèmia	-10.905
▁fantàstic	-10.9052
▁Ge	-10.9053
and	-10.9053
▁regulació	-10.9054
gueren	-10.9054
100	-10.9054
▁tornem	-10.9056
▁panorama	-10.9057
▁bonica	-10.9057
▁oral	-10.906
▁certes	-10.9065
òs	-10.9065
entrevista	-10.9067
▁capella	-10.9068
Universitat	-10.9069
obrir	-10.907
▁músic	-10.9071
▁donem	-10.9072
▁Registre	-10.9073
▁fidel	-10.9075
▁Professional	-10.9079
▁mol	-10.908
85	-10.908
mic	-10.908
▁noi	-10.9081
AV	-10.9081
por	-10.9082
▁inclouen	-10.9084
▁Trobada	-10.9088
expedient	-10.9088
▁Rovira	-10.9089
▁eixos	-10.9091
imatges	-10.9093
assemblea	-10.9094
bas	-10.9096
▁formats	-10.9098
▁específiques	-10.91
▁Ciència	-10.91
▁consumidors	-10.9101
▁CD	-10.9103
aprendre	-10.9103
▁Mer	-10.9104
▁Isabel	-10.9105
▁físiques	-10.9108
▁gegants	-10.9111
▁confi	-10.9112
▁tractat	-10.9113
▁Quim	-10.9116
?”	-10.9116
allotjament	-10.9121
▁canviant	-10.9121
▁pobres	-10.9122
▁sorteig	-10.9122
lli	-10.9124
▁muntar	-10.9127
▁manifestar	-10.9133
▁congrés	-10.9133
▁psico	-10.9135
▁imposar	-10.9138
▁pendents	-10.914
luminació	-10.914
▁bat	-10.9141
tures	-10.9141
▁gestiona	-10.9142
▁GR	-10.9143
▁posteriors	-10.9143
lules	-10.9148
honor	-10.9149
▁cervesa	-10.9149
Olot	-10.9149
▁fossin	-10.915
▁cercar	-10.9151
▁tornen	-10.9153
▁actua	-10.9157
independentisme	-10.9158
só	-10.916
▁zero	-10.916
▁Brava	-10.9161
▁còmic	-10.9162
▁tornarà	-10.9162
▁gràfic	-10.9164
▁Taula	-10.9171
▁plenament	-10.9173
▁artista	-10.9174
obri	-10.9176
▁especialitzat	-10.9179
nu	-10.918
uda	-10.918
utilitzar	-10.9182
▁conduir	-10.9185
▁ambdós	-10.9185
▁Cel	-10.9186
▁anteriorment	-10.919
▁cinquanta	-10.9192
▁Principat	-10.9193
▁matemàtiques	-10.9195
▁jugant	-10.9197
▁elevat	-10.9199
▁especialistes	-10.92
▁específics	-10.9202
▁retornar	-10.9206
▁dèficit	-10.9206
▁Televisió	-10.9212
▁Estic	-10.9214
▁Mu	-10.9215
RES	-10.9216
▁Uns	-10.9216
▁obre	-10.9222
▁quaranta	-10.9222
Hi	-10.9227
clar	-10.9234
▁Marató	-10.9236
▁semi	-10.9237
▁desitja	-10.9239
▁Fons	-10.924
▁administrativa	-10.924
▁factura	-10.924
▁benvinguda	-10.9245
▁bisbe	-10.9249
42	-10.925
▁obliga	-10.9254
▁cobertura	-10.9254
▁llistes	-10.9256
Mar	-10.9257
èr	-10.9257
itzats	-10.9258
òpera	-10.9259
▁Pirineus	-10.9261
Any	-10.9263
▁acompanyada	-10.9264
▁cultures	-10.9269
▁novament	-10.9271
▁disponibilitat	-10.9274
▁curses	-10.9278
▁guarda	-10.9282
▁confirmar	-10.9285
▁privats	-10.9286
▁Diumenge	-10.9289
▁Dra	-10.929
▁localització	-10.929
emp	-10.9295
clam	-10.9297
▁crítiques	-10.9299
escala	-10.9301
▁generalment	-10.9307
▁subvenció	-10.9308
▁connectar	-10.9308
▁creuen	-10.9309
▁implantació	-10.9313
▁conegudes	-10.9316
▁germana	-10.9318
▁vigor	-10.9318
▁Cos	-10.9319
Co	-10.9322
▁efectiu	-10.9322
▁sentits	-10.9324
▁Bernat	-10.9326
▁centra	-10.9326
aplica	-10.9326
58	-10.9327
▁accident	-10.9327
▁dirigeix	-10.9333
▁convidat	-10.9339
▁perque	-10.934
▁Franco	-10.9343
▁proveïdors	-10.9345
▁vestit	-10.9345
▁impulsat	-10.9345
gr	-10.9347
▁coordinador	-10.9347
▁Pin	-10.9349
▁sento	-10.935
acollida	-10.9356
ku	-10.9362
▁trasllat	-10.9363
▁occidental	-10.9364
▁anuals	-10.9367
▁XVII	-10.9367
▁600	-10.937
▁Bona	-10.9371
aliments	-10.9374
▁origen	-10.9376
▁Javier	-10.9378
▁ecològica	-10.938
▁açò	-10.9385
▁habitualment	-10.9385
▁corredors	-10.9389
▁durà	-10.939
▁fresc	-10.9391
▁destinats	-10.9391
▁perfecta	-10.9392
▁comuna	-10.9393
ofici	-10.9393
▁desaparegut	-10.9394
▁francesos	-10.9394
▁Ed	-10.9394
Esports	-10.9395
có	-10.94
ip	-10.9405
▁ros	-10.9408
cas	-10.9411
▁relats	-10.9413
actitud	-10.9417
▁Foment	-10.9424
▁curiositat	-10.9425
▁informativa	-10.9426
▁llac	-10.9431
▁Tar	-10.9433
▁net	-10.9433
ota	-10.9434
▁torrent	-10.9435
43	-10.9435
46	-10.9436
▁Pons	-10.9436
dri	-10.9436
▁baixos	-10.9436
▁lliurar	-10.9438
▁disciplina	-10.944
▁verda	-10.9441
▁universitaris	-10.9443
▁definitivament	-10.9448
▁trobarem	-10.9448
▁segura	-10.9449
▁dictadura	-10.945
▁seguidors	-10.945
▁travessa	-10.9451
▁tropes	-10.9452
▁abandonar	-10.9455
▁manifesta	-10.946
▁aixecar	-10.9462
▁compres	-10.9464
▁destacats	-10.9466
▁Sistema	-10.9466
▁reclamar	-10.9467
▁Promoció	-10.9467
encanta	-10.9468
▁rosa	-10.947
▁substituir	-10.947
▁tallar	-10.9471
▁fruits	-10.9474
tol	-10.9475
ables	-10.9481
▁ajuts	-10.9481
▁Torra	-10.9485
▁convocar	-10.9486
▁Mur	-10.9486
▁abast	-10.9488
▁après	-10.9496
pia	-10.9498
▁converses	-10.9498
66	-10.9499
▁Cicle	-10.95
▁veia	-10.9501
▁lucre	-10.9502
▁interessades	-10.9503
pon	-10.951
’11	-10.9512
91	-10.9516
ö	-10.9519
▁necessitem	-10.952
▁moltíssim	-10.9522
bis	-10.9526
▁solucionar	-10.9528
▁75	-10.9529
▁Suprem	-10.9531
▁desplaçar	-10.9533
▁bàsquet	-10.9536
algun	-10.9539
▁militars	-10.9539
▁Munt	-10.9541
▁trajecte	-10.9542
▁finalitats	-10.9545
▁màrqueting	-10.955
▁apuntar	-10.9555
▁reparació	-10.9556
64	-10.9557
▁produeixen	-10.9558
▁metàl	-10.9559
▁grec	-10.9563
▁quedi	-10.9564
▁vivien	-10.9565
▁comenta	-10.957
tis	-10.9571
94	-10.9572
▁Gabriel	-10.9573
▁Mir	-10.9575
Organització	-10.9577
vic	-10.9579
▁reial	-10.958
▁informes	-10.9581
enviament	-10.9584
▁tria	-10.9584
▁voluntariat	-10.9586
▁realitzant	-10.9587
ascens	-10.9587
▁Territori	-10.9593
íssim	-10.9593
▁ací	-10.9596
gres	-10.9596
▁Qualsevol	-10.9598
▁Tampoc	-10.9599
ània	-10.96
▁1936	-10.96
▁mantingut	-10.9602
▁campió	-10.9605
▁cu	-10.9607
▁groc	-10.9615
▁Digital	-10.9618
ue	-10.962
▁freqüència	-10.9622
Est	-10.9624
▁pensem	-10.9625
▁estaran	-10.9627
▁crònica	-10.9633
▁Ob	-10.9636
ini	-10.9638
esquerres	-10.9638
▁romana	-10.964
però	-10.964
editorial	-10.9641
▁sanitari	-10.9644
!!!!	-10.9647
historiador	-10.9648
Osona	-10.965
gó	-10.9651
aventura	-10.9652
▁diària	-10.9653
rri	-10.9656
gueu	-10.9657
Hotel	-10.9659
▁oposició	-10.9659
IVA	-10.966
▁Esperem	-10.9662
▁vegetació	-10.9664
adquisició	-10.9665
Amèrica	-10.9672
▁2016,	-10.9675
▁italià	-10.9675
▁àmbit	-10.9677
▁esportius	-10.9678
ito	-10.9679
▁aventura	-10.9681
curs	-10.9687
▁tràmits	-10.9688
▁Xi	-10.9691
observació	-10.9696
▁dieta	-10.9701
▁lideratge	-10.9702
▁entrat	-10.9703
е	-10.9704
▁sanitària	-10.9706
▁virus	-10.9707
▁desnivell	-10.9707
oma	-10.9711
▁Roja	-10.9713
▁difícils	-10.9713
accions	-10.9715
emergència	-10.9717
▁habilitat	-10.9718
▁Personal	-10.9724
▁RE	-10.9727
▁immediatament	-10.9728
▁Santiago	-10.9729
▁rellevants	-10.973
cup	-10.9734
▁EN	-10.9737
tr	-10.9739
▁We	-10.9747
▁rigor	-10.9749
▁costum	-10.9751
▁llargues	-10.9752
eries	-10.9753
▁Víctor	-10.9753
▁34	-10.9755
▁hotel	-10.9757
ker	-10.9758
▁explicacions	-10.976
▁éssers	-10.976
▁inicialment	-10.9772
Octubre	-10.9775
▁recomanacions	-10.978
▁sencer	-10.9787
▁cicles	-10.9787
OL	-10.9788
▁desert	-10.9791
coll	-10.9794
bul	-10.9796
▁empresaris	-10.9802
▁modificacions	-10.9802
▁magnífica	-10.9803
▁reduït	-10.9804
▁pensava	-10.9808
Mo	-10.981
▁forts	-10.9811
esc	-10.9811
57	-10.9811
▁compost	-10.9819
▁immediat	-10.9822
▁currículum	-10.9822
ima	-10.9824
▁arguments	-10.9824
▁carreteres	-10.9827
▁condemna	-10.9828
CI	-10.9828
▁descriu	-10.9829
▁colles	-10.9829
▁Banyoles	-10.983
▁arribant	-10.983
▁integrat	-10.983
▁38	-10.9832
ampliació	-10.9832
▁desprès	-10.9832
▁Bages	-10.9835
pí	-10.9835
▁na	-10.9836
▁Reis	-10.9837
▁mantenen	-10.9839
▁Sebastià	-10.9842
▁sanitat	-10.9842
▁convocat	-10.9843
▁Bio	-10.9844
operació	-10.9845
▁testimonis	-10.9847
rup	-10.9848
▁coincidint	-10.985
▁negar	-10.9852
▁operacions	-10.9852
▁mo	-10.9856
▁Mora	-10.9856
deix	-10.9857
▁escriptors	-10.9859
81	-10.986
▁proposat	-10.9862
stre	-10.9863
▁Am	-10.9863
▁reportatge	-10.9863
ïn	-10.9869
dra	-10.9869
Se	-10.9871
▁consolidar	-10.9874
CC	-10.9876
▁policial	-10.9876
▁portada	-10.9878
▁immediata	-10.9881
▁exclusiva	-10.9882
ològica	-10.9883
itzades	-10.9885
▁barra	-10.9889
▁conclusions	-10.989
▁cridar	-10.9891
▁portava	-10.9893
▁calma	-10.9894
▁fracàs	-10.9897
▁certs	-10.9898
▁treballem	-10.9899
▁Garrotxa	-10.9899
▁Ger	-10.9902
▁serien	-10.9904
▁2015,	-10.9904
vor	-10.9908
▁Secció	-10.9909
▁preocupació	-10.991
▁Colla	-10.9911
▁aire	-10.9913
oficina	-10.9914
Ba	-10.9916
▁retard	-10.9917
IG	-10.9923
idad	-10.9923
▁fases	-10.9925
▁Fra	-10.9929
▁exemplars	-10.9929
▁repartir	-10.993
▁Part	-10.9934
▁campanar	-10.9935
▁250	-10.9936
▁fronteres	-10.9938
▁rodes	-10.9939
▁convidar	-10.9946
▁jurídic	-10.9948
Ó	-10.995
▁llums	-10.9952
▁serveixen	-10.9953
▁deriva	-10.9961
▁pintar	-10.9964
Esquerra	-10.9965
rec	-10.9969
▁Grècia	-10.997
▁esteu	-10.9972
▁nomenat	-10.9973
▁estalvi	-10.9978
ier	-10.9982
▁estàs	-10.9984
▁Gui	-10.9985
▁filles	-10.9987
rro	-10.9989
▁gris	-10.9992
▁reflexions	-10.9994
▁magnífic	-10.9994
▁XIII	-10.9999
encara	-10.9999
▁jardins	-11.0001
▁saló	-11.0003
▁Riu	-11.0004
▁acostar	-11.0005
▁alts	-11.0005
▁llegenda	-11.0007
▁funcionaris	-11.0008
▁Ab	-11.0013
▁rellotge	-11.0014
▁percepció	-11.0014
▁varietats	-11.0014
▁comanda	-11.0016
eda	-11.0016
▁assenyalat	-11.0017
quis	-11.0019
▁expectatives	-11.0022
▁geo	-11.0023
▁hauríem	-11.0024
▁formant	-11.0026
▁divulgació	-11.0027
cular	-11.003
▁personalment	-11.003
Sant	-11.0032
▁Cerdanyola	-11.0034
laborat	-11.0035
▁eficient	-11.0035
▁vianants	-11.0038
▁Espanyol	-11.0041
▁retrat	-11.0044
▁racons	-11.0047
▁hotels	-11.0049
eva	-11.0052
[4]	-11.0053
▁afirmat	-11.0057
▁passejar	-11.0058
americana	-11.0063
▁vius	-11.0064
▁reserves	-11.0064
▁denuncia	-11.0067
▁corda	-11.0069
▁Petit	-11.0071
àvia	-11.0072
Agricultura	-11.0072
▁majoritàriament	-11.0081
▁tros	-11.0085
▁Roses	-11.0087
dica	-11.009
▁previsió	-11.0096
▁ab	-11.0096
lents	-11.01
▁atacs	-11.01
▁mono	-11.0102
organitza	-11.0107
MO	-11.0108
▁manual	-11.0109
òria	-11.0112
este	-11.0118
▁expressament	-11.0118
leccions	-11.0122
▁Gil	-11.0123
▁cabell	-11.0123
▁nits	-11.0124
encarrega	-11.0126
▁universitari	-11.0127
▁pe	-11.0127
titu	-11.0133
▁confirma	-11.0133
autobús	-11.0134
amo	-11.0138
stra	-11.0141
▁fal	-11.0141
▁demandes	-11.0142
ncia	-11.0144
▁complexitat	-11.0145
▁conclusió	-11.0146
▁Sam	-11.0148
▁deixo	-11.0154
▁servidor	-11.0154
organisme	-11.0158
▁vocació	-11.0159
▁trams	-11.016
animals	-11.0161
▁aportació	-11.0163
▁verdures	-11.0166
tim	-11.0168
▁portem	-11.0169
▁corporal	-11.0169
acosta	-11.0171
▁franquisme	-11.0172
▁radical	-11.0174
▁allí	-11.0175
▁155	-11.0177
nit	-11.0178
evitar	-11.0181
▁Colom	-11.0183
▁inici	-11.0183
IP	-11.0184
inicia	-11.0188
activa	-11.019
agra	-11.0196
▁beques	-11.0197
dol	-11.0199
▁retirada	-11.0199
▁combatre	-11.02
▁amiga	-11.0203
▁competir	-11.0203
▁esports	-11.0203
asso	-11.0203
ong	-11.0204
▁caldria	-11.0205
▁obligacions	-11.0206
▁Unides	-11.0207
▁gamma	-11.0207
bé	-11.021
▁Cambrils	-11.0213
▁espiritual	-11.0216
▁impressió	-11.022
nica	-11.0221
Anna	-11.0223
▁profund	-11.0224
▁escales	-11.0225
ا	-11.0226
▁guitarra	-11.0228
▁disputar	-11.0228
▁93	-11.0228
ID	-11.023
▁indret	-11.0234
bla	-11.0237
▁presentada	-11.0241
▁existent	-11.0241
▁trama	-11.0242
Índia	-11.0244
▁Flor	-11.0246
ring	-11.0249
TV	-11.0251
olla	-11.0251
2009	-11.0254
▁normalitat	-11.0257
▁PER	-11.0257
▁impedir	-11.0257
ACIÓ	-11.0258
▁exposar	-11.0259
▁supera	-11.0264
▁esportistes	-11.0264
▁progrés	-11.0266
▁esdevingut	-11.0267
▁palau	-11.0273
▁Cala	-11.0274
autora	-11.0275
▁acollirà	-11.0277
▁somnis	-11.0277
vera	-11.0279
▁dits	-11.0279
▁gràfica	-11.0283
▁XIV	-11.0284
▁Bro	-11.0285
▁Descripció	-11.029
mor	-11.0295
▁enlloc	-11.0296
▁cartells	-11.0297
▁Àngel	-11.0299
▁DO	-11.0299
▁Castella	-11.0301
▁Martorell	-11.0308
rd	-11.0308
▁cons	-11.031
▁freqüent	-11.0311
▁anirem	-11.0311
▁test	-11.0315
▁estable	-11.0318
▁Aquell	-11.0323
OC	-11.0326
▁varem	-11.0329
▁diria	-11.0329
▁volien	-11.0329
▁inclosa	-11.033
▁financera	-11.0334
▁bal	-11.0336
▁indicat	-11.0337
▁XV	-11.034
llen	-11.034
▁electrònics	-11.0341
▁iguals	-11.0342
▁dependència	-11.0343
PS	-11.0344
▁religiosa	-11.0345
▁mou	-11.0345
infant	-11.0345
▁franquista	-11.0347
òleg	-11.0349
▁milió	-11.035
▁rodona	-11.0351
▁definitiu	-11.0353
Agrupació	-11.0353
▁centrat	-11.0358
ocasió	-11.0358
ular	-11.0363
uc	-11.0364
corre	-11.0365
▁obligat	-11.0367
objecte	-11.0368
▁garanties	-11.037
lades	-11.0374
▁pintures	-11.0377
▁amants	-11.0378
2013	-11.0378
▁possessió	-11.0379
▁sec	-11.0379
UM	-11.038
▁armes	-11.038
ància	-11.0381
Obra	-11.0385
▁protesta	-11.0387
▁laboratori	-11.039
etiqueta	-11.0395
▁creuar	-11.0395
CH	-11.0399
▁productors	-11.0402
igues	-11.0403
▁mini	-11.0405
▁braços	-11.0409
▁Bou	-11.0411
▁vergonya	-11.0414
▁llatí	-11.0414
CO	-11.0414
▁Pat	-11.0415
SE	-11.0416
tges	-11.0418
off	-11.0418
▁tutor	-11.0418
▁arxius	-11.0419
▁cul	-11.042
rit	-11.042
▁formal	-11.0421
▁còpia	-11.0426
▁Saló	-11.0427
▁fugir	-11.0428
▁esperit	-11.0429
AB	-11.0431
▁curiós	-11.0431
empresari	-11.0432
▁tro	-11.0435
Una	-11.0443
▁tesi	-11.0447
▁coure	-11.0447
▁notable	-11.0451
▁apartat	-11.0452
▁Barri	-11.0453
▁parcel	-11.0453
▁Llull	-11.0454
▁quedarà	-11.0455
▁promou	-11.0456
▁augmenta	-11.0458
▁consumidor	-11.0459
Aigua	-11.0461
acer	-11.0462
72	-11.0463
isa	-11.0464
▁fixar	-11.0467
▁satisfer	-11.0467
▁Vendrell	-11.0469
of	-11.047
▁contundent	-11.047
▁mobilització	-11.0471
sen	-11.0472
▁Bri	-11.0474
▁papers	-11.0477
▁reuneix	-11.0478
▁patró	-11.0479
gem	-11.0479
▁quota	-11.0484
▁cohesió	-11.0487
▁adaptat	-11.0491
fal	-11.0494
▁descobreix	-11.0499
▁Balaguer	-11.05
▁cames	-11.0504
▁prioritat	-11.0504
issa	-11.0505
▁favorable	-11.0505
▁sindicat	-11.0506
▁convenient	-11.0508
▁plau	-11.0512
▁Dolors	-11.0513
▁import	-11.0516
▁protagonisme	-11.0516
rica	-11.0519
autoritat	-11.052
và	-11.0522
Orquestra	-11.0528
▁Boi	-11.0529
dro	-11.0531
mani	-11.0531
▁funcional	-11.0533
▁rellevant	-11.0536
deu	-11.0537
atura	-11.054
▁solitari	-11.054
▁murs	-11.0541
67	-11.0544
legacions	-11.0548
▁1998	-11.0552
ordenació	-11.0558
▁comarcal	-11.0558
expansió	-11.0559
usa	-11.0562
cro	-11.0563
arro	-11.0563
lista	-11.0566
▁fotogràfic	-11.0569
▁destrucció	-11.0569
▁plataformes	-11.0574
lustracions	-11.0575
▁ordinador	-11.0575
▁Fu	-11.0578
▁centrar	-11.058
▁pinta	-11.0581
▁World	-11.0585
escapa	-11.0586
▁manifestat	-11.0587
▁informàtic	-11.0595
▁dirigents	-11.0595
▁constància	-11.0595
nès	-11.0602
▁Sota	-11.0602
▁constituir	-11.0604
▁administratiu	-11.0605
▁UB	-11.0606
▁sorprendre	-11.0611
extrem	-11.0611
Ha	-11.0612
▁únics	-11.0613
▁subministrament	-11.0615
▁estrelles	-11.0616
▁exercicis	-11.0617
cut	-11.062
error	-11.0623
▁Pas	-11.0624
▁https	-11.0625
▁Gaudí	-11.0627
▁vicepresident	-11.0628
Aran	-11.0634
▁transferència	-11.0637
pres	-11.0638
▁rècord	-11.0639
gudes	-11.064
rt	-11.064
▁editorial	-11.0641
▁extraordinari	-11.0641
▁soldats	-11.0642
▁39	-11.0643
▁Autor	-11.0645
▁comentat	-11.0645
sia	-11.0646
▁construccions	-11.0647
sion	-11.065
RI	-11.0651
▁protocol	-11.0653
ificar	-11.0654
▁Julià	-11.0656
54	-11.0659
▁pesca	-11.0661
▁Contra	-11.0662
▁coneixen	-11.0663
▁48	-11.0663
▁establerts	-11.0665
lina	-11.0667
TI	-11.0668
rina	-11.0671
veu	-11.0674
▁incorpora	-11.0674
▁elegant	-11.0681
cot	-11.0681
▁Gent	-11.0682
Ca	-11.0686
sic	-11.0686
▁trucar	-11.0688
▁vore	-11.069
▁Che	-11.069
▁assolit	-11.0692
▁oriental	-11.0699
▁afectar	-11.0704
▁electorals	-11.0707
▁Joves	-11.0708
▁compleix	-11.0709
▁caminant	-11.071
▁ous	-11.0712
ejat	-11.0715
▁complert	-11.0716
▁Bur	-11.0719
òrgan	-11.0722
▁escenes	-11.0722
IL	-11.0724
▁trenca	-11.0727
▁preparant	-11.0732
UB	-11.0732
▁disputa	-11.0733
hagin	-11.0734
▁voltants	-11.0734
ACN	-11.0737
cí	-11.0738
▁poetes	-11.074
▁delegació	-11.0744
▁Ki	-11.0751
sim	-11.0754
osament	-11.0755
▁misteri	-11.0759
▁impuls	-11.0759
▁valorat	-11.076
▁reg	-11.0762
▁detingut	-11.0763
▁Medicina	-11.0763
dio	-11.0764
▁despertar	-11.0765
▁Salt	-11.0766
▁actius	-11.0767
bia	-11.0767
2011	-11.0771
▁Montse	-11.0772
▁Cat	-11.0776
cial	-11.078
▁fur	-11.0781
▁venia	-11.0786
▁xoc	-11.0786
tons	-11.0788
▁prestacions	-11.0788
àtic	-11.0793
▁expert	-11.0798
▁assessorament	-11.08
▁Martín	-11.08
Esport	-11.0803
▁llistat	-11.0804
▁37	-11.0805
▁preocupa	-11.0809
▁soc	-11.0815
ET	-11.0816
jos	-11.0818
PE	-11.0818
illo	-11.0818
ph	-11.0819
aria	-11.0819
▁Nacions	-11.0822
▁racó	-11.0822
▁guardar	-11.0828
▁clares	-11.0828
▁campanes	-11.0831
age	-11.0833
▁fórmula	-11.0834
▁arribi	-11.0835
▁agrícola	-11.0835
▁Ya	-11.0836
▁Amics	-11.0837
allà	-11.0837
xe	-11.0841
▁Públic	-11.0841
▁signatura	-11.0845
▁caigut	-11.0846
▁drogues	-11.0846
assessorament	-11.0848
▁convoca	-11.085
▁mat	-11.085
Pro	-11.0851
zar	-11.0856
sense	-11.0856
cil	-11.0858
evi	-11.0862
▁Agustí	-11.0866
▁expressió	-11.0868
▁Passeig	-11.087
▁exigeix	-11.0876
cla	-11.0877
▁Ripoll	-11.0878
▁fina	-11.0879
fà	-11.088
▁discriminació	-11.0885
▁Portugal	-11.0887
abans	-11.0888
▁Alba	-11.0889
▁narra	-11.0892
▁Vell	-11.0894
erra	-11.0894
▁rus	-11.0896
▁treu	-11.09
▁llançament	-11.0902
▁paella	-11.0902
▁talla	-11.0906
▁guió	-11.0908
▁Fre	-11.0908
▁caire	-11.0909
▁tancada	-11.091
▁42	-11.0914
gran	-11.0917
▁Red	-11.0918
▁convertint	-11.0924
▁XII	-11.0925
▁Campus	-11.0926
▁prové	-11.0928
ARC	-11.0929
agenda	-11.0934
txa	-11.0937
▁energètic	-11.0941
pl	-11.0943
SI	-11.0949
▁matrícula	-11.095
▁ànim	-11.0953
▁instruccions	-11.0953
▁usar	-11.0959
enques	-11.0964
▁reunit	-11.0964
▁Patronat	-11.0965
▁recomanem	-11.0965
▁Ve	-11.0969
▁peculiar	-11.097
▁gustos	-11.0971
▁amable	-11.0976
▁limitat	-11.0976
▁Industrial	-11.0977
2008	-11.0977
Usuari	-11.0977
▁Gerard	-11.098
gna	-11.0981
▁inclusió	-11.0983
▁Bor	-11.0984
▁meua	-11.0991
dal	-11.0995
▁ambientals	-11.0999
mus	-11.1003
▁estils	-11.1005
▁busquen	-11.1006
ràs	-11.1007
▁regions	-11.1009
▁senyora	-11.1013
▁Regidoria	-11.1019
TS	-11.102
ible	-11.1021
▁complicitat	-11.1026
vé	-11.1027
▁masses	-11.103
▁=	-11.1034
acceptació	-11.1034
▁sensibilització	-11.1035
▁evolució	-11.1037
▁intern	-11.1038
▁intentant	-11.1038
ònica	-11.1042
▁arrels	-11.1046
imp	-11.1047
▁utilitzen	-11.105
pt	-11.1054
▁Pots	-11.1054
▁Fernando	-11.1055
rum	-11.1062
0,	-11.1063
▁1992	-11.1066
▁fresca	-11.1066
Estany	-11.1066
▁Jean	-11.1066
oliva	-11.1072
sat	-11.1073
▁humanes	-11.1074
▁bast	-11.1075
▁Porta	-11.1077
▁sèries	-11.1077
▁revisar	-11.1078
Alemanya	-11.1079
▁incidència	-11.1081
▁indicar	-11.1082
▁creativa	-11.1083
▁falla	-11.1084
DI	-11.1085
▁voldria	-11.1087
▁Gas	-11.1088
2012	-11.1092
▁autèntic	-11.1092
41	-11.1093
gur	-11.1095
▁quadrats	-11.1095
entrar	-11.1098
▁costums	-11.1098
Alcoi	-11.11
▁urbans	-11.11
▁Cerdanya	-11.11
▁Berga	-11.11
alça	-11.1103
▁característica	-11.1103
▁incorporat	-11.1105
▁Vin	-11.1107
▁universitària	-11.1107
The	-11.1116
▁jugat	-11.1116
▁disciplines	-11.1127
▁Gener	-11.1127
▁Brussel	-11.1128
▁pensen	-11.113
▁constitucional	-11.1134
▁periodisme	-11.1135
▁partides	-11.1136
▁certamen	-11.1137
▁forestal	-11.114
UN	-11.1141
ther	-11.1142
▁contemplar	-11.1146
▁queixa	-11.1148
ay	-11.1151
gir	-11.1154
ld	-11.1156
▁presentem	-11.1157
▁Comú	-11.1158
rin	-11.1159
Audiència	-11.1164
▁seccions	-11.1164
▁atorga	-11.1165
62	-11.1165
▁Cab	-11.1169
▁Resolució	-11.1171
▁Tro	-11.1171
▁fotògraf	-11.1172
▁unir	-11.1183
hagués	-11.1187
▁tocat	-11.1188
▁10%	-11.1191
▁regalar	-11.1192
▁narrativa	-11.1192
ires	-11.1193
▁delictes	-11.1194
▁cementiri	-11.1195
▁pèl	-11.1196
TE	-11.1197
oni	-11.1197
ajut	-11.1197
▁depenent	-11.1198
qué	-11.1198
▁evidentment	-11.1203
▁fosc	-11.1203
▁descompte	-11.1205
tò	-11.1206
▁actituds	-11.1206
▁desenvolupen	-11.1206
▁lluna	-11.1207
▁ceràmica	-11.1212
▁fix	-11.1213
▁COM	-11.1214
▁titularitat	-11.1215
ei	-11.1215
▁Carmen	-11.1218
▁crèdits	-11.1219
▁creatiu	-11.122
verti	-11.1224
▁1995	-11.1224
▁treballador	-11.1226
puta	-11.1227
nada	-11.1229
▁plata	-11.1229
berg	-11.123
actor	-11.1231
▁gaudeix	-11.1233
burg	-11.1233
▁registrar	-11.1233
▁vella	-11.1234
▁ceba	-11.1235
▁presentacions	-11.1241
▁gat	-11.1241
▁Pompeu	-11.1243
▁monument	-11.1243
▁tira	-11.1243
▁Verge	-11.1243
enten	-11.1244
▁Har	-11.1245
▁cultiu	-11.1245
tics	-11.1247
!”	-11.1248
▁Ruta	-11.1249
▁Sóc	-11.125
accessibilitat	-11.1251
▁pavelló	-11.1251
▁Publicat	-11.1253
lè	-11.1255
▁personalitzat	-11.1258
▁previstes	-11.126
ral	-11.126
78	-11.1261
▁símptomes	-11.1262
▁Este	-11.1262
TC	-11.1264
▁samarreta	-11.1264
▁turístics	-11.1266
▁espectaculars	-11.1266
▁debut	-11.1266
▁1997	-11.1267
▁presidència	-11.1273
▁Riba	-11.1274
▁llança	-11.1275
habitació	-11.1275
▁repartiment	-11.1276
▁visibilitat	-11.1278
▁top	-11.1281
▁oferirà	-11.1281
▁120	-11.1283
▁concretes	-11.1285
▁racional	-11.1286
▁estrenar	-11.1289
ànim	-11.129
bà	-11.1293
▁porter	-11.1293
▁litoral	-11.1294
▁Ciutadella	-11.1296
teu	-11.1298
▁Wa	-11.13
▁comissions	-11.1302
▁atractiu	-11.1303
ug	-11.1303
Anoia	-11.1305
▁bossa	-11.1307
▁despatx	-11.1311
fí	-11.1311
▁Sort	-11.1313
llar	-11.1313
▁rol	-11.1314
▁taronja	-11.1314
tribu	-11.1314
▁afectades	-11.1315
▁pastís	-11.1315
▁artístiques	-11.1317
▁organitzadors	-11.1318
▁Escolar	-11.132
▁by	-11.132
▁Gómez	-11.1321
▁catedral	-11.1321
top	-11.1322
seny	-11.1324
▁seixanta	-11.1326
▁Humans	-11.1326
xu	-11.1327
▁accepta	-11.1328
▁mestra	-11.1328
▁puguem	-11.1332
▁Sara	-11.1334
Habitatge	-11.1335
▁significativa	-11.1335
AU	-11.1337
▁par	-11.134
▁prevenir	-11.1341
▁permetin	-11.1342
vil	-11.1342
▁quantitats	-11.1342
▁Divisió	-11.1342
▁Mat	-11.1343
▁Comença	-11.1344
▁pensions	-11.1345
▁valent	-11.1354
estadi	-11.1354
▁trens	-11.1356
sses	-11.1356
▁salsa	-11.1356
GA	-11.1361
▁Q	-11.1361
▁disposem	-11.1362
electricitat	-11.1362
▁Zona	-11.1362
▁Universitari	-11.1365
▁tràmit	-11.1368
▁aC	-11.1369
essència	-11.1369
SC	-11.1374
▁Directiva	-11.1374
▁Park	-11.1375
▁farina	-11.1375
▁negativa	-11.138
▁CON	-11.138
dament	-11.1381
▁Cívic	-11.1382
▁contrast	-11.1382
▁Corre	-11.1383
▁possiblement	-11.1385
eo	-11.1386
▁mantenint	-11.1389
▁capa	-11.139
▁centenari	-11.139
ña	-11.1402
identifica	-11.1404
fic	-11.1405
▁probable	-11.1409
Igualada	-11.1412
dom	-11.1414
▁relativa	-11.1415
aparell	-11.1419
▁incrementar	-11.1419
èn	-11.1425
▁generat	-11.1425
▁Oriental	-11.1427
cy	-11.1428
▁sobirania	-11.1428
▁ministeri	-11.1436
rada	-11.1439
▁determinada	-11.144
▁debats	-11.144
▁havent	-11.144
▁regals	-11.1442
spect	-11.1444
▁parcs	-11.1451
▁calent	-11.1451
Acció	-11.1452
▁frases	-11.1453
▁famosa	-11.1453
▁directes	-11.146
▁Doctor	-11.1461
▁condicionat	-11.1462
innovació	-11.1464
cli	-11.1464
▁parlava	-11.1466
▁vinculats	-11.1468
▁assistència	-11.147
▁Bre	-11.147
din	-11.1474
▁humil	-11.1475
▁posi	-11.1476
▁Futbol	-11.1477
▁fas	-11.1481
▁constantment	-11.1483
acta	-11.1484
alegria	-11.1486
▁digui	-11.1486
▁guanyadora	-11.1488
52	-11.1488
▁reformes	-11.149
▁limita	-11.149
▁utilitzats	-11.1491
our	-11.1492
▁celler	-11.1493
argument	-11.1498
▁secrets	-11.15
▁conformen	-11.15
▁Constitucional	-11.1501
fon	-11.1503
▁cedir	-11.1503
▁contemporani	-11.1505
pet	-11.1505
mia	-11.1505
▁Tom	-11.1506
itinerari	-11.1506
▁dolça	-11.1509
ança	-11.1512
▁intentat	-11.1512
rma	-11.1515
▁interessat	-11.1516
▁Lliure	-11.1519
▁Esportiu	-11.1519
Informació	-11.152
▁trist	-11.1524
▁analitza	-11.1525
▁Clar	-11.1527
emmarca	-11.153
▁tractava	-11.1532
▁Foto	-11.1534
▁Yo	-11.1534
▁excepció	-11.1536
▁endur	-11.1537
▁Gandia	-11.1537
Ara	-11.1537
▁peixos	-11.1538
▁1996	-11.1542
▁monitor	-11.1544
▁cooperatives	-11.1546
▁experimentar	-11.1548
▁coincidir	-11.1549
▁calefacció	-11.155
▁dotar	-11.1553
impre	-11.1553
▁Paul	-11.1555
aposta	-11.1556
amics	-11.156
▁maquinària	-11.1563
íssima	-11.1565
lustració	-11.1565
Igualtat	-11.1566
▁finalitzat	-11.1567
▁tribunal	-11.1567
▁braç	-11.1568
▁Gen	-11.157
▁censura	-11.1571
▁cava	-11.1575
▁Lloret	-11.1576
▁paràmetres	-11.1577
▁sentim	-11.1579
nda	-11.1581
pà	-11.1581
▁relativament	-11.1583
▁gruix	-11.1585
▁IN	-11.1586
▁culte	-11.1586
ä	-11.1588
ajud	-11.1588
siu	-11.1589
amistat	-11.1589
▁comitè	-11.1591
▁urgent	-11.1593
fica	-11.1595
ajudar	-11.1597
▁multitud	-11.1597
obligació	-11.1599
▁regne	-11.16
esperar	-11.1606
autorització	-11.1617
▁còmode	-11.1618
uf	-11.1619
▁transmet	-11.1623
▁ajudat	-11.1628
git	-11.1628
qua	-11.1628
▁cristians	-11.1629
▁entrevistes	-11.1629
▁sons	-11.1629
mas	-11.1634
▁bateria	-11.1639
▁problemàtica	-11.164
bert	-11.1641
eixi	-11.1643
mut	-11.1645
▁consideració	-11.1646
▁motivació	-11.1646
Ò	-11.1651
▁celebrada	-11.1652
▁jueus	-11.1653
▁Cam	-11.1653
▁estrella	-11.1654
▁unió	-11.1654
▁descomptat	-11.1654
▁papa	-11.1662
▁Concert	-11.1664
▁adreces	-11.1665
▁pròxima	-11.1666
▁assumeix	-11.1666
xar	-11.1667
▁44	-11.1667
▁denominació	-11.1668
▁alumne	-11.1671
▁reivindicar	-11.1672
▁vocal	-11.1673
flu	-11.1673
▁Tele	-11.1674
▁inaugurar	-11.1677
▁relacionar	-11.1678
▁especialitzats	-11.1678
▁Blanca	-11.168
RA	-11.168
▁Paral	-11.168
▁reconeguda	-11.1684
dona	-11.1686
▁vagin	-11.1687
educa	-11.1688
▁lectures	-11.1689
▁Casals	-11.1691
TER	-11.1692
▁desaparèixer	-11.1692
▁55	-11.1693
Aula	-11.1697
put	-11.1699
▁clínica	-11.17
53	-11.1704
▁Ten	-11.1709
▁Forn	-11.1712
▁complement	-11.1714
▁duu	-11.1714
▁carnet	-11.1714
▁Canvi	-11.1716
▁Adrià	-11.1717
▁copa	-11.1717
tari	-11.1718
▁Ste	-11.1723
▁suspensió	-11.1723
▁centrals	-11.1724
LI	-11.1724
▁capítols	-11.1733
▁entrega	-11.1735
utilitzen	-11.1735
Di	-11.1737
▁calcula	-11.1743
▁estima	-11.1745
▁masia	-11.1746
▁llançar	-11.1747
▁anomenar	-11.175
ositat	-11.175
cher	-11.1751
▁contents	-11.1753
▁Cons	-11.1755
▁contactes	-11.1756
NE	-11.1756
Des	-11.1757
▁cobrar	-11.1758
UT	-11.176
▁senten	-11.1761
▁llibreria	-11.1762
ST	-11.1764
▁polèmica	-11.1767
PO	-11.1767
▁2014,	-11.1769
▁estrangers	-11.177
▁núvols	-11.177
▁fragment	-11.1774
▁túnel	-11.1777
▁raïm	-11.1777
▁temàtiques	-11.1777
▁lleugerament	-11.1779
▁autèntica	-11.1782
ificat	-11.1783
▁remei	-11.1783
▁inscriure	-11.1783
▁promocionar	-11.1785
event	-11.1786
▁Setembre	-11.1786
accident	-11.1788
▁economia	-11.1789
ctor	-11.179
▁Brasil	-11.1799
end	-11.1803
▁tramitació	-11.1804
▁cinquena	-11.1805
▁balcó	-11.1805
▁paciència	-11.1805
▁obligatori	-11.1808
anti	-11.1809
▁bicicletes	-11.181
▁porc	-11.1811
▁corredor	-11.1813
▁orgànica	-11.1815
mul	-11.1815
▁fauna	-11.1816
▁anunci	-11.1816
▁pobre	-11.1817
▁artificial	-11.1817
▁Defensa	-11.1818
lant	-11.1822
dy	-11.1824
▁missa	-11.1827
▁registrat	-11.183
absència	-11.1832
▁generen	-11.1833
▁comparació	-11.1835
obtenció	-11.1835
▁content	-11.1836
obli	-11.1838
ols	-11.1838
▁Juvenil	-11.184
espais	-11.1841
▁docència	-11.1844
riu	-11.1851
▁Activitats	-11.1854
▁activament	-11.1855
▁passem	-11.1855
inci	-11.1856
▁modalitats	-11.1856
tus	-11.1857
▁Gor	-11.186
▁drama	-11.1861
▁explicant	-11.1862
▁Ricard	-11.1864
▁península	-11.1865
▁Dani	-11.1865
▁Berlín	-11.1869
▁Vives	-11.1869
eliminació	-11.187
emissió	-11.1871
▁conformitat	-11.1872
▁rius	-11.1873
▁separa	-11.1873
illes	-11.1873
▁fruites	-11.1877
▁Mad	-11.188
▁contractar	-11.188
▁Sab	-11.1883
Car	-11.1885
▁explorar	-11.1886
▁refereix	-11.1887
▁cinquè	-11.1889
▁britànic	-11.189
plica	-11.189
▁Bell	-11.1891
cep	-11.1892
▁masculí	-11.1893
▁caixes	-11.1897
▁España	-11.1897
ding	-11.1898
▁bolets	-11.1899
▁Estudi	-11.1901
▁SA	-11.1902
mb	-11.1903
▁extrem	-11.1913
Alcalde	-11.1916
300	-11.1916
agència	-11.1918
màtic	-11.1919
▁acadèmica	-11.1922
▁química	-11.1922
▁corrents	-11.1924
▁Camps	-11.1926
interessa	-11.193
▁considerable	-11.1933
Hisenda	-11.1935
▁À	-11.1938
▁w	-11.1938
▁conta	-11.1939
nou	-11.1939
▁bot	-11.1939
aportació	-11.194
▁recorre	-11.1942
arrel	-11.1942
▁Navarro	-11.1942
2010	-11.1942
▁independents	-11.1945
▁Tinc	-11.1946
TM	-11.1946
▁extensió	-11.1951
▁freda	-11.1953
▁catedràtic	-11.1956
▁avaluar	-11.1961
▁comunica	-11.1965
moni	-11.1967
ata	-11.1968
▁<	-11.197
▁fals	-11.1971
▁transversal	-11.1973
▁1990	-11.1973
▁riera	-11.1975
estudiant	-11.1976
▁CA	-11.1977
▁ubicat	-11.1978
▁èpoques	-11.1978
▁ambdues	-11.1981
▁Tre	-11.1985
▁Cooperació	-11.1987
ord	-11.1988
▁pròxims	-11.1989
▁regles	-11.1991
▁mensual	-11.1991
▁retro	-11.1992
▁Sens	-11.1992
▁Arriba	-11.1992
entén	-11.1993
▁Est	-11.1994
▁Visita	-11.1994
▁comencem	-11.1996
▁llegat	-11.2
ixen	-11.2001
▁implicats	-11.2002
▁renunciar	-11.2003
FE	-11.2007
▁addicional	-11.2008
▁Pallars	-11.201
Honor	-11.2011
▁Musical	-11.2013
▁exigir	-11.2013
▁mag	-11.2014
▁Sta	-11.2017
cles	-11.2018
▁declara	-11.202
Observatori	-11.2022
▁Clara	-11.2023
▁donació	-11.2023
▁bra	-11.2024
und	-11.2025
estada	-11.2025
▁controls	-11.2026
▁Jorge	-11.2029
▁tindria	-11.2031
cud	-11.2032
▁Montseny	-11.2041
▁Tin	-11.2044
▁moneda	-11.2044
▁destinada	-11.2044
▁vintena	-11.2045
Estiu	-11.2051
▁tapa	-11.2063
▁Lle	-11.2064
▁galeria	-11.2065
▁civils	-11.2066
▁entenc	-11.2069
▁adoptar	-11.207
▁Plana	-11.2072
bell	-11.2072
▁Sou	-11.2073
▁dipòsit	-11.2074
▁aprovada	-11.2075
queu	-11.2075
ity	-11.2077
examen	-11.2078
▁afegim	-11.2078
ndo	-11.2078
▁preparats	-11.2078
▁Temps	-11.2079
▁pràctic	-11.208
▁fitxa	-11.2081
▁Eva	-11.2082
especifica	-11.2084
▁Pass	-11.2086
ñ	-11.2087
▁je	-11.2088
51	-11.2088
▁More	-11.2092
▁tron	-11.2093
▁adreçat	-11.2095
▁delegat	-11.2098
▁comparteix	-11.2098
▁Quart	-11.21
èria	-11.2101
▁coral	-11.2102
▁signes	-11.2107
▁debatre	-11.2108
cò	-11.2115
▁sanitaris	-11.2115
arem	-11.2116
▁terrible	-11.2116
°	-11.2118
▁vertical	-11.2118
pal	-11.2119
▁recordem	-11.2119
▁podi	-11.212
▁mirall	-11.2121
▁anuncia	-11.2125
▁justificar	-11.2125
ites	-11.2127
ejant	-11.2127
▁Bosch	-11.2129
▁sender	-11.2131
▁monitors	-11.2134
▁individus	-11.2136
▁Tomàs	-11.2138
ME	-11.2139
▁Cornellà	-11.2141
▁tecnològica	-11.2142
▁placa	-11.2147
▁cessió	-11.2151
▁posarà	-11.2151
▁versos	-11.2154
aran	-11.2154
▁senyals	-11.2155
▁xic	-11.2156
▁pin	-11.2157
Imperi	-11.2158
▁vestits	-11.2158
▁mediterrani	-11.2165
but	-11.2165
▁idiomes	-11.2172
▁urbanística	-11.2173
▁comparteixen	-11.2173
▁quadres	-11.2173
poli	-11.2176
▁sexuals	-11.2177
sab	-11.2177
ompli	-11.2179
▁fitxers	-11.2188
▁aniran	-11.2188
▁destinades	-11.2192
▁incloses	-11.2192
▁integrada	-11.2193
▁perfils	-11.2195
▁Priorat	-11.2195
diu	-11.2196
▁desenvolupant	-11.2203
▁separació	-11.2203
▁poguessin	-11.2204
▁malalts	-11.2205
▁Roc	-11.2206
▁continuada	-11.2206
▁fundar	-11.221
▁assistit	-11.2212
EP	-11.2212
▁Bus	-11.2216
[5]	-11.2217
▁refer	-11.2218
▁Artur	-11.2222
▁carregar	-11.2222
▁Villa	-11.2222
▁separat	-11.2223
establir	-11.2224
LE	-11.2225
nyol	-11.2229
▁nas	-11.2229
▁gana	-11.223
▁substitució	-11.2232
▁Quatre	-11.2233
▁Marcel	-11.2234
▁vinya	-11.2235
▁anglesa	-11.2237
▁útils	-11.2239
▁Occidental	-11.2239
▁instituts	-11.2241
Ja	-11.2245
arriba	-11.2245
▁pressa	-11.2246
▁temporades	-11.2247
▁2012,	-11.2247
▁quedava	-11.2247
▁tancats	-11.2249
▁guiada	-11.2253
ED	-11.2253
organitzar	-11.2254
▁realitzats	-11.2258
ençà	-11.2258
▁derivats	-11.226
▁rescat	-11.2262
by	-11.2262
log	-11.2265
▁UIB	-11.2266
▁bressol	-11.2266
▁diem	-11.2267
▁interessa	-11.227
▁postres	-11.2271
▁conducta	-11.2274
aprova	-11.2274
fri	-11.2276
▁començant	-11.2278
▁oficialment	-11.2279
▁Paco	-11.2279
▁vinculades	-11.228
licita	-11.2281
▁aprofundir	-11.2284
▁dol	-11.2286
▁convé	-11.2287
assaig	-11.2288
▁diferencia	-11.2289
▁1994	-11.2293
▁cadira	-11.2296
▁estimat	-11.2297
▁pluges	-11.2298
▁moto	-11.2299
▁Portal	-11.2299
▁Tècnica	-11.23
▁radio	-11.23
ido	-11.2302
▁20%	-11.2303
ístic	-11.2306
OP	-11.2307
▁animar	-11.2308
▁autonòmic	-11.2308
munt	-11.2308
▁recol	-11.2308
egui	-11.2311
xes	-11.2314
▁regla	-11.2315
▁nacionalisme	-11.2317
▁bars	-11.2317
а	-11.2319
▁aprenent	-11.2319
▁cova	-11.2324
▁Papa	-11.2324
tors	-11.2325
ow	-11.2325
▁compten	-11.2325
▁disposat	-11.2327
▁veïnat	-11.2327
▁registres	-11.233
lau	-11.2331
▁Deu	-11.2335
▁inf	-11.2336
ieu	-11.2338
▁Valencia	-11.2339
Interior	-11.2343
▁Associació	-11.2344
▁acostuma	-11.2346
alliberament	-11.2347
▁longitud	-11.2347
▁Ur	-11.2348
tiques	-11.2348
▁Duran	-11.2348
▁alcalde	-11.235
▁organitzades	-11.2353
asfalt	-11.2354
mera	-11.2354
obliga	-11.2354
▁afectat	-11.2357
▁subjecte	-11.236
▁acabi	-11.236
▁mm	-11.2362
▁blaugrana	-11.2363
▁lingüístic	-11.2365
▁llibertats	-11.2369
▁rebrà	-11.2371
▁malalt	-11.2371
▁Coral	-11.2374
▁sobreviure	-11.2379
▁ecològic	-11.2379
▁obligatòria	-11.238
iza	-11.238
▁Aleshores	-11.238
cab	-11.2386
▁pensaments	-11.2389
▁mediterrània	-11.239
has	-11.2392
posició	-11.2393
▁forat	-11.2396
grafia	-11.2396
▁directors	-11.2397
▁confirmat	-11.24
▁contínua	-11.2401
▁precisa	-11.2403
▁sac	-11.2405
▁renovar	-11.2407
▁ciutadanes	-11.2408
mò	-11.2409
▁càlcul	-11.2409
▁precisió	-11.2412
▁corresponen	-11.2417
▁trasllada	-11.2417
▁ISBN	-11.2419
▁titulars	-11.242
▁romans	-11.242
▁vells	-11.2421
ICA	-11.2421
▁celebren	-11.2422
iques	-11.2424
▁creador	-11.2424
anomenat	-11.2426
▁penjat	-11.2429
pli	-11.243
▁considerem	-11.243
▁Sevilla	-11.2431
▁poders	-11.2432
acompanyament	-11.2433
enginyeria	-11.2435
▁Ll	-11.2436
enemic	-11.2438
▁onze	-11.2438
▁convidem	-11.2438
VI	-11.2439
▁Bloc	-11.2439
▁romà	-11.244
gri	-11.2441
▁durar	-11.2442
▁empresarials	-11.2445
licitat	-11.2447
ETA	-11.2447
▁consecutiu	-11.2447
▁setanta	-11.2449
lem	-11.2449
▁Mus	-11.2449
CIÓ	-11.2451
▁fantàstica	-11.2452
▁Maragall	-11.2454
▁doni	-11.2455
▁Mata	-11.2456
BO	-11.2456
ïda	-11.2456
▁jutjat	-11.2456
▁publicats	-11.2457
▁blat	-11.246
▁classificat	-11.2462
▁plural	-11.2462
▁sindical	-11.2463
▁Er	-11.2463
▁Recursos	-11.2464
▁Institut	-11.2465
gel	-11.2465
prov	-11.2465
MI	-11.2466
▁duen	-11.2467
▁Liceu	-11.2468
igual	-11.2469
▁acabada	-11.2472
▁especialista	-11.2473
▁Participació	-11.2476
habitatges	-11.2476
Més	-11.2478
autodeterminació	-11.2478
quia	-11.2484
▁cristiana	-11.2484
rons	-11.2484
▁comerciants	-11.2486
eco	-11.2486
▁destinacions	-11.2487
▁consolidació	-11.2488
▁barranc	-11.2488
▁comèdia	-11.2488
▁Mentrestant	-11.249
▁portant	-11.2492
93	-11.2493
▁1993	-11.2495
cion	-11.25
▁reina	-11.2502
▁lateral	-11.2511
▁casc	-11.2512
▁800	-11.2513
▁Millor	-11.2514
bon	-11.2515
▁Guia	-11.2516
arbre	-11.2516
▁típic	-11.2517
▁girar	-11.2518
agraden	-11.2519
▁denunciat	-11.252
tia	-11.2522
▁Lingüística	-11.2522
▁fot	-11.2523
▁Tàrrega	-11.2524
urgència	-11.2526
▁triple	-11.2529
▁trau	-11.253
▁desaparició	-11.2531
▁signa	-11.2531
homenatge	-11.2533
loca	-11.2533
▁roman	-11.2533
▁taxes	-11.2534
bet	-11.2535
Ra	-11.2536
▁tanmateix	-11.2536
▁alemanya	-11.2541
▁participatiu	-11.2542
▁traçat	-11.2544
▁cine	-11.2548
▁indispensable	-11.2548
▁esperen	-11.2552
▁reivindicació	-11.2552
▁conec	-11.2554
▁vivències	-11.2558
ciones	-11.2562
impost	-11.2564
▁competicions	-11.2564
sort	-11.2565
▁pilars	-11.2567
▁Cer	-11.2567
▁mèdica	-11.2567
sec	-11.2567
qü	-11.2568
▁rurals	-11.2568
▁cavalls	-11.257
my	-11.2574
▁reflex	-11.2576
actuar	-11.2579
▁Ruiz	-11.2579
▁Auto	-11.258
NT	-11.258
rés	-11.2581
lustrat	-11.2581
▁pujant	-11.2582
▁PRO	-11.2584
▁Maig	-11.2585
▁Cà	-11.2585
▁participaran	-11.2587
▁Sent	-11.2591
▁Física	-11.2591
▁abordar	-11.2595
▁coincideix	-11.2595
aniversari	-11.2595
▁aparells	-11.2598
▁anul	-11.2599
star	-11.2599
▁entorns	-11.2605
cr	-11.2606
▁causar	-11.2608
lan	-11.2608
▁fita	-11.2608
▁casal	-11.261
pare	-11.261
▁poètica	-11.2611
▁ultra	-11.2611
important	-11.2611
grad	-11.2617
▁continent	-11.2618
idees	-11.2621
▁Molins	-11.2625
▁aventures	-11.2626
▁agafa	-11.2627
▁comte	-11.2628
▁rics	-11.2629
▁soles	-11.263
▁Ella	-11.2631
ño	-11.2637
mail	-11.2637
▁plantejat	-11.2638
elements	-11.2638
▁plenes	-11.2642
▁joguines	-11.2643
▁victòries	-11.2643
2006	-11.2644
pra	-11.2647
kin	-11.2648
▁Deixa	-11.2648
▁fabricants	-11.2648
▁beure	-11.2653
dria	-11.2654
ndre	-11.2655
▁Gri	-11.2656
aigües	-11.2657
▁explicació	-11.2657
▁discussió	-11.266
assignatura	-11.2661
о	-11.2661
ït	-11.2664
▁audiovisuals	-11.2665
rell	-11.2668
▁històriques	-11.267
NA	-11.2671
tenen	-11.2672
▁Sanitat	-11.2672
ian	-11.2673
▁robots	-11.2676
▁justament	-11.2677
Empresa	-11.2678
▁Poli	-11.2678
Entitats	-11.2679
▁cercle	-11.268
▁Mel	-11.268
▁ric	-11.268
individu	-11.2681
▁llars	-11.2683
▁ajudant	-11.2685
PI	-11.2688
▁reciclatge	-11.2689
▁contribueix	-11.269
▁festivals	-11.2695
pec	-11.2696
▁cru	-11.2696
▁vivia	-11.2696
▁assaig	-11.2699
▁marcada	-11.2702
▁servirà	-11.2703
▁financer	-11.2703
▁seca	-11.2703
tada	-11.2704
indica	-11.2704
▁Suïssa	-11.2706
▁deixeu	-11.2708
▁impressionant	-11.2711
▁redueix	-11.2711
▁reconeguts	-11.2712
▁saltar	-11.2712
▁lesions	-11.2714
▁tap	-11.2715
sti	-11.2717
▁George	-11.2718
Que	-11.2719
▁ocells	-11.272
▁finalitza	-11.2727
emperador	-11.2728
stro	-11.2729
▁Unes	-11.2731
▁capitalisme	-11.274
▁parroquial	-11.2742
▁vigilància	-11.2744
▁vaixells	-11.2746
tivitat	-11.275
▁descriure	-11.275
Catalunya	-11.275
sar	-11.2752
▁entren	-11.2755
▁Catedral	-11.2756
onia	-11.2757
àl	-11.2758
▁criminal	-11.2758
▁contenen	-11.2758
infants	-11.2761
▁Cast	-11.2763
▁ordres	-11.2763
Par	-11.2764
▁2013,	-11.2764
▁Saint	-11.2765
▁prohibit	-11.2766
▁demanant	-11.2767
▁situats	-11.2768
mil	-11.2768
▁seleccionar	-11.2768
▁Tour	-11.277
▁Dijous	-11.2773
▁qualificació	-11.2773
▁Barberà	-11.2773
▁Amèrica	-11.2773
▁pou	-11.2776
▁Tothom	-11.2777
▁Fun	-11.2778
fre	-11.2778
▁ponent	-11.2778
▁vesprada	-11.2779
▁acompanya	-11.2783
▁competitivitat	-11.2783
▁aficionats	-11.2783
▁guerres	-11.2789
▁caça	-11.279
▁Cort	-11.279
▁compromisos	-11.2791
▁casar	-11.2796
▁vinyes	-11.2796
també	-11.28
▁with	-11.2802
▁rectificació	-11.2802
▁cama	-11.2803
estableix	-11.2806
atmosfera	-11.2808
▁aconseguint	-11.2808
▁sona	-11.2808
▁vénen	-11.2814
▁Bèlgica	-11.2815
▁justa	-11.2815
▁identificació	-11.2816
▁compren	-11.2816
▁nevera	-11.2816
▁períodes	-11.2817
▁essencials	-11.2817
▁reduïda	-11.2818
▁Blanes	-11.2818
▁Salou	-11.2818
▁notar	-11.2819
▁coalició	-11.2822
▁Mollet	-11.2823
vant	-11.2825
low	-11.2826
▁creadors	-11.2826
▁avís	-11.2826
▁narració	-11.2828
▁Vida	-11.2831
ous	-11.2834
▁poseu	-11.2836
escriu	-11.2843
▁privacitat	-11.2843
fan	-11.2845
▁caminada	-11.2846
▁1939	-11.2848
▁aporten	-11.2848
{	-11.2848
vid	-11.2852
▁informàtics	-11.2857
ANT	-11.2858
band	-11.2858
▁nacionalitat	-11.2858
essa	-11.2859
▁dinàmiques	-11.2859
artistes	-11.286
▁emissions	-11.286
rra	-11.286
▁nega	-11.2861
▁Xa	-11.2861
▁menja	-11.2861
mann	-11.2862
▁estratègic	-11.2866
twitter	-11.2868
▁plantar	-11.2869
af	-11.287
▁tinguem	-11.2871
▁supervivència	-11.2872
leta	-11.2873
▁desde	-11.2877
dé	-11.2879
▁concepció	-11.288
▁mapes	-11.2881
adequa	-11.2881
▁Rural	-11.2883
itu	-11.2884
▁arribarà	-11.2886
equipament	-11.2887
▁passes	-11.2893
▁Vanguardia	-11.2893
▁manipulació	-11.2894
▁comportar	-11.2897
▁futura	-11.2901
▁autònoma	-11.2901
▁continuarà	-11.2902
▁columna	-11.2903
OT	-11.2908
▁envia	-11.2909
▁estaria	-11.2916
hy	-11.2916
▁avança	-11.2922
llu	-11.2923
▁Tel	-11.2924
▁Guíxols	-11.2924
▁carboni	-11.2927
ART	-11.2928
▁Noguera	-11.2929
▁Xàtiva	-11.293
idioma	-11.2933
abilitat	-11.2936
fici	-11.2938
ids	-11.2938
▁Persones	-11.2939
UE	-11.2939
out	-11.2939
mant	-11.2942
antiguitat	-11.2943
inversió	-11.2944
▁raonable	-11.2944
▁preservar	-11.2945
▁inscrits	-11.2945
òr	-11.2949
▁180	-11.295
▁ram	-11.2951
anada	-11.2952
▁Manacor	-11.2953
▁humor	-11.2954
▁públicament	-11.2954
TO	-11.2957
nder	-11.2957
color	-11.2959
▁construïda	-11.296
▁practica	-11.2962
ots	-11.2964
▁dolç	-11.2967
pass	-11.2968
▁titulat	-11.2969
▁formatius	-11.2973
▁campana	-11.2978
▁reis	-11.2978
identitat	-11.2981
▁Junts	-11.2981
rò	-11.2984
▁ressò	-11.2985
▁2011,	-11.2986
▁Marroc	-11.2992
▁connecta	-11.2992
cc	-11.2995
Tot	-11.2996
▁mobles	-11.2997
espanyol	-11.2998
▁CN	-11.2998
▁bord	-11.3
mbre	-11.3004
▁Demà	-11.3005
▁Ke	-11.3005
2019	-11.3008
▁començava	-11.301
▁concrets	-11.3016
▁desconegut	-11.3017
▁considerada	-11.302
▁accessible	-11.3026
▁recents	-11.3027
▁alemanys	-11.3027
idi	-11.3029
▁Sovint	-11.3031
nce	-11.3031
media	-11.3035
uts	-11.3037
alment	-11.3037
▁Territorial	-11.3038
▁alegria	-11.3038
▁territorials	-11.304
▁masclista	-11.304
▁Final	-11.3045
Itàlia	-11.3047
▁fragments	-11.3048
▁prenen	-11.3053
▁torni	-11.3056
▁finançar	-11.3057
mont	-11.3058
▁Bru	-11.3059
gant	-11.306
assumpte	-11.306
▁deures	-11.3061
▁equilibri	-11.3062
eb	-11.3064
▁virtut	-11.3065
▁parlament	-11.307
▁infraestructura	-11.3071
omple	-11.3071
▁Segurament	-11.3072
▁bronze	-11.3072
▁apuntat	-11.3072
ADA	-11.3074
▁gaudit	-11.3076
▁celebracions	-11.3078
▁càmeres	-11.308
▁adjunt	-11.3083
armes	-11.3087
▁frontal	-11.3087
▁presentades	-11.3087
ef	-11.3088
▁assessor	-11.309
bin	-11.3091
▁guies	-11.3093
▁entenem	-11.3095
gil	-11.3097
▁sorgeix	-11.3097
▁refr	-11.3098
▁provincial	-11.3099
IV	-11.31
▁Platja	-11.3103
▁firma	-11.3105
▁aprofitat	-11.3107
▁aparell	-11.3108
▁pàrquing	-11.3108
incompliment	-11.3108
▁Min	-11.311
usuaris	-11.311
▁Post	-11.3111
▁Edicions	-11.3116
▁augmentat	-11.3118
▁utilitat	-11.3118
▁Raval	-11.3119
▁k	-11.3122
▁sur	-11.3126
▁exp	-11.313
▁agafat	-11.313
▁Mateu	-11.3131
herència	-11.3132
nça	-11.3132
▁usuari	-11.3133
imposa	-11.3134
▁juguen	-11.3135
▁allotjament	-11.3135
ville	-11.3137
▁Mestre	-11.3139
▁1991	-11.3141
EST	-11.3141
▁futurs	-11.3142
pir	-11.3144
▁component	-11.3145
Consulta	-11.3146
Illa	-11.3148
▁descoberta	-11.3148
▁blancs	-11.3153
▁Espai	-11.3155
assegurança	-11.3157
▁tràfic	-11.3157
excursió	-11.3157
▁focus	-11.3158
▁resolt	-11.3159
aca	-11.3159
Antoni	-11.3159
▁emocionant	-11.316
▁tastar	-11.316
quan	-11.3163
▁Mobilitat	-11.3166
viv	-11.3168
▁laterals	-11.3169
▁constitu	-11.317
▁ofert	-11.3172
▁Set	-11.3172
▁v	-11.3174
ua	-11.3174
guessin	-11.3175
▁república	-11.3176
▁demostren	-11.3176
▁UGT	-11.3177
http	-11.3178
BA	-11.3179
▁Juli	-11.318
▁impulsa	-11.3182
▁acudir	-11.3182
▁formatiu	-11.3182
▁dutxa	-11.3184
riques	-11.3185
▁commemoració	-11.3185
▁adient	-11.3186
▁republicans	-11.3187
▁franc	-11.3192
▁futures	-11.3192
nega	-11.3193
▁fam	-11.3193
▁barat	-11.3196
adapta	-11.3196
ONA	-11.3199
àr	-11.32
Enric	-11.3201
▁sensible	-11.3201
▁dirigides	-11.3204
▁Etiquetes	-11.3205
fit	-11.3206
ib	-11.321
▁Dues	-11.3211
▁Ku	-11.3215
uen	-11.3216
para	-11.3217
audiència	-11.3218
▁Urbana	-11.3218
ianes	-11.3223
▁vincle	-11.3223
gada	-11.3223
▁assenyalar	-11.3224
ham	-11.3224
▁Politècnica	-11.3226
imatge	-11.3227
▁estètica	-11.3228
ide	-11.3231
▁emprenedors	-11.3232
▁CAP	-11.3234
▁consolidat	-11.3236
Aquest	-11.3237
▁41	-11.3238
▁mer	-11.3239
▁semblants	-11.3241
▁perjudici	-11.3241
▁anant	-11.3243
▁entès	-11.3243
▁Pacte	-11.3243
▁Mireia	-11.3243
▁Documentació	-11.3245
▁Vent	-11.3246
▁campus	-11.3246
▁encarregat	-11.3246
▁cuidar	-11.3249
▁tecnològic	-11.3252
▁eixe	-11.3253
▁SE	-11.3253
▁substàncies	-11.326
▁Oberta	-11.3261
▁fortes	-11.3262
▁Literatura	-11.3263
ixer	-11.3263
▁min	-11.3265
cir	-11.3266
▁convençut	-11.3266
▁continuat	-11.3266
▁requereixen	-11.3267
▁utilitzada	-11.3268
▁cloenda	-11.3269
▁Bombers	-11.3269
▁bosses	-11.3273
▁Tru	-11.3273
▁Qualitat	-11.3273
arrossega	-11.3278
▁Geltrú	-11.3282
▁Dansa	-11.3284
▁integrar	-11.3286
▁vinculat	-11.3287
ING	-11.3287
600	-11.3287
▁menuts	-11.3288
cum	-11.3291
ning	-11.3291
▁associat	-11.3292
▁escolta	-11.3293
sp	-11.3293
▁grapat	-11.3296
pan	-11.3298
▁barret	-11.3299
▁Anglaterra	-11.3299
▁Mònica	-11.3301
▁May	-11.3302
▁nuclis	-11.3304
anomenada	-11.3305
ètiques	-11.3305
▁arma	-11.3308
▁hort	-11.3309
▁deixi	-11.331
aprofitament	-11.3311
▁companyes	-11.3312
▁Obert	-11.3312
CP	-11.3313
ation	-11.3313
▁mobiliari	-11.3314
▁mèdic	-11.3316
▁pura	-11.3318
cades	-11.3319
encarregat	-11.3321
▁estudiat	-11.3323
▁símbols	-11.3324
▁experimental	-11.3327
▁Oliver	-11.3328
kh	-11.3329
▁Benestar	-11.333
▁intercanvi	-11.333
▁orientació	-11.3332
▁valencianes	-11.3334
▁combinar	-11.3336
loqui	-11.3336
▁comunitària	-11.3336
▁oblidat	-11.3337
▁transforma	-11.334
estrès	-11.3344
oles	-11.3345
▁Sar	-11.3348
▁gravar	-11.3351
400	-11.3351
▁revolta	-11.3352
▁informatiu	-11.3354
▁penya	-11.3354
▁llegeix	-11.3356
▁Revista	-11.3356
▁suficients	-11.3359
▁coneixia	-11.3361
esmentada	-11.3361
tè	-11.3362
ite	-11.3367
▁religiós	-11.3369
▁urbanització	-11.337
ingrés	-11.337
aval	-11.3372
▁demanem	-11.3376
▁brutal	-11.3377
▁drac	-11.3379
▁Jan	-11.338
▁departaments	-11.3383
▁borsa	-11.3386
perquè	-11.3386
empat	-11.3387
Eix	-11.3388
igualtat	-11.3392
Amb	-11.3393
▁red	-11.3394
iv	-11.3394
nies	-11.3395
DE	-11.3397
▁gala	-11.3401
▁repeti	-11.3401
pè	-11.3401
▁Gemma	-11.3402
gas	-11.3404
lls	-11.3404
▁negociacions	-11.3406
▁Ah	-11.3408
▁Delta	-11.3413
▁organitzen	-11.3413
▁Garriga	-11.3414
▁Històric	-11.3414
accion	-11.3414
▁descobriment	-11.3414
tés	-11.3425
▁profundament	-11.3427
▁pero	-11.3427
hum	-11.3428
roc	-11.3428
▁Benet	-11.343
▁Cervera	-11.3431
▁increïble	-11.3431
▁crit	-11.3435
▁procedent	-11.3438
▁estadístiques	-11.3442
▁captar	-11.3443
▁Conca	-11.3446
aconsella	-11.3447
▁traslladat	-11.3449
apa	-11.3449
▁recollit	-11.345
Ontinyent	-11.3455
Cat	-11.3457
▁comoditat	-11.3458
▁provinents	-11.3459
▁sobte	-11.3459
▁Precisament	-11.3459
2007	-11.346
▁vincles	-11.346
▁Anti	-11.346
▁legalitat	-11.3461
▁repàs	-11.3462
▁vermella	-11.3465
▁demarcació	-11.3468
▁roques	-11.3469
pañ	-11.3469
Eivissa	-11.3472
▁italiana	-11.3473
▁Muntanya	-11.3473
ere	-11.3474
Col	-11.3477
▁Jun	-11.3477
▁pagesos	-11.3477
▁arbre	-11.3478
▁alimentària	-11.348
▁definit	-11.348
▁compartida	-11.348
▁dius	-11.3481
▁fla	-11.3482
teix	-11.3482
«	-11.3483
accent	-11.3484
estany	-11.3487
▁complexa	-11.3489
▁UPC	-11.3494
▁estimar	-11.3494
▁llargs	-11.3495
ndal	-11.3495
▁pesar	-11.3497
▁curts	-11.3498
▁comoditats	-11.35
▁mecanisme	-11.3503
▁pica	-11.3503
▁mata	-11.3504
way	-11.3505
▁àlbum	-11.3505
▁neo	-11.3505
▁alçada	-11.3506
▁diversió	-11.3506
▁Sindicat	-11.3512
SP	-11.3512
▁begudes	-11.3513
cinc	-11.3514
▁patates	-11.3515
▁urnes	-11.3517
▁43	-11.3518
independència	-11.352
▁blanques	-11.3522
▁XI	-11.3522
▁pèrdues	-11.3524
lus	-11.3524
ònia	-11.3524
▁cerimònia	-11.3526
▁equipament	-11.3526
màtica	-11.3526
entrenador	-11.3527
▁ensenyaments	-11.3527
▁Mc	-11.3529
▁ferma	-11.353
eren	-11.3531
#	-11.3532
▁determina	-11.3532
><	-11.3533
front	-11.3534
▁immigrants	-11.3537
ast	-11.3539
▁aprofita	-11.3542
▁separar	-11.3542
▁unanimitat	-11.355
▁engany	-11.3551
estudiants	-11.3551
▁escapar	-11.3552
▁Nota	-11.3554
intervenció	-11.3554
rera	-11.3555
Can	-11.3556
▁resol	-11.3559
▁transparent	-11.3562
Mi	-11.3562
▁interacció	-11.3564
INA	-11.3564
▁estratègica	-11.3567
▁botó	-11.3567
▁densitat	-11.3568
▁indicadors	-11.3568
▁sortint	-11.3569
▁limitar	-11.3569
▁representacions	-11.3569
tero	-11.3569
▁taxi	-11.3571
Estació	-11.3573
animal	-11.3574
ward	-11.3576
zu	-11.3576
vall	-11.3577
▁dominant	-11.3578
cit	-11.358
▁tinent	-11.3582
▁arc	-11.3582
▁exemplar	-11.3584
▁carregat	-11.3585
▁guanyant	-11.3586
lectuals	-11.3586
▁brut	-11.3587
▁investigador	-11.3588
▁1980	-11.3588
у	-11.3588
NO	-11.3589
▁webs	-11.3589
pri	-11.359
Pr	-11.3591
tral	-11.3591
près	-11.3592
▁alcaldes	-11.3593
▁volums	-11.3595
oi	-11.3595
table	-11.3597
▁AL	-11.3597
▁tomàquet	-11.3597
esmorzar	-11.3597
▁anomenats	-11.3598
▁rastre	-11.3599
▁pollastre	-11.36
ço	-11.3601
▁Mariano	-11.3601
▁Rubí	-11.3606
Ordre	-11.3606
▁Lletres	-11.3606
▁Organitza	-11.3606
▁Esquerra	-11.3608
Amposta	-11.3608
▁coherent	-11.3611
▁fibra	-11.3612
▁Mes	-11.3613
Em	-11.3614
▁Sra	-11.3618
▁ocupació	-11.3619
▁positivament	-11.362
ks	-11.3621
▁agraït	-11.3622
▁reflecteix	-11.3623
▁City	-11.3624
▁Memòria	-11.3626
▁30%	-11.3626
tació	-11.3631
▁tèxtil	-11.3631
▁Restaurant	-11.3632
▁valora	-11.3632
▁recuperat	-11.3632
▁gerent	-11.3632
estableixen	-11.3632
▁traduir	-11.3636
▁Dalí	-11.3636
▁voluntària	-11.3641
▁cuinar	-11.3642
àn	-11.3644
▁elèctrics	-11.3649
oC	-11.3651
▁programat	-11.3651
▁nomenament	-11.3651
ye	-11.3652
▁limitacions	-11.3654
professionalitat	-11.3656
queta	-11.3657
▁inclús	-11.3658
idor	-11.366
▁Para	-11.3661
Aro	-11.3661
▁Conveni	-11.3662
▁Coordinadora	-11.3663
expedició	-11.3663
▁inspirat	-11.3665
▁estudia	-11.3665
▁Pl	-11.3673
▁encert	-11.3675
▁PR	-11.3678
▁préstec	-11.3679
▁avançada	-11.368
▁negatiu	-11.368
EE	-11.368
▁digne	-11.3682
▁Messi	-11.3682
▁mana	-11.3682
▁perspectives	-11.3683
▁Bay	-11.3685
fora	-11.3686
▁felicitar	-11.3691
▁festiu	-11.3691
▁desfer	-11.3692
▁cobert	-11.3693
▁acceptat	-11.3693
▁constitueixen	-11.3694
▁interiors	-11.3695
advocat	-11.3695
gal	-11.3695
ago	-11.3697
lelament	-11.3702
▁convencional	-11.3703
▁ordinadors	-11.3704
▁habita	-11.3706
▁repeteix	-11.3707
â	-11.3707
▁acollit	-11.3714
atrevi	-11.3716
▁domina	-11.3718
aplicar	-11.3723
▁Respecte	-11.3723
▁balls	-11.3724
original	-11.3724
inclo	-11.3724
enta	-11.3725
▁mentida	-11.3726
▁petroli	-11.3728
viu	-11.3729
▁gaudi	-11.3729
▁personalitzada	-11.373
metre	-11.3733
▁defensat	-11.3733
▁Casas	-11.3733
▁lluites	-11.3736
▁disminució	-11.3737
mica	-11.3738
day	-11.374
▁informàtica	-11.3742
LO	-11.3744
▁nul	-11.3745
▁perdent	-11.3746
▁directiva	-11.3748
▁critica	-11.3751
auditori	-11.3753
▁justifica	-11.3758
cuit	-11.376
▁motors	-11.3761
ordena	-11.3762
▁negociar	-11.3764
▁Esp	-11.3765
ceta	-11.3765
▁èxits	-11.3767
▁líquid	-11.3768
▁desplegament	-11.3773
▁concursos	-11.3774
▁Fort	-11.3777
▁autònoms	-11.3777
©	-11.3778
ult	-11.3783
internet	-11.3785
▁Circ	-11.3785
bí	-11.3786
ties	-11.3786
▁Formentera	-11.3787
▁Bol	-11.3787
▁adequades	-11.3788
TIC	-11.3788
SS	-11.3789
▁afavoreix	-11.379
rie	-11.3791
ds	-11.3791
▁concentra	-11.3792
orquestra	-11.3793
▁convent	-11.3793
itàries	-11.3794
▁sorpreses	-11.3801
▁episodis	-11.3801
Afers	-11.3803
▁Pastor	-11.3804
escalada	-11.3805
▁realitzaran	-11.3806
bella	-11.3807
oportunitats	-11.3807
▁Acció	-11.3808
▁uneix	-11.3808
▁exposa	-11.3808
▁2010,	-11.3809
llenc	-11.381
▁estalviar	-11.3814
ys	-11.3814
▁gaudint	-11.3815
▁Palamós	-11.3819
▁desenes	-11.382
enviar	-11.3822
▁obvi	-11.3823
cula	-11.3824
▁pagès	-11.3826
▁radi	-11.3826
▁Gre	-11.3828
▁vegetals	-11.3829
cam	-11.3833
▁Ramón	-11.3835
▁peticions	-11.384
ruc	-11.3844
▁capità	-11.3847
▁Pri	-11.3848
▁faré	-11.3848
hidrat	-11.3849
▁integrants	-11.385
▁Fuster	-11.3852
nyes	-11.3854
▁fang	-11.3858
▁Cant	-11.3859
▁desitjos	-11.3863
▁extens	-11.3863
encontre	-11.3864
▁consellers	-11.3868
▁obligar	-11.3869
horitzó	-11.3869
▁invent	-11.3869
▁saludables	-11.3871
▁Secretaria	-11.3872
ITAT	-11.3874
▁neuro	-11.3875
▁elevada	-11.3878
BR	-11.3879
▁guàrdia	-11.3883
▁recorden	-11.3884
tas	-11.3885
▁publicades	-11.3885
▁mescla	-11.3886
sal	-11.3889
Cal	-11.3889
dd	-11.389
▁apunt	-11.389
▁Pesca	-11.3891
▁aplicat	-11.3891
prem	-11.3893
▁Penya	-11.3894
▁ocupat	-11.3896
▁Forma	-11.3899
lon	-11.3899
pari	-11.3899
comercialització	-11.3903
▁Arc	-11.3904
▁seguirà	-11.3906
▁crescut	-11.3906
▁Por	-11.3907
escut	-11.3908
▁vuitanta	-11.3911
▁Carta	-11.3913
▁paquet	-11.3913
AMB	-11.3913
▁aliment	-11.3914
▁infra	-11.3914
olor	-11.3914
▁lligat	-11.3916
▁medicaments	-11.3916
▁esqui	-11.3916
▁adaptació	-11.3918
emprenedoria	-11.3919
▁olor	-11.3919
▁lliurement	-11.3921
empara	-11.3921
▁actor	-11.3923
▁competent	-11.3924
▁príncep	-11.3925
▁governar	-11.3925
▁disposats	-11.3926
gh	-11.3927
què	-11.3928
▁pertanyen	-11.393
cart	-11.3932
▁úniques	-11.3934
▁62	-11.3934
né	-11.3938
▁berenar	-11.3939
▁trastorns	-11.394
rats	-11.3941
▁Garraf	-11.3941
▁volar	-11.3941
▁casament	-11.3944
▁identificat	-11.3946
ung	-11.3948
▁atletes	-11.3948
amp	-11.3948
▁amagar	-11.3949
▁po	-11.3949
▁Espero	-11.395
▁mode	-11.3951
element	-11.3951
Orient	-11.3953
bria	-11.3954
nca	-11.3954
òlegs	-11.3954
▁forestals	-11.3956
▁terror	-11.396
▁sonora	-11.396
▁presta	-11.396
▁dita	-11.3961
▁Rock	-11.3963
gam	-11.3963
▁Natura	-11.3965
allarga	-11.3966
laborador	-11.3966
▁2009,	-11.3967
▁acabarà	-11.3967
▁externa	-11.397
▁puntuació	-11.3972
▁978	-11.3975
▁científiques	-11.3976
▁intervenir	-11.3977
▁beca	-11.3979
▁Vull	-11.3983
▁tribunals	-11.3983
landès	-11.3984
▁CF	-11.3985
dera	-11.3986
▁Fan	-11.3987
▁Olot	-11.3989
▁dibuixar	-11.3989
▁automàticament	-11.399
▁màgic	-11.3991
▁Alfons	-11.3991
▁Celler	-11.3992
lusions	-11.3993
▁cort	-11.3995
ider	-11.3996
aconsegueix	-11.3996
ky	-11.3997
▁Sostenibilitat	-11.3999
▁tronc	-11.4
▁Calella	-11.4003
esclat	-11.4004
pica	-11.4005
forma	-11.4007
▁massiva	-11.4009
encial	-11.401
▁carril	-11.4011
▁representat	-11.4011
▁combinat	-11.4012
▁reservar	-11.4012
qués	-11.4012
eina	-11.4014
▁liderat	-11.4014
▁aplicable	-11.4018
ui	-11.4018
▁pujat	-11.4019
ndi	-11.4019
▁1989	-11.4019
▁romànic	-11.4023
rib	-11.4024
▁assignatures	-11.4026
▁Fil	-11.4027
▁Professor	-11.4028
▁subtil	-11.4029
ajust	-11.4029
▁fra	-11.4031
ente	-11.4034
▁alimentació	-11.4035
▁Ram	-11.4037
▁ecològics	-11.4038
UP	-11.4038
apartament	-11.4042
cop	-11.4043
▁marítim	-11.4043
▁Públiques	-11.4043
▁Blanc	-11.4044
enci	-11.4046
▁militants	-11.4048
tit	-11.4048
▁Innovació	-11.4048
▁mesurar	-11.4049
▁Baixa	-11.4051
▁verbal	-11.4051
н	-11.4052
accedeix	-11.4052
nces	-11.4053
▁Model	-11.4054
▁vapor	-11.4055
laboracions	-11.4063
MB	-11.4063
llan	-11.4065
▁Je	-11.407
▁plan	-11.4072
▁senyors	-11.4073
▁Santi	-11.4074
flor	-11.4074
▁immigració	-11.4075
▁inoblidable	-11.4076
emoció	-11.4079
▁eix	-11.408
lament	-11.4085
▁inicia	-11.4086
▁rebutja	-11.4088
▁rellevància	-11.4088
LS	-11.4088
▁magatzem	-11.4088
▁trencat	-11.4089
▁Circuit	-11.409
nov	-11.4093
▁fòrum	-11.4093
▁Vicente	-11.4095
▁regidoria	-11.4097
tologia	-11.4097
▁començà	-11.41
▁Bot	-11.4101
▁immensa	-11.4103
▁Roser	-11.4104
▁Centres	-11.4106
▁operació	-11.4106
▁acordar	-11.4108
▁vestir	-11.4109
▁Control	-11.411
uta	-11.4111
▁empleats	-11.4113
▁formativa	-11.4114
▁Cooperativa	-11.4114
▁Pensa	-11.4117
▁disputat	-11.4117
reny	-11.4117
▁lògic	-11.4123
▁Tecnologia	-11.4123
[6]	-11.4126
enyor	-11.4127
llet	-11.4127
▁feminista	-11.4128
▁Sílvia	-11.413
▁tabac	-11.4135
liques	-11.4136
▁juntes	-11.4137
ològiques	-11.4138
▁inquietuds	-11.414
fr	-11.4143
nger	-11.4144
▁mediació	-11.4144
especial	-11.4144
arre	-11.4144
▁reclamació	-11.4146
adolescència	-11.4147
úria	-11.4148
▁ficar	-11.4148
▁hiper	-11.4149
▁empat	-11.4152
ocupa	-11.4152
▁interpreta	-11.4153
EI	-11.4155
▁extensa	-11.4156
▁votat	-11.4157
Edat	-11.4157
▁Igualment	-11.4158
▁contenidors	-11.4158
▁enfrontar	-11.4159
▁qüestiona	-11.4159
▁fonamenta	-11.4167
▁Moll	-11.4169
▁promet	-11.4173
▁horitzontal	-11.4173
graf	-11.4176
▁poblat	-11.4178
▁torres	-11.4179
▁votants	-11.4181
adopció	-11.4185
800	-11.4185
només	-11.4188
▁certificació	-11.4189
vies	-11.4193
cti	-11.4194
embaràs	-11.4195
ològic	-11.4195
▁rap	-11.4195
▁you	-11.4195
▁destruir	-11.4196
▁Cuba	-11.4199
▁naix	-11.4199
▁destacades	-11.4202
càr	-11.4202
в	-11.4206
logia	-11.4206
▁fundada	-11.4206
▁Montjuïc	-11.4208
icia	-11.4209
▁Corona	-11.4209
▁necessàriament	-11.4213
▁proposen	-11.4216
▁exteriors	-11.4216
▁Seguint	-11.4218
▁corriol	-11.422
igne	-11.422
▁tingués	-11.4221
▁adreçada	-11.4221
▁cria	-11.4221
▁dòlars	-11.4222
Empreses	-11.4223
▁Eduard	-11.4224
▁contestar	-11.4224
▁terminal	-11.4227
▁Pic	-11.4229
▁mitjan	-11.4229
▁conver	-11.423
▁formatives	-11.423
▁Meritxell	-11.423
químic	-11.423
▁nocturn	-11.4231
▁teixits	-11.4232
▁llicències	-11.4235
▁independentment	-11.4236
▁banca	-11.4237
▁tras	-11.4238
▁Junqueras	-11.424
teria	-11.4241
▁Preu	-11.4245
▁barceloní	-11.4247
uch	-11.4247
▁branques	-11.4249
INS	-11.4251
▁Econòmica	-11.4251
▁indi	-11.4252
▁religioses	-11.4254
▁medalla	-11.4256
▁convèncer	-11.4259
ive	-11.4259
▁Hitler	-11.4261
▁perfecció	-11.4261
▁tones	-11.4262
estic	-11.4262
×	-11.4263
▁remarcar	-11.4264
▁historia	-11.4264
▁detecció	-11.4264
executiu	-11.4269
▁deixava	-11.4269
embo	-11.4269
netes	-11.4269
expresident	-11.4272
▁Caldes	-11.4273
▁Big	-11.4273
▁localitzar	-11.4274
Ad	-11.4275
▁excursions	-11.4275
▁cabells	-11.4276
▁Fill	-11.4276
___	-11.4276
▁agrícoles	-11.4278
▁far	-11.4278
▁Ángel	-11.4278
▁2007,	-11.4281
GI	-11.4282
▁revela	-11.4283
▁más	-11.4283
roja	-11.4284
estra	-11.4285
▁recomano	-11.4285
▁Blog	-11.4287
▁Anem	-11.4287
tisme	-11.4287
dat	-11.4288
To	-11.4289
▁anualment	-11.429
▁estació	-11.429
haurien	-11.429
alba	-11.4291
Alta	-11.4292
As	-11.4293
▁got	-11.4293
ònic	-11.4293
▁prima	-11.4296
▁netejar	-11.4298
Enginyeria	-11.4299
▁judicials	-11.4302
ev	-11.4302
normal	-11.4303
Quan	-11.4304
▁hospital	-11.4304
▁passatgers	-11.4306
▁Ignasi	-11.4314
GE	-11.4314
xic	-11.4317
▁recollides	-11.4319
▁castellana	-11.432
pac	-11.4321
▁dobles	-11.4321
▁bombers	-11.4324
▁republicà	-11.4326
▁localitats	-11.4326
▁pins	-11.4328
▁donada	-11.4328
▁explicava	-11.4328
▁Jose	-11.4332
▁Jazz	-11.4333
▁afegint	-11.4333
eixo	-11.4333
dència	-11.4334
▁àrab	-11.4336
▁ideals	-11.4337
▁compleixen	-11.4338
pla	-11.4341
▁700	-11.4342
▁modifica	-11.4343
▁prenent	-11.4346
▁previsions	-11.4348
▁rostre	-11.4348
▁bomba	-11.435
▁entrenador	-11.4352
ante	-11.4353
▁altament	-11.4354
cies	-11.4355
▁sobra	-11.4355
▁ciclistes	-11.4355
▁mòdul	-11.4355
atemptat	-11.4355
▁gràfics	-11.4356
▁condemnat	-11.4357
allotja	-11.4358
▁encant	-11.4359
▁policies	-11.436
▁amigues	-11.436
EA	-11.4361
exhibició	-11.4366
▁Au	-11.4367
▁previstos	-11.4368
ní	-11.4374
▁regional	-11.4374
ARA	-11.4374
ismes	-11.4374
▁esglésies	-11.4375
▁executar	-11.4375
▁deixarà	-11.4377
ovi	-11.4378
▁directius	-11.4378
▁significatiu	-11.4378
RE	-11.4379
▁hospitals	-11.438
informa	-11.438
pò	-11.4381
posicions	-11.4381
alumini	-11.4381
▁ferides	-11.4381
nà	-11.4382
▁atorgat	-11.4384
▁privilegi	-11.4384
atzar	-11.4385
mobil	-11.4388
▁previs	-11.4388
sexual	-11.4388
▁alegre	-11.4389
▁autorització	-11.4393
▁males	-11.4394
▁aprenentatge	-11.4394
▁argument	-11.4394
▁fusió	-11.4394
▁itinerari	-11.4394
▁Israel	-11.4395
▁treballadora	-11.44
CT	-11.4408
▁jutges	-11.4409
▁federal	-11.441
▁ensenya	-11.4411
▁butxaca	-11.4411
Ju	-11.4411
social	-11.4413
▁autònomes	-11.4413
▁casualitat	-11.4415
▁trobes	-11.4415
▁conclou	-11.4418
▁parlamentari	-11.4423
▁organisme	-11.4423
▁pintat	-11.4425
▁canta	-11.4425
▁íntim	-11.4426
lió	-11.4427
▁salva	-11.4427
▁Tipus	-11.4433
▁abandonat	-11.4434
interés	-11.4436
trin	-11.4436
gos	-11.444
▁Palafrugell	-11.444
sible	-11.4441
ENT	-11.4441
▁parteix	-11.4442
▁dividit	-11.4445
lògic	-11.4447
▁excursió	-11.4449
rau	-11.4451
▁Exposició	-11.4452
▁fires	-11.4452
II	-11.4453
experiències	-11.4453
▁sentia	-11.4454
▁Mitjançant	-11.4457
▁crítics	-11.4458
}	-11.4459
extinció	-11.4459
espa	-11.446
flex	-11.4462
▁asseguren	-11.4462
▁banys	-11.4463
▁funcionari	-11.4465
FO	-11.4465
▁plantejament	-11.4468
▁Tercer	-11.4469
▁Joc	-11.4469
guet	-11.4471
▁comparar	-11.4474
▁Sostenible	-11.4474
▁eco	-11.4475
MS	-11.4475
arri	-11.4477
▁actives	-11.4478
▁Independència	-11.448
▁Ponent	-11.4481
▁aparegut	-11.4484
▁equivalent	-11.4484
estava	-11.4485
sto	-11.4485
▁desigualtats	-11.4488
▁1984	-11.4489
▁Coma	-11.449
improvisa	-11.4495
▁fixat	-11.4498
▁cadires	-11.4503
▁1978	-11.4503
bona	-11.4503
▁posava	-11.4504
estre	-11.4504
▁dolent	-11.4506
▁cub	-11.4506
ònim	-11.4507
▁companya	-11.4508
llera	-11.4509
▁FA	-11.4511
▁destinar	-11.4512
▁Sagrada	-11.4515
▁disfrutar	-11.4516
▁mobilitzacions	-11.4519
▁Segarra	-11.4523
spi	-11.4524
▁visuals	-11.4524
intent	-11.4525
▁policials	-11.4527
eros	-11.4529
▁autonomia	-11.4529
mara	-11.4533
▁Torna	-11.4535
eixes	-11.4537
▁Rec	-11.4537
▁digna	-11.4537
▁Polítiques	-11.4538
▁operatiu	-11.4538
▁mínims	-11.4538
▁monumental	-11.454
▁tractats	-11.4543
trans	-11.4543
guard	-11.4543
▁utilitzades	-11.4544
▁Reserva	-11.4547
▁prim	-11.4549
▁Revolució	-11.455
▁Canadà	-11.455
▁impedeix	-11.455
rot	-11.4552
▁Seminari	-11.4552
▁sisè	-11.4553
▁Monte	-11.4557
▁suposo	-11.4559
▁convi	-11.4559
Urbanisme	-11.456
▁innovador	-11.4564
▁claustre	-11.4565
utx	-11.4565
▁Sin	-11.4565
▁Alhora	-11.4568
OB	-11.4572
▁Cardona	-11.4573
▁rebuda	-11.4575
▁turó	-11.4575
▁Sha	-11.4575
▁Km	-11.4576
▁contribució	-11.4577
▁calenta	-11.4578
escoltar	-11.4578
▁greix	-11.4579
integració	-11.458
▁gravat	-11.4581
rena	-11.4583
ich	-11.4584
dies	-11.4584
PC	-11.4585
▁mediambiental	-11.4586
extrema	-11.4586
▁Massa	-11.4587
▁convenis	-11.4588
nec	-11.4591
americans	-11.4592
vila	-11.4593
▁encarregar	-11.4594
▁Open	-11.4596
▁travessar	-11.4596
▁Filosofia	-11.4597
▁estàvem	-11.4598
▁irregular	-11.4598
yn	-11.4599
▁monuments	-11.4601
ope	-11.4602
▁Ells	-11.4603
▁alerta	-11.4604
▁traduït	-11.4604
▁Basc	-11.4604
▁Solsona	-11.4607
▁reb	-11.4613
▁mecànica	-11.4614
▁sino	-11.4616
▁hectàrees	-11.4619
▁Psicologia	-11.4619
▁tingué	-11.4619
▁geogràfica	-11.4619
▁emblemàtics	-11.4621
▁UNESCO	-11.4622
▁investigacions	-11.4623
Sa	-11.4625
▁46	-11.4626
Inter	-11.463
▁pagat	-11.463
etat	-11.4631
inde	-11.4632
itis	-11.4632
urbanisme	-11.4633
▁barreres	-11.4634
òniques	-11.4636
▁gastronòmica	-11.4637
▁PDF	-11.4637
▁fidels	-11.4638
mol	-11.4638
onades	-11.464
amic	-11.464
▁psicologia	-11.4642
locat	-11.4644
ría	-11.4646
olí	-11.4648
lics	-11.4648
ik	-11.4651
▁salvatge	-11.4651
▁Vilar	-11.4651
▁voluntari	-11.4655
▁titulació	-11.4656
п	-11.4658
▁compl	-11.4658
▁Arnau	-11.466
▁investigar	-11.466
▁simbòlic	-11.4661
exist	-11.4663
▁textura	-11.4664
obtenir	-11.4665
▁desapareix	-11.4666
▁Rivera	-11.4666
▁DNI	-11.4667
ami	-11.4668
▁Mini	-11.467
ski	-11.467
▁conserven	-11.4671
▁fàcils	-11.4672
EX	-11.4672
▁dedicats	-11.4672
passa	-11.4672
▁invertir	-11.4676
▁gèneres	-11.4678
▁Secundària	-11.4679
▁adscrit	-11.4679
▁nuclear	-11.468
angle	-11.4681
▁enquestes	-11.4682
▁Cri	-11.4684
▁tracten	-11.4685
▁Ban	-11.4687
FC	-11.4687
▁respectius	-11.469
▁guardó	-11.4691
▁sumat	-11.4691
▁recital	-11.4692
▁conceptual	-11.4694
▁Castellers	-11.4694
carrega	-11.4695
▁amaga	-11.4695
▁estàndard	-11.4696
litzar	-11.4698
agulla	-11.47
▁donaran	-11.4701
isca	-11.4701
ultim	-11.4701
▁Music	-11.4702
▁Viu	-11.4703
▁Manlleu	-11.4704
▁accidents	-11.4705
▁desplaçament	-11.4706
▁Ribes	-11.4707
▁érem	-11.4709
lectives	-11.4709
▁goig	-11.4709
▁assemblea	-11.4714
QUE	-11.4715
▁Fes	-11.4716
▁flamenc	-11.4716
INE	-11.4717
▁exposat	-11.4717
▁Ciutadana	-11.4719
▁concedir	-11.4719
▁xinès	-11.4719
▁físics	-11.472
▁lligada	-11.4721
▁Novembre	-11.4724
▁Windows	-11.4724
incendi	-11.4727
▁candidatures	-11.4727
ل	-11.4729
▁Març	-11.4732
▁ubicada	-11.4732
nò	-11.4733
lega	-11.4734
adequació	-11.4735
hores	-11.4736
▁màgica	-11.4737
▁conductes	-11.4737
iniciar	-11.4737
gmail	-11.4741
▁navegant	-11.4743
▁Prop	-11.4743
▁47	-11.4747
ducció	-11.4749
▁acusa	-11.4749
oblit	-11.4749
rá	-11.475
ició	-11.4751
▁arribava	-11.4752
seguretat	-11.4753
▁buida	-11.4755
▁roure	-11.4756
▁entrant	-11.4757
work	-11.4758
ícies	-11.4758
Fa	-11.4761
▁descansar	-11.4763
▁dediquen	-11.4764
▁funcionen	-11.4765
▁satèl	-11.4766
▁1970	-11.4767
▁pilar	-11.4768
▁James	-11.4769
▁confirmació	-11.4769
exigència	-11.4769
▁jugada	-11.4771
▁Passa	-11.4771
bó	-11.4771
▁commemorar	-11.4771
SO	-11.4772
▁Beni	-11.4772
▁guiades	-11.4774
▁coordinar	-11.4774
abandon	-11.4774
▁centrada	-11.4775
▁Mario	-11.4775
▁desena	-11.4775
▁dents	-11.4777
▁Gremi	-11.4779
hauran	-11.4781
▁ferm	-11.4781
AG	-11.4784
▁encàrrec	-11.4784
elecomunicacions	-11.4787
▁continuem	-11.4789
AI	-11.479
enfrontament	-11.4792
▁fotogràfica	-11.4793
TRA	-11.4794
escacs	-11.4796
▁prestar	-11.4797
▁didàctica	-11.4797
▁típica	-11.4799
▁especialitats	-11.4799
▁contribu	-11.48
▁cinta	-11.48
▁lesió	-11.4802
intel	-11.4803
▁consumir	-11.4804
Ho	-11.4804
▁estant	-11.4806
▁ras	-11.4806
Energia	-11.4807
▁concloure	-11.4808
▁branca	-11.4809
sky	-11.4811
▁Berguedà	-11.4813
ofereixen	-11.4814
itzador	-11.4814
quets	-11.4815
▁acordat	-11.4815
▁arrenca	-11.482
▁executiu	-11.4822
espècies	-11.4822
Ú	-11.4827
uro	-11.4828
escrit	-11.4832
Eixample	-11.4835
▁profit	-11.4835
He	-11.4837
▁finalistes	-11.4838
▁síntesi	-11.484
ances	-11.4841
instrument	-11.4844
ped	-11.4844
▁columnes	-11.4845
▁ver	-11.4846
▁propaganda	-11.4847
▁Llar	-11.485
inc	-11.4851
▁postura	-11.4852
▁1988	-11.4853
▁amenaces	-11.4853
▁positius	-11.4854
▁Polònia	-11.4855
▁gravetat	-11.4863
obren	-11.4864
▁Esportiva	-11.4864
fund	-11.4869
▁queixes	-11.4869
espècie	-11.487
▁beneficiar	-11.4872
▁teràpia	-11.4873
patia	-11.4875
eines	-11.4875
▁lleugera	-11.4875
rb	-11.4876
▁temporals	-11.4877
▁War	-11.4878
EF	-11.4878
▁plaques	-11.488
ELL	-11.4882
▁estrictament	-11.4883
itzacions	-11.4888
alcaldia	-11.4888
▁mite	-11.489
▁escoltat	-11.489
▁software	-11.489
▁Transport	-11.4891
▁Molina	-11.4893
▁aneu	-11.4893
esco	-11.4893
▁Banda	-11.4896
vegeu	-11.4897
articles	-11.4899
▁Monestir	-11.4901
▁injust	-11.4902
▁mals	-11.4906
▁distinció	-11.4906
firm	-11.4906
▁avantatge	-11.4908
nés	-11.4908
▁poètic	-11.4912
▁Ambiental	-11.4914
▁terminis	-11.4915
bau	-11.4915
▁rica	-11.4916
▁more	-11.4916
nell	-11.4917
audi	-11.4922
▁80%	-11.4925
aguanta	-11.4927
▁comunitari	-11.4929
▁ulleres	-11.4929
▁puguen	-11.493
present	-11.4932
lab	-11.4932
▁Sur	-11.4934
▁Llibres	-11.4935
orella	-11.4936
2004	-11.4936
▁signe	-11.4936
Bo	-11.4936
▁religiosos	-11.4936
ping	-11.4937
▁sòlid	-11.4937
▁agrupa	-11.4937
▁Urban	-11.4937
▁espacial	-11.4939
▁Fri	-11.4941
▁mos	-11.4942
book	-11.4944
apropa	-11.4946
▁capçalera	-11.4947
marca	-11.4947
▁cobra	-11.4947
pis	-11.4948
▁Projectes	-11.4949
¿	-11.4949
▁Concretament	-11.4952
▁expressat	-11.4953
▁joia	-11.4954
▁Maó	-11.4954
▁sensor	-11.4955
▁adult	-11.4957
▁diputada	-11.4957
▁discursos	-11.4957
pp	-11.4959
Su	-11.4959
▁Hospital	-11.4959
▁cellers	-11.4962
▁fortalesa	-11.4962
porta	-11.4963
▁Castelldefels	-11.4965
▁millorant	-11.4965
horta	-11.4966
▁Roda	-11.4966
▁Segre	-11.4969
▁consistent	-11.497
avantatge	-11.497
oy	-11.497
▁acadèmics	-11.4971
▁produccions	-11.4973
▁necessites	-11.4977
▁geografia	-11.4978
▁Ningú	-11.4979
estampa	-11.4979
▁reivindicacions	-11.4979
▁sabates	-11.498
▁1979	-11.4981
mini	-11.4981
lida	-11.4982
▁entrenaments	-11.4982
▁Fla	-11.4984
▁reproduir	-11.4988
▁verb	-11.4991
▁Dalt	-11.4991
▁convocatòries	-11.4993
letes	-11.4995
▁proclamar	-11.5002
onze	-11.5006
cept	-11.5006
▁tecnològics	-11.5008
▁freqüents	-11.5014
▁verge	-11.5018
▁situades	-11.5018
▁implementació	-11.5019
▁artístics	-11.5025
▁Cuina	-11.5025
▁dinamització	-11.5025
▁magnitud	-11.5026
▁instància	-11.5026
▁recullen	-11.5027
▁gastronòmic	-11.5031
▁productor	-11.5031
▁Disposa	-11.5038
▁rectangular	-11.5044
▁Fal	-11.5047
▁variable	-11.5048
▁obtinguts	-11.505
▁Moreno	-11.5051
harmonia	-11.5051
▁rebutjar	-11.5051
quí	-11.5052
tats	-11.5052
▁SEO	-11.5052
▁ideologia	-11.5053
ingressos	-11.5054
▁Pavelló	-11.5055
▁corregir	-11.5055
▁segment	-11.5056
▁succeir	-11.5056
▁evidència	-11.5057
▁FE	-11.5057
▁descomptes	-11.5057
▁Declaració	-11.5057
▁variant	-11.5058
▁qu	-11.5058
enquesta	-11.5058
▁festius	-11.5059
▁energies	-11.506
▁Evidentment	-11.506
▁aparentment	-11.5062
examin	-11.5064
▁lleuger	-11.5066
▁projecta	-11.5066
▁metall	-11.5066
nte	-11.5067
voca	-11.5067
▁conéixer	-11.5068
▁tela	-11.5068
▁conservat	-11.5069
eixida	-11.5072
▁pretenen	-11.5076
▁projectar	-11.5077
▁1987	-11.5077
excusa	-11.5078
tria	-11.5078
▁Recordeu	-11.5078
ibles	-11.5082
yer	-11.5082
▁Equip	-11.5082
▁elèctriques	-11.5083
▁obligació	-11.5088
▁puntual	-11.5089
ença	-11.5089
▁coherència	-11.509
▁cridat	-11.5091
catalan	-11.5091
▁subjectes	-11.5091
▁desastre	-11.5092
▁fenòmens	-11.5092
▁VII	-11.5092
▁terrorisme	-11.5093
▁indiquen	-11.5094
▁comissari	-11.5094
▁federació	-11.5096
▁fites	-11.5099
▁reuni	-11.5099
▁financeres	-11.5101
▁trentena	-11.5102
▁puga	-11.5102
▁blogs	-11.5105
▁haguessin	-11.5107
▁recomanar	-11.5108
▁Districte	-11.5109
▁Pascual	-11.5109
▁dependències	-11.5109
▁estranya	-11.511
▁Sector	-11.5112
▁Narcís	-11.5112
agressió	-11.5112
lid	-11.5114
▁Tècnic	-11.5115
▁instrumental	-11.5118
▁aclarir	-11.5119
▁diccionari	-11.5119
▁turc	-11.512
feg	-11.5122
edita	-11.5123
▁buits	-11.5124
▁literaris	-11.5125
▁muscular	-11.5127
ners	-11.5127
esos	-11.5129
▁ampla	-11.5129
uï	-11.5129
▁Joana	-11.513
UL	-11.5131
▁dissenys	-11.5134
▁patrons	-11.5135
▁expressions	-11.5136
▁Compta	-11.5138
assi	-11.5139
ADN	-11.514
▁ordinari	-11.5141
▁balear	-11.5141
▁proporció	-11.5143
nunci	-11.5146
▁descrit	-11.5146
▁Capella	-11.5148
▁sortirà	-11.5148
cet	-11.5149
▁Solidaritat	-11.5149
▁basc	-11.5149
▁preferències	-11.5149
▁fila	-11.515
patri	-11.5151
▁surti	-11.5151
▁ratolí	-11.5151
psi	-11.5152
▁íntegrament	-11.5153
nacional	-11.5154
ístiques	-11.5161
altitud	-11.5161
▁documentals	-11.5162
àtiques	-11.5164
ram	-11.5166
▁filòsof	-11.5166
▁minerals	-11.5166
▁debò	-11.5167
▁Lluna	-11.5167
PD	-11.5169
AF	-11.5169
▁prioritats	-11.517
▁anuncis	-11.5171
amaga	-11.5172
▁bur	-11.5172
▁envoltat	-11.5172
responsabilitats	-11.5172
got	-11.5173
▁neta	-11.5175
▁cognoms	-11.5175
encaix	-11.5177
▁Seguim	-11.5181
▁trastorn	-11.5182
▁estrena	-11.5182
▁implicar	-11.5183
▁BCN	-11.5184
▁esp	-11.5185
entreteniment	-11.5185
ssar	-11.5188
▁puguis	-11.5188
▁procedir	-11.5189
allibera	-11.5189
▁degudament	-11.5191
▁interpretat	-11.5192
missions	-11.5192
▁passades	-11.5192
▁converteixen	-11.5192
▁desgràcia	-11.5193
HO	-11.5197
▁jaciment	-11.5198
Univers	-11.5198
angoixa	-11.5198
▁Consta	-11.5199
▁Laia	-11.5201
alter	-11.5202
autopista	-11.5204
▁admet	-11.5204
eficàcia	-11.5204
ice	-11.5205
▁romànica	-11.5207
▁vegetal	-11.5208
egi	-11.5208
▁Barris	-11.5208
cres	-11.5209
▁Creus	-11.5209
▁Consulta	-11.521
▁compara	-11.5212
conf	-11.5212
▁Àngels	-11.5213
▁obligats	-11.5213
▁Convergència	-11.5214
▁fonaments	-11.5218
habilitat	-11.5219
▁meravella	-11.5219
▁Verdaguer	-11.5222
▁pautes	-11.5227
cari	-11.5228
Le	-11.5229
▁Moviment	-11.5229
indi	-11.523
▁derivades	-11.5231
▁facultat	-11.5231
▁Insular	-11.5233
▁Tim	-11.5233
▁Belles	-11.5235
▁visualitzar	-11.5236
immoble	-11.5236
▁Bast	-11.5236
▁Plan	-11.5237
▁sacrifici	-11.5238
▁Mesa	-11.5239
Li	-11.5239
▁moderns	-11.5239
isses	-11.524
▁exclusiu	-11.524
acompanya	-11.5242
▁cabal	-11.5242
▁diversa	-11.5243
▁1985	-11.5243
▁urbanístic	-11.5243
▁Vols	-11.5243
▁ràbia	-11.5243
ance	-11.5246
herba	-11.5249
▁dividir	-11.525
▁compromès	-11.5251
▁atacar	-11.5251
▁indicacions	-11.5253
ient	-11.5253
▁distingir	-11.5259
Escala	-11.526
ave	-11.526
▁fascinant	-11.5262
▁baixant	-11.5262
missió	-11.5264
aixeca	-11.5265
cosa	-11.5265
▁Olímpics	-11.5267
▁Càritas	-11.5267
assist	-11.5268
box	-11.5269
▁divideix	-11.5269
▁distàncies	-11.527
▁acabats	-11.5271
▁reaccions	-11.5273
▁Clot	-11.5275
▁desperta	-11.5276
ern	-11.5278
▁gòtic	-11.5279
▁Diego	-11.5282
itari	-11.5282
▁avenços	-11.5283
▁òrgan	-11.5285
▁limitada	-11.5286
mel	-11.5287
▁idioma	-11.5287
▁explora	-11.5288
▁Suport	-11.529
▁sup	-11.529
▁inserció	-11.5291
atracció	-11.5291
▁Muñoz	-11.5293
▁grega	-11.5295
▁dotació	-11.5296
▁ample	-11.5296
▁Ripollès	-11.5297
▁Cursa	-11.5297
▁emetre	-11.53
▁pedagògica	-11.53
▁masculina	-11.5301
▁resident	-11.5302
▁reclamacions	-11.5303
▁Tercera	-11.5304
▁quedant	-11.5304
▁Fran	-11.5305
▁vinculada	-11.5308
pod	-11.5309
▁cobreix	-11.5316
èries	-11.5317
▁nadó	-11.5318
▁relaxar	-11.5323
▁viabilitat	-11.5326
▁familia	-11.5327
▁1000	-11.5328
quina	-11.5328
▁beguda	-11.5329
tendre	-11.5331
▁rebent	-11.5331
▁PIB	-11.5333
▁1986	-11.5333
▁limitació	-11.5335
▁Radio	-11.5335
posen	-11.5337
zz	-11.5338
▁efectius	-11.5338
▁coordinadora	-11.5339
▁mots	-11.5339
▁santa	-11.534
▁Igual	-11.534
▁ferits	-11.5343
intentar	-11.5344
emple	-11.5345
adona	-11.5346
▁gestionat	-11.5346
▁mercaderies	-11.5347
▁targetes	-11.5349
escau	-11.5352
▁Empresa	-11.5352
▁Juliol	-11.5354
ras	-11.5355
▁Balear	-11.5357
2005	-11.536
▁referir	-11.536
▁1977	-11.536
aprofitar	-11.5362
▁editorials	-11.5364
▁Trump	-11.5369
▁Saragossa	-11.5369
▁sonor	-11.537
▁fama	-11.5371
TT	-11.5372
▁obligades	-11.5373
▁agradi	-11.5374
▁Mos	-11.5375
▁traductor	-11.5375
▁planificar	-11.5376
adjudicació	-11.5376
Apple	-11.5377
▁Recorda	-11.5378
▁encarregats	-11.5379
▁Bonet	-11.538
▁recolza	-11.5381
avanç	-11.5384
▁renovables	-11.5385
▁seminari	-11.5385
ONG	-11.5386
Euro	-11.5386
sch	-11.5387
carre	-11.5387
implant	-11.5388
edificació	-11.5389
Oriol	-11.5394
▁adequats	-11.5394
▁dotat	-11.5395
▁Turquia	-11.5395
struc	-11.5395
▁franja	-11.5397
▁flota	-11.5399
▁comprat	-11.54
▁festivitat	-11.54
▁mont	-11.5402
mora	-11.5404
ibilitat	-11.5405
▁setmanal	-11.5406
▁detenció	-11.5406
▁Nobel	-11.5407
pira	-11.5407
▁elaborats	-11.5408
altar	-11.541
▁vulguis	-11.5413
indu	-11.5413
▁acabem	-11.5414
▁camina	-11.5415
▁2008,	-11.5418
▁complicada	-11.5422
▁gen	-11.5422
▁malestar	-11.5423
▁macro	-11.5424
▁classificar	-11.5424
▁resultant	-11.5426
▁imprescindibles	-11.5429
▁sumen	-11.543
▁seleccionats	-11.5431
▁protegida	-11.5435
▁verds	-11.5436
▁Companys	-11.5439
mari	-11.544
▁gratis	-11.544
▁creences	-11.5441
▁concretar	-11.5442
▁Orgànica	-11.5443
▁mostrant	-11.5443
▁Veu	-11.5444
So	-11.5444
▁veureu	-11.5446
▁enemics	-11.5448
▁tomba	-11.5449
▁Arxiu	-11.545
esplai	-11.545
Esp	-11.5452
▁quinzena	-11.5452
hí	-11.5453
hr	-11.5455
ils	-11.5456
▁càmping	-11.5456
▁biografia	-11.5458
▁ocupats	-11.5458
▁satisfet	-11.5459
▁1982	-11.5462
▁diàriament	-11.5464
estètica	-11.5464
▁Inclou	-11.5465
actuacions	-11.5467
▁Ol	-11.5467
▁realitats	-11.5467
▁52	-11.5469
▁Sigui	-11.5469
▁econòmicament	-11.547
▁titelles	-11.547
prés	-11.5473
▁reforç	-11.5474
▁pareix	-11.5476
▁determinant	-11.5479
ONU	-11.5479
▁circula	-11.5479
▁xiquetes	-11.548
Me	-11.5481
▁mides	-11.5483
▁biodiversitat	-11.5483
▁trossos	-11.5487
▁Reg	-11.549
▁Nom	-11.5497
duir	-11.55
evolucion	-11.5503
hip	-11.5505
Hem	-11.5507
▁tretze	-11.5508
orde	-11.5508
▁Andrés	-11.551
▁CV	-11.5513
▁ridícul	-11.5513
▁Mun	-11.5513
▁Borges	-11.5514
▁Ch	-11.5517
▁informatius	-11.5517
▁esperança	-11.5518
àudio	-11.5519
▁Neus	-11.552
▁automàtic	-11.5521
grama	-11.5525
▁endins	-11.5525
▁itineraris	-11.5527
CL	-11.5527
▁penes	-11.5528
▁endinsar	-11.5529
assetjament	-11.5529
▁pensada	-11.5531
▁Sang	-11.5532
▁mantega	-11.5534
▁variables	-11.5535
▁Juny	-11.5535
▁avaluació	-11.5537
esports	-11.5539
▁ferrocarril	-11.554
agafar	-11.5543
aments	-11.5548
▁inaugural	-11.5548
▁mòduls	-11.5551
▁Veïns	-11.5551
▁protegit	-11.5552
▁verdes	-11.5553
fus	-11.5554
1,5	-11.5554
▁discos	-11.5554
urs	-11.5555
▁cassola	-11.5557
▁Regió	-11.5558
▁podr	-11.5558
▁roses	-11.5559
▁bla	-11.556
▁interns	-11.556
administra	-11.5561
▁Editorial	-11.5562
▁cuiner	-11.5566
▁experiment	-11.5567
▁salarial	-11.5568
tell	-11.5569
pren	-11.5571
▁actualitzat	-11.5571
▁Conseller	-11.5572
▁terç	-11.5572
▁processó	-11.5573
▁extret	-11.5575
▁liberal	-11.5576
▁Full	-11.5577
CV	-11.558
▁parer	-11.558
▁Dilluns	-11.5581
▁KB	-11.5583
▁vessants	-11.5583
▁Ag	-11.5584
iro	-11.5587
▁ordinària	-11.5587
▁suposen	-11.5587
lés	-11.5588
▁fonament	-11.5588
IE	-11.5588
ander	-11.5589
Ta	-11.5589
▁Provincial	-11.5589
miques	-11.5591
▁factures	-11.5592
▁Picasso	-11.5592
lim	-11.5593
red	-11.5595
▁patiment	-11.5596
▁innovadora	-11.5597
▁constants	-11.5599
▁parcialment	-11.5603
parent	-11.5603
òries	-11.5606
▁veïna	-11.5609
escultura	-11.5609
▁genètica	-11.561
▁Domènech	-11.5611
▁santuari	-11.5612
▁muralla	-11.5612
MP	-11.5613
▁Band	-11.5613
tum	-11.5614
▁poma	-11.5614
NI	-11.5614
▁americà	-11.5615
▁Milà	-11.5615
▁adquirit	-11.5617
locació	-11.562
▁URV	-11.562
objectes	-11.5621
▁associades	-11.5623
escultor	-11.5623
ejada	-11.5623
▁Conservatori	-11.5625
▁Star	-11.5626
nyà	-11.5626
ïm	-11.5628
▁persecució	-11.563
▁poso	-11.5631
▁àgil	-11.5631
itar	-11.5634
▁llibreries	-11.5635
aïllament	-11.5635
▁40%	-11.5638
mne	-11.5639
franqu	-11.5639
oll	-11.5641
▁ONG	-11.5642
fons	-11.5644
▁adoptat	-11.5645
posar	-11.5646
▁Bretanya	-11.5647
isc	-11.5648
ile	-11.5648
▁demanava	-11.5649
▁recte	-11.5649
imperi	-11.5651
cord	-11.5652
▁privilegiat	-11.5653
▁enviant	-11.5657
▁moll	-11.5657
uga	-11.566
liber	-11.566
▁vetllar	-11.5661
▁trobant	-11.5661
▁desigualtat	-11.5662
▁innovadores	-11.5663
vir	-11.5666
amenaça	-11.5668
▁Cara	-11.567
editor	-11.567
bur	-11.5673
▁dada	-11.5677
▁precarietat	-11.5677
▁simples	-11.5678
▁veieu	-11.5679
▁mític	-11.568
▁església	-11.5681
Arenys	-11.5681
▁Díaz	-11.5683
▁gall	-11.5683
ema	-11.5684
▁dedicades	-11.5684
▁08	-11.5685
Arquitectura	-11.5685
▁Esport	-11.5685
tend	-11.5687
▁sortia	-11.5687
articular	-11.5688
▁complexos	-11.5688
▁Card	-11.5688
abat	-11.5688
▁diàmetre	-11.5688
▁haureu	-11.5688
MC	-11.5691
▁vinculació	-11.5692
▁Principal	-11.5694
▁postal	-11.5696
▁Estan	-11.5696
▁agradaria	-11.5697
▁personalitats	-11.5699
▁Bisbal	-11.5699
tt	-11.5699
▁quotes	-11.57
estira	-11.57
iste	-11.5701
▁legítim	-11.5703
amplada	-11.5704
▁falten	-11.5706
▁Carnaval	-11.571
▁impulsada	-11.5711
▁participativa	-11.5712
lars	-11.5712
aprecia	-11.5713
▁afectada	-11.5713
▁Empresarial	-11.5713
▁discutir	-11.5713
▁gasos	-11.5713
▁acurada	-11.5714
fabrica	-11.5715
▁amplia	-11.5717
consell	-11.5717
bs	-11.5717
▁febles	-11.5717
▁Eulàlia	-11.5718
▁enfocament	-11.572
app	-11.572
▁creen	-11.572
iner	-11.5721
▁criatures	-11.5722
▁puntuals	-11.5724
▁escèniques	-11.5724
adaptar	-11.5726
rac	-11.5727
▁exigències	-11.5727
▁inicials	-11.573
▁paviment	-11.5731
grà	-11.5732
▁pròximes	-11.5734
▁extrems	-11.5734
▁situ	-11.5735
▁complements	-11.5736
back	-11.5737
enes	-11.574
▁Max	-11.574
▁cabdal	-11.5741
▁dirigits	-11.5745
▁Enrique	-11.5749
▁metropolitana	-11.5749
▁inferiors	-11.5749
▁posarem	-11.5751
▁passà	-11.5751
▁veuràs	-11.5754
pic	-11.5754
▁presencial	-11.5755
gru	-11.5755
afegir	-11.5758
▁distribuir	-11.5758
▁Pasqua	-11.5761
▁estret	-11.5761
lets	-11.5764
▁cremar	-11.5765
▁estendre	-11.5766
▁Salva	-11.5766
▁cadenes	-11.5766
▁Creació	-11.5767
▁inevitable	-11.5767
cob	-11.5768
▁automàtica	-11.5768
ejo	-11.577
▁periòdic	-11.5773
▁rutina	-11.5774
▁singulars	-11.5776
▁Black	-11.5777
▁sorgit	-11.5777
▁suports	-11.578
▁lliura	-11.5781
lies	-11.5781
txo	-11.5782
[7]	-11.5783
ale	-11.5784
Man	-11.5784
▁pebre	-11.5785
▁preciós	-11.5786
▁superació	-11.5786
▁At	-11.5787
Avinguda	-11.5788
▁cooperatiu	-11.5788
sk	-11.5789
▁recolzament	-11.5791
pil	-11.5792
assalt	-11.5793
heroi	-11.5793
▁constituït	-11.5797
EB	-11.5798
Ex	-11.5799
tros	-11.58
▁preses	-11.5802
▁monarquia	-11.5802
gli	-11.5803
▁estreta	-11.5803
▁institucionals	-11.5804
▁Has	-11.5805
▁sofà	-11.5806
▁golf	-11.5807
▁aportat	-11.5807
▁cors	-11.5811
▁visiten	-11.5811
òlic	-11.5816
▁Rod	-11.5819
▁massatge	-11.5819
▁duent	-11.5824
▁Recordem	-11.5825
▁Coneix	-11.5825
▁tapes	-11.5826
music	-11.5829
▁imposat	-11.5829
▁Confederació	-11.583
▁dissabtes	-11.583
▁segurs	-11.5831
enfila	-11.5832
▁déu	-11.5832
ligents	-11.5833
▁comunes	-11.5833
▁socialment	-11.5833
ebre	-11.5838
experimentació	-11.584
▁interessada	-11.584
▁reaccionar	-11.584
▁Coneixement	-11.5841
▁colònia	-11.5842
▁mediàtic	-11.5843
actriu	-11.5844
emmagatzematge	-11.5844
RO	-11.5846
cepció	-11.5846
obs	-11.5847
▁Intel	-11.5849
gim	-11.5849
▁llop	-11.585
ules	-11.5851
▁Queda	-11.5852
Pod	-11.5852
▁llimona	-11.5852
▁Vine	-11.5853
▁reitera	-11.5853
▁procedència	-11.5855
aparença	-11.5855
▁féu	-11.5855
rades	-11.5856
▁2020	-11.5856
PV	-11.5858
▁lluitant	-11.586
ubica	-11.586
▁connexions	-11.5863
▁Solidària	-11.5864
Ac	-11.5864
▁broma	-11.5865
▁càlid	-11.5868
▁molèsties	-11.5869
▁motlle	-11.5871
▁derivar	-11.5872
▁llençar	-11.5873
CS	-11.5873
Investigació	-11.5874
▁específicament	-11.588
▁Hernández	-11.588
oxigen	-11.5882
▁Ven	-11.5884
signa	-11.5888
▁matx	-11.5888
LES	-11.589
▁condueix	-11.589
▁presidit	-11.5891
▁Dom	-11.5895
BI	-11.5895
▁excusa	-11.5896
▁mèrit	-11.5896
▁conquesta	-11.5897
▁financers	-11.5898
▁Llibertat	-11.5899
▁gratuïtes	-11.5901
deta	-11.5901
▁Dimecres	-11.5903
▁sotmetre	-11.5903
700	-11.5904
ICS	-11.5906
▁visibles	-11.5907
edu	-11.5908
▁Format	-11.5908
▁Bach	-11.5909
▁acumulat	-11.5911
▁recaptar	-11.5912
Andalusia	-11.5912
▁progressiva	-11.5916
▁demostració	-11.5916
▁enquesta	-11.5917
▁disminuir	-11.5917
ores	-11.5918
mens	-11.5918
▁pet	-11.5919
▁residencial	-11.5921
▁trobi	-11.5922
▁acompanyant	-11.5923
▁secretaria	-11.5927
▁salari	-11.5928
▁cirurgia	-11.5928
▁turístiques	-11.5928
▁creacions	-11.593
rus	-11.5931
▁Ren	-11.5934
▁prohibició	-11.5935
▁kg	-11.5937
▁japonès	-11.594
higiene	-11.594
constru	-11.5944
nz	-11.5946
▁ritmes	-11.5948
▁Castells	-11.595
▁burgesia	-11.5951
▁instant	-11.5951
▁veurà	-11.5951
arma	-11.5952
ignor	-11.5953
▁Cent	-11.5954
▁caramel	-11.5958
wo	-11.5959
▁recta	-11.596
▁acusat	-11.596
assassinat	-11.596
▁desplaçaments	-11.596
tú	-11.5962
▁atractius	-11.5965
▁avi	-11.5965
▁siguen	-11.5965
▁euro	-11.5967
▁autoritzat	-11.5968
autoestima	-11.5968
▁Perpinyà	-11.5971
ials	-11.5974
cionar	-11.5976
▁desconeix	-11.5977
ptic	-11.5978
▁trobarà	-11.598
▁tradicionalment	-11.5981
▁menús	-11.5981
▁organitzats	-11.5983
euro	-11.5983
▁immens	-11.5983
UC	-11.5984
▁Arran	-11.5984
adjudica	-11.5986
▁Gavà	-11.5986
▁esquerre	-11.5986
▁Arm	-11.5987
▁esmentats	-11.5987
▁juvenils	-11.5989
▁detectat	-11.5993
temp	-11.5994
▁nervis	-11.5994
incident	-11.5995
▁mirador	-11.5995
extensió	-11.5995
▁Relacions	-11.5996
▁esposa	-11.5997
petit	-11.5999
▁pessebre	-11.5999
corregut	-11.6
▁gros	-11.6
▁Atenció	-11.6001
tenia	-11.6001
▁naus	-11.6004
cionat	-11.6006
▁administratives	-11.6008
▁tocava	-11.601
▁gestions	-11.6011
▁Spa	-11.6011
▁acabant	-11.6012
▁aportant	-11.6013
Empúries	-11.6013
▁supressió	-11.6014
▁trobaven	-11.6014
tig	-11.6016
▁1975	-11.6017
▁capes	-11.6018
▁Fin	-11.6018
▁cruïlla	-11.6019
▁logo	-11.6021
▁indicant	-11.6024
junt	-11.6024
▁Tenen	-11.6025
Associacions	-11.6025
▁marina	-11.6029
▁establertes	-11.603
▁controlat	-11.6031
▁viatja	-11.6031
▁Pou	-11.6031
▁gom	-11.6031
esti	-11.6033
get	-11.6035
estén	-11.6035
▁Cur	-11.6035
▁configurar	-11.6035
▁presentava	-11.6036
especialitat	-11.6037
▁cantonada	-11.6037
▁insta	-11.6037
manda	-11.6039
IEC	-11.6039
▁suplement	-11.6039
▁Mitjà	-11.6039
▁actualitzar	-11.604
prote	-11.6043
▁link	-11.6043
▁dinàmic	-11.6044
▁arquitectes	-11.6045
▁litres	-11.6045
▁pràctics	-11.6046
Ajuda	-11.6047
▁tennis	-11.6047
infla	-11.6048
VA	-11.6048
▁coca	-11.6048
ismo	-11.6049
▁dissenyador	-11.605
▁SI	-11.605
▁Virgili	-11.6051
▁editor	-11.6051
▁Vo	-11.6051
▁reforça	-11.6051
escampa	-11.6052
▁Peter	-11.6053
▁tresor	-11.6054
èc	-11.6057
▁senzillament	-11.6059
▁mitjanes	-11.6061
▁transcorre	-11.6061
TES	-11.6062
▁tertúlia	-11.6062
▁detinguts	-11.6063
die	-11.6064
▁ordenar	-11.6066
atges	-11.6067
▁legalment	-11.6067
▁escau	-11.6068
landes	-11.6069
▁sonar	-11.607
▁bestiar	-11.6071
▁modificat	-11.6071
Educa	-11.6072
▁complementa	-11.6072
▁Fonts	-11.6074
ball	-11.6076
▁Diu	-11.6076
det	-11.6076
▁Republicana	-11.6076
▁ocupen	-11.6077
impression	-11.6077
mili	-11.6078
uma	-11.6078
ENS	-11.608
▁sòlida	-11.6081
▁1960	-11.6081
▁lliurat	-11.6083
▁gestor	-11.6086
▁Fiscalia	-11.6088
inserció	-11.6088
lular	-11.6089
▁Tallers	-11.6093
▁Imp	-11.6093
2002	-11.6093
▁tub	-11.6095
▁pacífica	-11.6096
▁proteïnes	-11.6096
▁humitat	-11.6097
▁fosca	-11.6097
▁CNT	-11.6098
▁gats	-11.6099
▁Urgell	-11.6099
▁fonamentalment	-11.6099
▁foscor	-11.6101
▁rebran	-11.6101
▁Socialista	-11.6102
/2015	-11.6102
ode	-11.6103
▁Resulta	-11.6104
anim	-11.6105
▁insuficient	-11.6105
pendre	-11.611
Què	-11.6112
▁Eco	-11.6113
▁viària	-11.6113
nci	-11.6113
▁Independent	-11.6115
posa	-11.6115
▁modernitat	-11.6115
▁My	-11.6117
▁geni	-11.6117
▁cereals	-11.6117
▁Alex	-11.6121
▁aproximació	-11.6122
▁fantasia	-11.6123
tag	-11.6123
▁reconstrucció	-11.6127
▁1983	-11.6128
▁telèfons	-11.6129
▁mereixen	-11.6133
txe	-11.6135
▁doctorat	-11.6135
▁Cau	-11.6136
▁comandament	-11.6136
viol	-11.6139
??	-11.614
▁relatiu	-11.6141
▁Cristian	-11.6141
class	-11.6142
GU	-11.6142
uk	-11.6143
▁elegit	-11.6144
▁presentant	-11.6145
▁videojocs	-11.6145
▁llogar	-11.6149
▁pilots	-11.615
oto	-11.615
oria	-11.6153
bos	-11.6157
▁natació	-11.6157
pressió	-11.6157
▁Net	-11.6158
▁Marítim	-11.6158
lig	-11.6159
otes	-11.6159
▁incendi	-11.6159
▁eixa	-11.6159
▁llàstima	-11.616
▁Montcada	-11.6162
▁dominar	-11.6163
▁gironines	-11.6163
▁marató	-11.6163
▁reivindica	-11.6165
▁Marxa	-11.6166
▁recaptació	-11.6168
▁patent	-11.6168
▁tempesta	-11.6168
▁concedit	-11.6169
▁acollidor	-11.6169
▁rivals	-11.6172
▁Lectura	-11.6172
▁pianista	-11.6174
fini	-11.6175
▁deure	-11.6176
▁claredat	-11.618
àctic	-11.6183
▁evoca	-11.6183
▁relaciona	-11.6185
▁diumenges	-11.6185
Á	-11.6186
instrucció	-11.6186
util	-11.6187
▁políticament	-11.6189
▁Global	-11.619
▁Shi	-11.6191
gg	-11.6194
▁crits	-11.6195
ref	-11.6197
▁particularment	-11.6199
▁gravació	-11.6199
▁1981	-11.6199
escriptora	-11.6203
▁Catalanes	-11.6206
▁dibuixant	-11.6206
rres	-11.6206
▁construeix	-11.6206
▁conill	-11.6207
▁ponts	-11.621
▁Macià	-11.6211
▁::	-11.6211
▁costar	-11.6212
▁acollida	-11.6215
▁detallada	-11.6217
▁qualificat	-11.622
▁annex	-11.6221
rm	-11.6221
▁actuen	-11.6222
eixe	-11.6222
▁Ac	-11.6223
▁existir	-11.6224
▁mama	-11.6224
▁èmfasi	-11.6224
àstica	-11.6225
▁permetran	-11.6227
▁prove	-11.6227
▁lúdic	-11.6227
▁matisos	-11.6227
pta	-11.6228
▁Sec	-11.6228
dif	-11.623
▁labor	-11.623
rob	-11.6231
ate	-11.6231
▁Comercial	-11.6232
pies	-11.6233
ample	-11.6233
assolir	-11.6233
▁Bau	-11.6234
▁donacions	-11.6234
▁Any	-11.6234
▁blava	-11.6235
àlbum	-11.6235
▁Companyia	-11.6236
utes	-11.6237
▁conducció	-11.6237
sio	-11.6237
▁allargar	-11.6237
▁infant	-11.6238
▁Biblioteques	-11.6238
▁raça	-11.6239
nades	-11.6241
▁perillós	-11.6241
▁Jack	-11.6242
▁atorgar	-11.6242
pensa	-11.6244
▁provat	-11.6246
▁flora	-11.6247
▁respecta	-11.6247
▁aplega	-11.625
▁variada	-11.6255
aclari	-11.6255
▁cuida	-11.6256
▁malauradament	-11.6256
▁sencera	-11.6256
Lo	-11.6257
ifiquen	-11.6258
▁Dor	-11.6258
▁mail	-11.6259
▁rumb	-11.626
▁intents	-11.6261
▁Prevenció	-11.6262
zer	-11.6262
infinit	-11.6263
▁conreu	-11.6266
▁vestuari	-11.6268
prendrà	-11.6268
▁detecta	-11.6269
▁1976	-11.627
▁informem	-11.6272
dina	-11.6273
edi	-11.6276
▁sus	-11.6278
▁davall	-11.6279
▁Mancomunitat	-11.6279
▁tragèdia	-11.6279
infantil	-11.628
▁correcció	-11.628
▁reclam	-11.628
▁ES	-11.6281
vina	-11.6283
▁feixisme	-11.6283
▁Bet	-11.6284
▁pagaments	-11.6286
▁lliçó	-11.6288
unitat	-11.6291
edificis	-11.6291
oficial	-11.6295
▁seguirem	-11.6296
enfronta	-11.6296
▁Zapatero	-11.63
neta	-11.6301
▁agraden	-11.6301
▁sana	-11.6302
▁experimentat	-11.6302
CU	-11.6305
▁pecat	-11.6305
win	-11.6306
▁perduda	-11.6307
▁commemora	-11.6308
bada	-11.6309
▁començaran	-11.6309
▁darrerament	-11.631
—,	-11.6311
ted	-11.6311
ney	-11.6313
▁paràgraf	-11.6314
mu	-11.6316
▁feliços	-11.6317
▁protegits	-11.6317
▁patrimonial	-11.6318
▁moro	-11.6318
▁Parlem	-11.6318
esdeveniments	-11.6319
vit	-11.6319
▁apartats	-11.632
tana	-11.6321
▁49	-11.6321
sub	-11.6322
▁Badia	-11.6323
vert	-11.6327
▁determinació	-11.6327
▁ajudarà	-11.6328
▁cobertes	-11.6331
▁sisena	-11.6331
▁vetlla	-11.6332
▁ICV	-11.6333
▁elecció	-11.6336
▁CB	-11.6337
mig	-11.6339
lé	-11.634
▁Negre	-11.634
▁traves	-11.6342
actualització	-11.6344
iniciació	-11.6345
bres	-11.6345
▁Imatge	-11.6348
ject	-11.6349
▁estrangera	-11.6354
▁Bartomeu	-11.6356
lò	-11.6356
invent	-11.6358
▁promesa	-11.6359
▁pernil	-11.636
▁catorze	-11.6362
▁circumstància	-11.6362
▁convocada	-11.6366
▁certament	-11.6366
med	-11.6367
uz	-11.6369
nch	-11.6372
▁Diagonal	-11.6373
▁concentrar	-11.6374
engany	-11.6374
▁54	-11.6375
fet	-11.6376
ocell	-11.6376
▁excés	-11.6377
▁Poblet	-11.6378
▁Continue	-11.6378
▁disposicions	-11.6378
web	-11.6378
▁apostar	-11.6379
▁artesanal	-11.638
Aigües	-11.6383
▁vàlid	-11.6383
▁MAR	-11.6384
▁famosos	-11.6386
rrec	-11.6389
▁confort	-11.6389
▁seleccionat	-11.6389
▁volant	-11.6391
▁Microsoft	-11.6391
▁boníssim	-11.6392
▁preparada	-11.6393
▁creuer	-11.6395
▁robatori	-11.6396
▁guany	-11.6397
▁escrivint	-11.6397
▁vulnerabilitat	-11.6397
IDA	-11.6398
DOGC	-11.6398
SM	-11.6398
afi	-11.6401
▁duel	-11.6402
ska	-11.6402
▁editar	-11.6408
ajustar	-11.6408
bec	-11.6412
empra	-11.6412
mir	-11.6415
/2018	-11.6418
anta	-11.6419
ciència	-11.6419
▁She	-11.6422
vern	-11.6423
▁coordinat	-11.6426
▁Seguidament	-11.6427
▁avançant	-11.6428
▁joies	-11.6429
inclou	-11.6431
▁Jardí	-11.6439
▁Climent	-11.6439
▁confia	-11.644
▁succeeix	-11.644
▁compartim	-11.6441
amar	-11.6442
prop	-11.6443
▁madur	-11.6444
▁flux	-11.6444
▁maca	-11.6448
▁assumptes	-11.6449
ansietat	-11.645
▁tingueu	-11.6451
▁Rosselló	-11.6452
▁prejudicis	-11.6455
▁Suècia	-11.6456
▁rànquing	-11.6456
▁minoria	-11.6459
▁anima	-11.6459
▁fulla	-11.646
▁grecs	-11.6461
▁establiment	-11.6462
▁infantesa	-11.6463
avis	-11.6464
▁presentats	-11.6464
▁Michael	-11.6465
▁nacions	-11.6465
Arts	-11.6469
▁Alt	-11.647
▁oficina	-11.6472
▁creus	-11.6474
▁senti	-11.6476
operador	-11.6477
▁Generals	-11.6478
pag	-11.6478
▁conforma	-11.6479
ocu	-11.6479
▁navegar	-11.6479
mbo	-11.6479
TOR	-11.648
▁Clínic	-11.6482
▁Matemàtiques	-11.6483
▁parlamentària	-11.6484
▁entén	-11.6486
og	-11.6487
Do	-11.6487
embarca	-11.6488
▁clars	-11.6488
versió	-11.6488
▁apreciar	-11.6489
▁presentaran	-11.649
▁cursar	-11.649
aus	-11.6492
▁flexibilitat	-11.6492
aparador	-11.6492
ela	-11.6493
sibil	-11.6493
von	-11.6493
acreditar	-11.6493
▁pais	-11.6494
▁llicenciat	-11.6495
estes	-11.6497
mana	-11.6498
▁forats	-11.6498
jà	-11.6499
▁tradueix	-11.6499
▁semblat	-11.65
▁multiplica	-11.6501
▁DVD	-11.6504
▁fils	-11.6505
▁constatar	-11.6507
entes	-11.6507
wan	-11.6508
▁composicions	-11.6508
ette	-11.6508
▁directiu	-11.6511
▁Lluc	-11.6512
core	-11.6512
ètics	-11.6513
propi	-11.6513
oso	-11.6513
▁arquitectònic	-11.6514
т	-11.6515
prenem	-11.6515
lució	-11.6517
▁Alberto	-11.6517
▁intenten	-11.652
▁aconsegueixen	-11.6521
▁Juga	-11.6523
luc	-11.6523
▁Sergio	-11.6523
usos	-11.6527
▁Universitària	-11.6528
rega	-11.6529
establi	-11.653
▁recordant	-11.653
inet	-11.6531
▁Igualada	-11.6531
adores	-11.6531
seca	-11.6533
▁passe	-11.6533
▁Prats	-11.6534
▁aplicant	-11.6536
▁ports	-11.6536
▁sindicals	-11.6538
▁Audiovisual	-11.6539
▁teories	-11.654
▁probabilitat	-11.654
▁indiferent	-11.6541
▁negatius	-11.6542
▁certificats	-11.6543
trac	-11.6544
▁invitació	-11.6548
▁ànima	-11.6551
▁jubilació	-11.6556
pobla	-11.6558
▁inaugurat	-11.6558
▁salaris	-11.6559
DO	-11.6561
▁Borràs	-11.6562
▁administratius	-11.6563
▁criticar	-11.6563
▁desitjat	-11.6563
▁56	-11.6566
NY	-11.657
exposicions	-11.657
vul	-11.6571
▁ofici	-11.6571
cultura	-11.6573
▁pedagogia	-11.6573
▁deuen	-11.6576
▁calç	-11.6577
▁comportaments	-11.6578
▁narrador	-11.6578
llat	-11.6578
udes	-11.6578
▁arrel	-11.6579
▁aprop	-11.658
ogràfiques	-11.6581
▁cantó	-11.6581
▁modernista	-11.6581
vas	-11.6583
errades	-11.6584
▁emprendre	-11.6587
▁Senat	-11.6591
stic	-11.6592
▁curiosa	-11.6593
▁miracle	-11.6594
▁situen	-11.6594
▁filial	-11.6594
àstic	-11.6594
fen	-11.6594
▁traduccions	-11.6595
gl	-11.6595
▁Gala	-11.6597
▁creia	-11.66
abús	-11.66
▁Gest	-11.6602
▁jutjats	-11.6603
▁pros	-11.6606
elit	-11.6606
▁ponència	-11.6607
laboren	-11.6607
▁precedents	-11.6608
▁FI	-11.6609
dins	-11.661
Ri	-11.661
▁urbanes	-11.6611
organitzen	-11.6611
▁Cercle	-11.6611
▁complexes	-11.6611
avió	-11.6613
prèn	-11.6614
cans	-11.6615
▁corporació	-11.6616
JA	-11.6616
acceptar	-11.6617
ér	-11.6618
Israel	-11.6619
▁administració	-11.6621
homes	-11.6626
▁eixir	-11.6627
▁Alacant	-11.6628
▁interessar	-11.6628
▁despert	-11.6629
▁donaven	-11.663
▁pescadors	-11.663
▁parlo	-11.6634
▁remunta	-11.6634
▁Premià	-11.6635
▁pronuncia	-11.6636
vella	-11.6636
▁construint	-11.6637
quetes	-11.6638
DR	-11.6639
▁exàmens	-11.6641
▁prosa	-11.6642
▁finalització	-11.6643
▁positives	-11.6644
▁Veure	-11.6646
UD	-11.6648
▁alliberar	-11.6648
▁fiable	-11.6648
▁concentrat	-11.6651
▁accessos	-11.6652
▁baixat	-11.6654
▁externs	-11.6654
▁Eu	-11.6655
ello	-11.6655
▁Angel	-11.6657
▁Fotografia	-11.6658
Accés	-11.6659
òmetre	-11.666
▁CR	-11.666
▁multa	-11.6662
▁jugadores	-11.6662
▁fol	-11.6663
▁eficiència	-11.6663
ction	-11.6664
▁tomb	-11.6664
▁farcit	-11.6667
▁cercavila	-11.6668
▁típics	-11.6669
▁Rep	-11.6672
assegurances	-11.6676
▁pantalles	-11.6676
agrupació	-11.6679
▁cotó	-11.6679
▁cites	-11.668
apunt	-11.668
▁Dan	-11.6682
ïa	-11.6683
▁renovat	-11.6684
▁suggeriments	-11.6685
nota	-11.6687
▁literàries	-11.6688
ight	-11.6689
uren	-11.6689
▁esperava	-11.6689
▁Roman	-11.6691
ificada	-11.6691
▁rom	-11.6691
▁Informa	-11.6692
▁CC	-11.6693
▁variar	-11.6693
cola	-11.6694
envelliment	-11.6695
▁circuits	-11.6695
▁Colau	-11.6696
▁unilateral	-11.6698
▁140	-11.6698
time	-11.6699
avís	-11.6699
▁basades	-11.6699
▁conscienciar	-11.67
▁orientat	-11.6702
bru	-11.6703
PU	-11.6704
▁1968	-11.6705
▁Viena	-11.6705
mans	-11.6706
▁productiu	-11.6707
uria	-11.6708
▁Instal	-11.6709
agraeix	-11.6711
▁romàntic	-11.6712
▁oi	-11.6713
punt	-11.6714
▁Secretari	-11.6716
iber	-11.6717
lip	-11.6717
▁permetia	-11.6717
sant	-11.6719
adhesió	-11.6719
▁Presidència	-11.6719
▁exigent	-11.6719
▁repassa	-11.672
▁residències	-11.6722
Her	-11.6722
ère	-11.6724
▁nacionalista	-11.6727
▁conductors	-11.673
▁estades	-11.6731
▁contrària	-11.6731
urgències	-11.6732
comp	-11.6732
д	-11.6733
▁vela	-11.6733
</	-11.6733
▁estatuts	-11.6734
▁revis	-11.6736
▁Gin	-11.6736
▁mèrits	-11.6738
torn	-11.6739
▁paradigma	-11.674
Àngel	-11.6744
▁secretària	-11.6746
▁efectivament	-11.6747
▁cròniques	-11.6747
▁Aragó	-11.6748
inen	-11.675
▁Canet	-11.675
▁Algú	-11.6751
▁compartint	-11.6752
▁vèncer	-11.6753
ordi	-11.6753
▁porto	-11.6754
▁escrites	-11.6754
▁mutu	-11.6754
tio	-11.6756
DES	-11.6756
▁tribut	-11.6757
ògraf	-11.6759
▁globus	-11.6759
dan	-11.6759
▁porteria	-11.6762
▁conviure	-11.6763
▁haja	-11.6764
▁emblemàtic	-11.6765
▁frau	-11.6768
▁senyalització	-11.6769
especialització	-11.6771
▁falsa	-11.6771
▁estàndards	-11.6773
▁vegi	-11.6773
gram	-11.6775
▁Op	-11.6775
▁preveure	-11.6777
▁Rat	-11.6777
pr	-11.6779
tions	-11.678
▁Cop	-11.6781
articula	-11.6782
▁devia	-11.6784
▁decisiu	-11.6785
▁lamentable	-11.6786
▁artesans	-11.6787
▁alternatiu	-11.6788
▁Normalment	-11.6788
▁conforme	-11.6788
▁atractiva	-11.679
▁transcurs	-11.6794
▁Rector	-11.6797
ASS	-11.6798
▁Regional	-11.6799
▁pedal	-11.6802
emprenedor	-11.6802
geix	-11.6803
▁tocant	-11.6804
▁perjudicis	-11.6808
▁evitant	-11.6809
tron	-11.6809
acreditació	-11.681
ivitat	-11.681
zen	-11.6811
▁depressió	-11.6811
MES	-11.6813
▁Ran	-11.6814
▁bàndol	-11.6814
▁patint	-11.6815
himne	-11.6816
▁programades	-11.6817
▁abraçada	-11.6818
▁plasma	-11.682
▁qualitats	-11.6821
erna	-11.6822
disc	-11.6824
▁externes	-11.6825
lleu	-11.6826
▁banderes	-11.6827
▁sous	-11.6827
▁núvol	-11.6828
foli	-11.6829
▁llegendes	-11.683
associa	-11.6831
orgull	-11.6831
escoles	-11.6833
▁comprèn	-11.6837
▁aguantar	-11.684
▁estel	-11.6841
bili	-11.6843
▁esperat	-11.6844
▁1931	-11.6845
▁tecnològiques	-11.6845
▁School	-11.6846
Alba	-11.6847
▁assequible	-11.6848
▁25%	-11.685
foc	-11.6854
▁extern	-11.6855
▁retre	-11.6856
▁51	-11.6856
itària	-11.6856
▁vocabulari	-11.6858
▁provenen	-11.6858
▁mancances	-11.6858
Au	-11.6859
▁fulls	-11.686
▁materna	-11.6861
▁metre	-11.6861
▁aturades	-11.6863
▁72	-11.6864
gno	-11.6865
▁Viladecans	-11.687
▁contar	-11.6872
obe	-11.6873
▁retrobar	-11.6873
▁estones	-11.6874
▁cerebral	-11.6876
▁vermut	-11.6877
▁complementar	-11.6879
▁parat	-11.6879
▁Wal	-11.688
gni	-11.6881
▁americana	-11.6881
ríem	-11.6882
▁Sy	-11.6882
▁apartaments	-11.6886
▁recom	-11.6887
bac	-11.6887
egen	-11.6888
▁diploma	-11.6889
▁característic	-11.6889
▁Batalla	-11.6889
itzi	-11.6889
▁formalitzar	-11.6889
▁Síria	-11.689
▁britànica	-11.689
alemany	-11.689
▁saviesa	-11.6892
▁Sen	-11.6892
Cu	-11.6895
fiques	-11.6896
ncer	-11.6896
▁menció	-11.6897
▁sorprèn	-11.6898
▁remodelació	-11.6901
▁venien	-11.6903
▁tallat	-11.6904
▁superficial	-11.6904
Te	-11.6908
equi	-11.6909
▁detenir	-11.691
▁còmoda	-11.6913
▁Dimarts	-11.6914
tx	-11.6915
OM	-11.6915
▁relax	-11.6915
bir	-11.6917
▁Front	-11.6918
▁vulnerables	-11.6919
nge	-11.6922
Girona	-11.6924
▁Pàgina	-11.6925
personal	-11.6926
▁Seria	-11.6927
xer	-11.6928
▁boniques	-11.693
▁Nau	-11.6935
àlia	-11.6937
▁mentals	-11.6939
▁recon	-11.6939
ah	-11.6941
Escòcia	-11.6942
я	-11.6944
▁Text	-11.6945
▁Laboral	-11.6945
▁preten	-11.6945
mund	-11.6946
▁defecte	-11.6948
▁gespa	-11.6949
▁Llu	-11.695
Cr	-11.695
press	-11.6952
▁estatals	-11.6954
▁substituït	-11.6954
▁confiar	-11.6955
▁emprar	-11.6955
▁exerceix	-11.6958
▁Dur	-11.696
▁requisit	-11.696
absis	-11.6961
▁Redacció	-11.6962
Argentina	-11.6963
▁corporativa	-11.6964
▁Montblanc	-11.6964
anomenen	-11.6964
Va	-11.6966
▁eficàcia	-11.6966
àrem	-11.6967
inspira	-11.6972
encert	-11.6973
▁Xile	-11.6974
just	-11.6977
▁constructor	-11.6977
▁BTT	-11.6979
ert	-11.6985
▁sembli	-11.6986
Amics	-11.6986
tingut	-11.6987
▁encanta	-11.6987
▁suec	-11.6989
▁estimada	-11.6991
▁Comencem	-11.6992
▁acompanyament	-11.6992
▁solars	-11.6993
▁Play	-11.6993
▁PC	-11.6993
txes	-11.6994
▁episodi	-11.6994
sua	-11.6995
▁Diuen	-11.6996
mac	-11.6996
▁intimitat	-11.6998
▁tip	-11.6999
omplir	-11.7
▁llur	-11.7001
▁polígon	-11.7001
▁sancions	-11.7002
▁Molí	-11.7005
▁ordenat	-11.7007
opa	-11.7007
▁revolucionari	-11.7008
RT	-11.7008
▁Seg	-11.7009
cip	-11.7011
▁redactar	-11.7012
▁llevant	-11.7014
▁senzilles	-11.7014
▁crisis	-11.7015
ínic	-11.7016
▁Reina	-11.7019
lons	-11.7019
ocult	-11.7019
▁resistir	-11.702
▁Universal	-11.7021
▁obligada	-11.7022
▁socio	-11.7023
ore	-11.7024
▁adaptada	-11.7025
▁Química	-11.7026
▁renova	-11.7026
▁productivitat	-11.7027
▁Suposo	-11.7027
▁medievals	-11.7028
▁destacada	-11.7028
▁Ernest	-11.7029
▁meravellós	-11.703
▁sexualitat	-11.7031
ALL	-11.7032
▁lingüístics	-11.7032
▁aborda	-11.7033
emplaçament	-11.7034
IF	-11.7035
▁1940	-11.7035
▁puny	-11.7035
▁Bàsquet	-11.7036
▁Paula	-11.7036
▁herbes	-11.7038
▁vigents	-11.7039
ful	-11.7039
▁necessitar	-11.7041
gine	-11.7042
▁granja	-11.7043
▁actualització	-11.7045
▁Consum	-11.7045
Evangeli	-11.7045
▁comiat	-11.7047
allunya	-11.7049
HA	-11.7049
▁Recordo	-11.705
▁Oliva	-11.705
▁GPS	-11.705
▁donà	-11.7051
▁actuat	-11.7051
uth	-11.7051
agreuja	-11.7052
▁barrera	-11.7052
▁Tens	-11.7054
▁províncies	-11.7055
▁viable	-11.7056
▁batle	-11.7058
▁integritat	-11.7058
ecologia	-11.7059
tino	-11.7061
▁Valor	-11.7063
arte	-11.7063
fugi	-11.7064
▁ponents	-11.7065
itzem	-11.7066
observa	-11.7067
▁projeccions	-11.7068
▁configura	-11.707
▁constar	-11.7073
posit	-11.7073
▁volíem	-11.7075
▁Tenia	-11.7078
▁lent	-11.7082
lum	-11.7082
▁Etiquetat	-11.7083
▁facebook	-11.7083
armari	-11.7084
▁secundari	-11.7084
tesos	-11.7085
▁glòria	-11.7087
gons	-11.7087
sum	-11.7087
Espanyol	-11.7087
▁químics	-11.7089
infecció	-11.709
▁Cinc	-11.709
▁progressivament	-11.7092
▁consolida	-11.7093
▁promogut	-11.7093
▁madura	-11.7095
xen	-11.71
experiment	-11.7102
▁cocció	-11.7102
▁dotzena	-11.7102
▁dimissió	-11.7103
▁màximes	-11.7104
▁Lleó	-11.7105
loga	-11.7106
▁bancari	-11.7106
▁noranta	-11.7109
▁captura	-11.711
▁avisar	-11.711
▁estructural	-11.711
▁collita	-11.7111
▁frenar	-11.7111
▁vingui	-11.7113
▁pioner	-11.7113
incloure	-11.7114
imagin	-11.7114
▁tauler	-11.7115
▁delicat	-11.7116
abandonament	-11.7118
ala	-11.7118
AND	-11.7119
▁ciment	-11.712
roll	-11.712
màtiques	-11.712
Ens	-11.7121
▁pàg	-11.7121
ïdes	-11.7122
▁asiàtic	-11.7123
lusion	-11.7123
▁emportar	-11.7125
▁Exp	-11.7128
▁Bertran	-11.7128
Document	-11.7133
JO	-11.7134
▁musulmans	-11.7134
▁Cir	-11.7136
▁secs	-11.7136
▁danses	-11.7139
▁dolços	-11.7139
▁descobrint	-11.7141
▁reflexiona	-11.7142
▁Rafa	-11.7142
uit	-11.7143
tòries	-11.7143
▁lúdica	-11.7143
room	-11.7146
▁Dar	-11.7147
▁garant	-11.7148
▁abundant	-11.7149
▁imperial	-11.7149
▁teòrica	-11.715
▁Poesia	-11.715
▁encaixa	-11.7152
▁catòlica	-11.7157
òloga	-11.7159
▁Gata	-11.716
▁quadern	-11.7161
▁boira	-11.7163
▁Llevant	-11.7163
autors	-11.7164
lustre	-11.7165
▁duc	-11.7165
▁amistat	-11.7166
▁ret	-11.7167
м	-11.7169
▁innocent	-11.717
▁estigués	-11.717
uix	-11.717
▁esmentat	-11.717
oner	-11.717
▁comptem	-11.7171
opera	-11.7173
ando	-11.7174
▁preciosa	-11.7176
▁Domingo	-11.7176
TEC	-11.7177
gaf	-11.7179
▁rebuts	-11.7183
▁International	-11.7183
▁suportar	-11.7184
▁Eivissa	-11.7187
▁germanes	-11.7189
▁recompensa	-11.7189
Acord	-11.719
▁Voluntariat	-11.7192
▁tarifa	-11.7192
▁prefereix	-11.7195
▁aparcament	-11.7197
▁partícules	-11.7198
▁plenari	-11.7198
▁Film	-11.72
vio	-11.7201
reg	-11.7202
▁insisteix	-11.7203
▁gratuïts	-11.7203
▁condiciona	-11.7204
bli	-11.7205
rim	-11.7205
cora	-11.7205
▁oscil	-11.7206
▁aprova	-11.7206
mud	-11.7207
▁UOC	-11.7208
catalunya	-11.7208
evangeli	-11.7209
▁madrileny	-11.7211
▁Cli	-11.7211
▁Qu	-11.7212
▁cims	-11.7214
▁postgrau	-11.7214
▁renúncia	-11.7214
úr	-11.7215
▁observa	-11.7215
omb	-11.7217
й	-11.7218
erro	-11.7218
▁crim	-11.7219
▁53	-11.7219
▁calçat	-11.7219
PP	-11.7219
▁tocs	-11.722
▁motos	-11.7221
▁mani	-11.7221
▁ministra	-11.7224
▁Prim	-11.7226
▁contenir	-11.7226
cru	-11.7227
▁suspendre	-11.7227
▁Vil	-11.7228
cèntric	-11.7229
▁sopa	-11.7235
▁dorsal	-11.7235
▁llits	-11.7236
▁Resum	-11.7236
2000	-11.7239
▁canvien	-11.7239
EG	-11.724
▁cartró	-11.724
▁espec	-11.7243
/2017	-11.7245
mai	-11.7246
sens	-11.7246
▁extrema	-11.7246
▁sardanes	-11.7247
lingü	-11.7247
ssen	-11.7247
vè	-11.7248
ej	-11.725
▁substància	-11.725
▁vigència	-11.725
autoritza	-11.7253
▁Mart	-11.7253
estudiar	-11.7253
▁passejada	-11.7254
Edifici	-11.7256
▁March	-11.7257
anell	-11.7257
▁Luc	-11.7257
▁decideixen	-11.7257
▁atemptats	-11.7259
▁memòries	-11.7259
into	-11.726
▁acumula	-11.7263
veure	-11.7264
▁gaires	-11.7264
▁multimèdia	-11.7266
row	-11.7266
▁llavis	-11.7267
▁calgui	-11.7267
▁Segueix	-11.7268
Esperit	-11.7269
▁persegueix	-11.727
ving	-11.727
ngu	-11.7272
▁consideri	-11.7273
segons	-11.7273
tent	-11.7273
▁Mort	-11.7276
aliança	-11.7277
▁limitades	-11.7278
▁Educatiu	-11.7279
món	-11.728
▁parlamentaris	-11.7281
▁romandre	-11.7283
nie	-11.7283
▁Edició	-11.7283
▁agafant	-11.7284
cker	-11.7285
▁princesa	-11.7286
▁nerviós	-11.7289
electr	-11.7289
▁anà	-11.7291
clus	-11.7293
analitzar	-11.7293
cad	-11.7294
▁Condicions	-11.7295
▁catalanisme	-11.7295
ovelles	-11.7296
▁Penso	-11.7299
▁gimnàs	-11.7301
▁ressenya	-11.7302
UV	-11.7303
imparteix	-11.7304
▁piscines	-11.7305
▁Alonso	-11.7305
▁130	-11.7306
▁treballava	-11.731
espi	-11.731
▁internes	-11.7312
▁delegats	-11.7312
àrbitre	-11.7314
▁natal	-11.7315
▁Verd	-11.7315
▁anomenades	-11.7316
▁Charles	-11.7318
▁descàrrega	-11.7321
▁Bassa	-11.7322
▁agraïment	-11.7326
▁Color	-11.7327
duc	-11.7327
infern	-11.7327
▁lingüístiques	-11.7327
▁fidelitat	-11.7332
▁molí	-11.7332
▁misèria	-11.7334
▁Gall	-11.7334
к	-11.7335
▁millorat	-11.7336
▁confusió	-11.7338
tract	-11.7338
▁conjunts	-11.734
arxiv	-11.7342
▁contínuament	-11.7343
▁degustar	-11.7343
▁jurídiques	-11.7347
alteració	-11.7348
barcelona	-11.7348
▁acabava	-11.7349
▁porti	-11.735
enganxa	-11.7351
▁visc	-11.7357
algú	-11.7357
iniciarà	-11.736
▁Noves	-11.736
▁registra	-11.7362
▁mural	-11.7362
▁emès	-11.7363
▁Nàutic	-11.7363
CIA	-11.7363
▁cami	-11.7364
▁68	-11.7367
▁participarà	-11.7367
▁electro	-11.7368
▁desplaçat	-11.7368
▁preferit	-11.7369
rich	-11.737
▁respectives	-11.737
▁militant	-11.737
legals	-11.7372
▁Escoles	-11.7372
▁1:	-11.7373
▁podíem	-11.7376
ford	-11.7377
lio	-11.7378
▁play	-11.7379
▁viola	-11.7379
▁controla	-11.7379
▁Cro	-11.738
▁impartit	-11.738
▁entregar	-11.7381
▁variacions	-11.7382
ika	-11.7382
clav	-11.7384
▁produint	-11.7387
the	-11.7393
▁sospita	-11.7393
over	-11.7393
explosió	-11.7394
▁Ali	-11.7394
▁enamorat	-11.7395
ary	-11.7395
▁Sales	-11.7396
arts	-11.7396
▁tornava	-11.7397
explicació	-11.7397
endinsa	-11.7399
▁adreçar	-11.7399
▁Drac	-11.7401
▁¡	-11.7401
▁Victòria	-11.7404
▁titulada	-11.7406
▁cadàver	-11.7406
▁agafem	-11.7406
esplendor	-11.7409
▁Pia	-11.741
ejos	-11.741
Pla	-11.741
▁xut	-11.7411
▁siguem	-11.7412
▁agent	-11.7413
▁quilos	-11.7414
ngle	-11.7415
enfoca	-11.7417
▁Mitjana	-11.7418
▁tarifes	-11.7419
▁Estudis	-11.7419
▁nacionalistes	-11.742
dò	-11.7421
exploració	-11.7422
inspector	-11.7422
▁diàries	-11.7425
cidi	-11.7425
ANA	-11.7426
envolta	-11.7426
▁Diputats	-11.7426
quar	-11.7428
esgota	-11.7428
dul	-11.7428
hen	-11.7429
Book	-11.7429
tades	-11.743
▁davanter	-11.743
▁Inc	-11.7431
▁optat	-11.7431
▁2006,	-11.7432
▁modernes	-11.7432
mba	-11.7432
AA	-11.7433
▁Ibèrica	-11.7434
▁acomiadar	-11.7435
Atlètic	-11.7435
▁codis	-11.7436
▁escoltant	-11.7437
▁Situat	-11.7439
nesa	-11.744
ove	-11.744
▁fitxes	-11.744
▁incon	-11.7442
▁Segon	-11.7443
▁gaudeixen	-11.7444
eti	-11.7445
▁recolzar	-11.7448
▁rodatge	-11.7451
dades	-11.7452
▁09	-11.7452
▁llindar	-11.7452
bò	-11.7452
▁Júlia	-11.7455
▁1974	-11.7456
▁disparar	-11.7458
▁Egipte	-11.7458
▁preocupat	-11.7458
▁perdó	-11.746
▁intencions	-11.746
ERA	-11.7461
▁geogràfic	-11.7461
PM	-11.7462
escolta	-11.7463
▁conversió	-11.7464
▁periòdicament	-11.7464
▁gastar	-11.7465
▁plantegen	-11.7465
▁vents	-11.7466
▁representats	-11.7466
▁formatges	-11.7471
▁càstig	-11.7472
▁FP	-11.7473
assumir	-11.7473
▁acredita	-11.7473
▁bufa	-11.7474
▁ideològic	-11.7474
▁app	-11.7475
▁vindrà	-11.7475
▁Quins	-11.7477
tv	-11.7478
atletisme	-11.7478
gul	-11.7479
equips	-11.748
numer	-11.7481
▁russa	-11.7482
▁Fruit	-11.7484
▁promocions	-11.7485
▁palla	-11.7486
▁Feia	-11.7487
▁Càtedra	-11.7488
▁rapidesa	-11.7488
▁façanes	-11.7488
▁existia	-11.7489
PSOE	-11.749
extracció	-11.7491
▁Barca	-11.7491
GC	-11.7491
▁inútil	-11.7491
ique	-11.7492
▁carro	-11.7492
▁camions	-11.7492
▁Navarra	-11.7494
interpretació	-11.7494
▁massís	-11.7495
▁combustible	-11.7495
alberg	-11.7498
▁quedin	-11.7499
▁significar	-11.7503
acumulació	-11.7503
▁desgast	-11.7503
Ga	-11.7503
▁duia	-11.7504
▁bola	-11.7505
▁contribuït	-11.7505
▁venut	-11.7506
▁Vostè	-11.7506
▁relatives	-11.7507
▁flexible	-11.7507
▁fàbriques	-11.7508
▁Barra	-11.7509
▁òptim	-11.751
▁fabricant	-11.7511
dons	-11.7511
α	-11.7511
▁gelat	-11.7512
sur	-11.7513
▁ratlla	-11.7514
▁Castellar	-11.7515
▁tipologia	-11.7515
vulnera	-11.7516
▁1937	-11.7516
▁bulli	-11.7518
▁arribà	-11.7518
▁destacable	-11.7518
RS	-11.7522
▁sabent	-11.7522
rios	-11.7523
Escol	-11.7524
quera	-11.7524
info	-11.7525
▁plorar	-11.7525
erà	-11.7526
▁Solé	-11.7527
▁Ph	-11.7528
▁sin	-11.753
gic	-11.7531
▁basats	-11.7532
▁pausa	-11.7533
▁augmentant	-11.7534
dú	-11.7535
▁educadors	-11.7535
▁mati	-11.7535
ifica	-11.7537
lots	-11.7537
▁italians	-11.7538
▁utilitzem	-11.7538
licitant	-11.7541
llor	-11.7542
▁formularis	-11.7542
iri	-11.7542
▁talls	-11.7542
▁adolescent	-11.7543
DIA	-11.7544
tans	-11.7545
▁vàries	-11.7545
▁cordes	-11.7546
▁referit	-11.7549
miento	-11.7551
▁perfum	-11.7552
lustra	-11.7553
▁01	-11.7554
▁Margarida	-11.7554
▁programar	-11.7555
cast	-11.7556
▁obrint	-11.7556
▁Emili	-11.7559
▁Tren	-11.7563
inventari	-11.7564
incorporar	-11.7566
urban	-11.7569
buc	-11.7569
▁acostumats	-11.7571
▁repercussió	-11.7571
▁comprometre	-11.7572
▁Rom	-11.7572
▁pors	-11.7572
▁existència	-11.7577
▁provoquen	-11.7578
cra	-11.7578
▁majoritari	-11.7579
▁pròleg	-11.758
admissió	-11.7581
▁finques	-11.7581
Innovació	-11.7582
▁xef	-11.7583
horror	-11.7583
▁Oferim	-11.7584
▁ruptura	-11.7584
▁Eren	-11.7585
▁servidors	-11.7585
escassa	-11.759
onat	-11.7592
▁depenen	-11.7593
▁desitjar	-11.7595
▁efectuar	-11.7597
▁teòric	-11.7599
▁orquestra	-11.76
2003	-11.76
escàndol	-11.7601
▁Barcelonès	-11.7601
▁potencia	-11.7601
▁postguerra	-11.7605
▁institut	-11.7606
▁univers	-11.7608
▁maduresa	-11.7608
▁Havia	-11.761
estrat	-11.761
▁pronunciar	-11.7611
▁assassinat	-11.7612
▁àcid	-11.7613
▁denúncies	-11.7614
ivi	-11.7615
▁favorables	-11.7616
well	-11.7616
▁assajos	-11.7618
pas	-11.7618
▁Ronda	-11.7618
LU	-11.7619
▁estarem	-11.7621
▁Pepe	-11.7621
▁amant	-11.7621
▁Biel	-11.7622
▁digué	-11.7623
experts	-11.7624
Pi	-11.7624
▁ciclista	-11.7625
ïr	-11.7626
lera	-11.7627
▁Air	-11.7627
▁normals	-11.7628
▁Kar	-11.7628
▁proclama	-11.7631
▁Explica	-11.7632
blanc	-11.7634
sil	-11.7636
▁butlletí	-11.7638
▁arcs	-11.7638
▁terrasses	-11.764
▁Collserola	-11.7641
▁llibret	-11.7642
▁Euro	-11.7644
▁costes	-11.7644
cura	-11.7644
▁bancària	-11.7647
▁rau	-11.7647
▁preocupar	-11.7647
alla	-11.7648
▁magistral	-11.7651
▁Os	-11.7652
ivament	-11.7652
▁estètic	-11.7654
▁redactat	-11.7655
▁tinta	-11.7655
▁Àlex	-11.7655
▁Vos	-11.7658
venir	-11.7658
▁agressions	-11.766
▁Activitat	-11.7662
rós	-11.7662
Bu	-11.7666
afegeix	-11.7667
▁vestíbul	-11.7668
▁Pels	-11.7668
▁Micro	-11.767
▁incendis	-11.7672
▁trencament	-11.7674
▁Pineda	-11.7675
americanes	-11.7678
▁Güell	-11.7678
▁ombres	-11.7679
▁breus	-11.7679
eus	-11.7681
▁lidera	-11.7688
▁human	-11.7689
Il	-11.7689
▁calcular	-11.769
▁Olímpic	-11.769
▁psicològica	-11.7691
▁pals	-11.7692
ÉS	-11.7692
▁Jutjat	-11.7695
Àsia	-11.7697
lisme	-11.7698
▁sènior	-11.7698
DC	-11.7699
ars	-11.77
àngel	-11.7701
ità	-11.7702
▁tortura	-11.7703
▁Cru	-11.7704
▁tramitar	-11.7704
trà	-11.7705
▁1950	-11.7709
▁sostenibles	-11.771
mira	-11.7712
▁assistent	-11.7713
▁ESO	-11.7714
▁deien	-11.7715
▁exercit	-11.7715
director	-11.7715
▁vicepresidenta	-11.772
QUI	-11.7721
▁tenda	-11.7723
▁comenci	-11.7723
▁Gro	-11.7724
▁concedeix	-11.7725
emergències	-11.7725
mag	-11.7726
▁Masia	-11.7727
▁LL	-11.7727
òp	-11.7727
▁unit	-11.7729
▁adreçades	-11.7729
▁parlarem	-11.773
autocar	-11.773
▁Estatal	-11.7737
▁rang	-11.7738
emissora	-11.7741
▁cedit	-11.7741
enorme	-11.7743
TR	-11.7744
èl	-11.7744
Estel	-11.7745
▁fórmules	-11.7746
gades	-11.7747
▁paguen	-11.7747
▁pdf	-11.7749
▁indústries	-11.7749
▁colonial	-11.7749
Idescat	-11.775
▁dissenyada	-11.7751
▁semestre	-11.7752
▁associada	-11.7753
▁mercantil	-11.7754
▁detallat	-11.7755
▁respira	-11.7757
▁competitiu	-11.7757
▁Marco	-11.7757
bb	-11.7758
▁coneixer	-11.7759
▁déus	-11.776
MAN	-11.776
rama	-11.7761
▁obsequi	-11.7762
▁oportú	-11.7763
▁composta	-11.7763
▁setze	-11.7764
▁Ani	-11.7766
▁normalització	-11.777
▁estricte	-11.777
esfera	-11.7771
nesos	-11.7773
▁1714	-11.7773
islam	-11.7774
▁dirigent	-11.7774
▁Gua	-11.7776
▁1973	-11.7777
▁monogràfic	-11.7778
anda	-11.7778
▁Thi	-11.7779
▁enfortir	-11.7779
▁Thomas	-11.778
▁guardons	-11.778
uré	-11.7781
▁Ves	-11.7782
gall	-11.7783
▁màxims	-11.7783
▁sorprès	-11.7783
▁prohibir	-11.7784
breu	-11.7784
▁Sobretot	-11.7784
▁bri	-11.7785
▁compensa	-11.7785
MAT	-11.7786
▁clàssiques	-11.7786
▁introduït	-11.7786
▁activar	-11.7787
▁1930	-11.7789
▁Garrigues	-11.7789
▁autora	-11.779
▁Parròquia	-11.779
nutri	-11.7791
▁Granada	-11.7792
▁lenta	-11.7792
▁hagué	-11.7793
▁respiració	-11.7794
▁preocupacions	-11.7794
iat	-11.7795
▁Mestres	-11.7796
lines	-11.7796
ciona	-11.7798
▁Nar	-11.7799
índex	-11.7799
▁terceres	-11.78
▁cantautor	-11.78
▁serem	-11.78
▁Poden	-11.7807
▁brasiler	-11.7807
▁considerats	-11.7807
atleta	-11.7807
fem	-11.7807
▁comtat	-11.7808
▁Volta	-11.7809
inaugura	-11.7809
tac	-11.7812
▁civilització	-11.7812
▁consol	-11.7814
▁proporcionen	-11.7814
unió	-11.7815
▁seriosament	-11.7815
ind	-11.7816
▁autoritat	-11.7817
▁capitalista	-11.7817
▁cantat	-11.7817
▁signatures	-11.7818
▁Rus	-11.7822
tén	-11.7823
ços	-11.7823
▁còpies	-11.7824
▁Cros	-11.7825
▁70%	-11.7825
▁actualitzada	-11.7826
pere	-11.7826
▁pressupostària	-11.7826
▁90%	-11.7829
vida	-11.783
▁anàlisis	-11.783
▁especialitzades	-11.7831
▁nadons	-11.7831
▁opera	-11.7834
▁plor	-11.7836
▁Bosc	-11.7836
▁Mitja	-11.7837
ceres	-11.7837
escollir	-11.7838
gunt	-11.7841
▁síndrome	-11.7844
▁cristià	-11.7844
Form	-11.7845
▁Richard	-11.7845
▁facturació	-11.7845
▁defensen	-11.7845
▁Fora	-11.7845
informar	-11.7846
▁protegeix	-11.7846
toma	-11.7848
ecta	-11.7848
aya	-11.785
introdu	-11.7851
▁perden	-11.7853
actu	-11.7855
gosa	-11.7855
▁incapaç	-11.7855
jó	-11.7857
iosa	-11.7857
▁diferenciar	-11.7857
▁Cava	-11.7861
▁cala	-11.7861
▁cavaller	-11.7862
▁coordina	-11.7865
kar	-11.7865
inat	-11.7867
▁metodologies	-11.7868
▁Humanitat	-11.7869
llà	-11.7869
edit	-11.787
▁nano	-11.787
▁Sabem	-11.787
▁associatiu	-11.787
Qui	-11.7873
▁quadrat	-11.7875
▁estrenat	-11.7876
Anglaterra	-11.7876
▁bella	-11.7877
▁teclat	-11.7877
▁900	-11.7879
fòbia	-11.7879
▁Disposem	-11.7879
▁Presenta	-11.7884
▁Miss	-11.7885
Catal	-11.7885
▁carbó	-11.7887
▁cognom	-11.7888
▁etiquetes	-11.7889
▁tornarem	-11.789
▁planxa	-11.7891
▁Sé	-11.7891
▁cavitat	-11.7892
▁Nostra	-11.7892
liar	-11.7893
ací	-11.7898
exit	-11.7898
▁sobiranista	-11.7899
▁normatives	-11.79
▁125	-11.7902
cid	-11.7902
▁CEIP	-11.7903
▁implementar	-11.7904
▁realitzem	-11.7905
SD	-11.7906
Estadi	-11.7906
▁previsible	-11.7907
oració	-11.7907
▁devolució	-11.7907
▁Quines	-11.7908
ambaixador	-11.7909
▁preguntat	-11.7909
cron	-11.791
▁meravellosa	-11.791
▁psicològic	-11.791
▁defensor	-11.791
▁Top	-11.7911
▁conservador	-11.7911
jat	-11.7912
▁uniforme	-11.7912
▁sortim	-11.7912
▁pastor	-11.7912
▁350	-11.7913
mé	-11.7913
▁percebre	-11.7913
▁Pala	-11.7915
<	-11.7918
▁protagonitzat	-11.7918
Cap	-11.7918
▁faciliten	-11.7919
▁57	-11.7922
▁equipada	-11.7923
▁optimitzar	-11.7923
▁dinamitzar	-11.7924
▁seriós	-11.7925
▁democràtics	-11.7925
▁CDC	-11.7925
incorporen	-11.7925
▁xinesa	-11.7927
▁tornant	-11.7933
▁reprodueix	-11.7934
abonar	-11.7934
▁arquitectura	-11.7938
▁polit	-11.7938
agre	-11.7939
▁evita	-11.7941
ders	-11.7941
▁Vega	-11.7942
esquema	-11.7943
▁camió	-11.7944
▁càrregues	-11.7944
▁Berenguer	-11.7944
accedir	-11.7944
oro	-11.7945
▁Dit	-11.7946
emmagatzema	-11.7947
cià	-11.7951
EUiA	-11.7951
anècdota	-11.7951
▁citar	-11.7952
dot	-11.7953
▁britànics	-11.7955
▁IX	-11.7956
▁indis	-11.7957
▁emoció	-11.7958
▁Jerusalem	-11.7958
▁Jiménez	-11.7958
▁republicana	-11.7958
▁Bany	-11.7958
tive	-11.7958
▁maltractament	-11.796
▁còmodes	-11.796
▁japonesa	-11.7961
▁desplaça	-11.7963
▁respectant	-11.7963
▁aquàtic	-11.7965
▁preocupant	-11.7966
afrontar	-11.7967
▁carreres	-11.797
Esc	-11.797
▁King	-11.797
▁tecn	-11.7973
▁retaule	-11.7973
▁notificació	-11.7974
apren	-11.7974
inger	-11.7975
▁donin	-11.7975
▁Kat	-11.7976
▁etcètera	-11.7979
tau	-11.7981
▁varis	-11.7982
▁aeri	-11.7982
▁here	-11.7983
nin	-11.7986
bio	-11.7988
▁Desembre	-11.7988
investidura	-11.7989
▁Solidari	-11.7991
▁Torneig	-11.7993
▁cèlebre	-11.7993
funcion	-11.7993
▁amagat	-11.7994
▁Cruz	-11.7996
▁magistrat	-11.7996
▁safata	-11.8
▁ten	-11.8
expulsió	-11.8003
▁Filologia	-11.8004
stru	-11.8005
▁violenta	-11.8006
▁comissaria	-11.8006
anava	-11.8008
▁Diccionari	-11.8009
▁finances	-11.8014
radi	-11.8014
▁planes	-11.8015
Sal	-11.8016
▁àmpliament	-11.8017
ato	-11.8018
▁tristesa	-11.8018
▁Tau	-11.802
▁passaran	-11.8021
crist	-11.8022
▁aplicada	-11.8023
▁tort	-11.8024
▁Definició	-11.8024
▁fortuna	-11.8024
▁entrenar	-11.8025
▁baralla	-11.8026
▁noble	-11.8027
▁Títol	-11.8028
▁qualificar	-11.8028
Infant	-11.8029
▁1945	-11.8029
assembla	-11.803
▁disp	-11.8031
▁sàpiga	-11.8031
ndra	-11.8032
▁provocant	-11.8032
empatia	-11.8034
▁portaven	-11.8034
▁voluntàries	-11.8034
PL	-11.8035
GB	-11.8036
▁autònom	-11.8037
▁Mala	-11.8038
▁fabricar	-11.8038
▁Gau	-11.8038
▁usat	-11.8039
urg	-11.8041
▁permanència	-11.8041
▁obstacles	-11.8043
▁VIII	-11.8043
▁Center	-11.8043
▁argumenta	-11.8043
▁frega	-11.8044
ICE	-11.8044
[8]	-11.8045
rant	-11.8048
migra	-11.8049
▁recomanació	-11.805
▁cable	-11.8052
▁moderat	-11.8054
cipi	-11.8055
spa	-11.8057
human	-11.8057
▁sorpren	-11.8057
Som	-11.8057
excés	-11.8058
▁decorar	-11.806
▁addicionals	-11.8061
inclouen	-11.8061
Ç	-11.8062
▁Foc	-11.8062
▁Pica	-11.8063
tenir	-11.8063
Qua	-11.8066
acusació	-11.8066
▁samarretes	-11.8066
▁Heu	-11.8066
imputa	-11.8072
▁repartits	-11.8073
▁mirem	-11.8075
▁Media	-11.8075
▁ètica	-11.8075
▁pedagògic	-11.8076
▁assistencial	-11.8078
▁alimentaris	-11.8079
▁Sau	-11.8081
▁tutela	-11.8082
▁preinscripció	-11.8083
▁finançat	-11.8084
pent	-11.8086
▁60%	-11.8086
▁problemàtiques	-11.8087
gestion	-11.809
▁motxilla	-11.8094
▁innovadors	-11.8097
Estadística	-11.8097
▁cantants	-11.8098
▁extreure	-11.8098
▁Massana	-11.8099
▁Dol	-11.8099
UI	-11.8099
▁quilòmetre	-11.8102
▁mirades	-11.8103
hàbitat	-11.8104
ole	-11.8106
▁feixista	-11.8106
▁esmentar	-11.8106
▁cometre	-11.8107
▁guarni	-11.8109
call	-11.811
▁criticat	-11.8111
▁desenvolupada	-11.8111
▁rebot	-11.8112
titud	-11.8112
addi	-11.8114
▁coincid	-11.8116
citat	-11.8117
▁Simon	-11.8117
Estra	-11.812
▁velles	-11.812
▁Washington	-11.8122
esmentat	-11.8122
éssim	-11.8123
▁Free	-11.8123
▁singularitat	-11.8125
▁Pasqual	-11.8125
primer	-11.8125
▁protestes	-11.8126
▁Cabrera	-11.8126
▁Rafel	-11.8127
▁curtes	-11.8128
▁contesta	-11.813
▁Montsant	-11.813
organitzador	-11.8131
▁succe	-11.8132
▁duran	-11.8132
▁suposadament	-11.8133
▁històricament	-11.8133
▁complementàries	-11.8133
Andr	-11.8134
lògiques	-11.8134
▁Esports	-11.8134
mbol	-11.8135
▁àpats	-11.8136
▁interactiu	-11.8137
▁preservació	-11.8137
▁parlarà	-11.8138
▁ISO	-11.8139
▁orientar	-11.8139
▁liderar	-11.8139
▁penseu	-11.814
coc	-11.814
▁teatrals	-11.8141
▁Frederic	-11.8141
▁protector	-11.8142
▁Entrada	-11.8144
▁llaços	-11.8145
▁superfícies	-11.8147
artesania	-11.8147
adults	-11.8147
▁decorat	-11.8147
doc	-11.8148
▁exiliats	-11.8148
tea	-11.8149
▁Trias	-11.815
▁Utilitz	-11.8155
▁Pos	-11.8157
ajuts	-11.8157
afluència	-11.8157
▁resideix	-11.8157
▁raig	-11.8158
Ed	-11.816
▁avala	-11.8161
▁brot	-11.8164
lliga	-11.8164
▁ganivet	-11.8164
▁Zo	-11.8166
GP	-11.8166
▁Bul	-11.8168
sempre	-11.8169
Equip	-11.8169
▁Colòmbia	-11.817
acce	-11.8171
▁pantalons	-11.8171
▁costats	-11.8172
▁Fina	-11.8173
▁Realment	-11.8173
mecànic	-11.8173
▁engegar	-11.8174
▁Llicenciat	-11.8175
▁degustació	-11.8175
▁pila	-11.8175
habitants	-11.8176
▁tolerància	-11.8176
ïtat	-11.8177
▁tou	-11.8177
AVE	-11.8177
▁Pet	-11.8178
▁PDeCAT	-11.8179
assimila	-11.8179
pina	-11.818
▁generant	-11.8182
▁cultius	-11.8182
crat	-11.8182
kes	-11.8182
▁bonics	-11.8183
▁incapacitat	-11.8183
▁virtuts	-11.8184
▁vesti	-11.8184
Agost	-11.8185
▁Pedr	-11.8187
▁llevar	-11.8189
uela	-11.8189
LC	-11.819
▁sorprenents	-11.819
insult	-11.8191
▁Afegeix	-11.8193
▁elaborada	-11.8194
▁tutors	-11.8196
▁mariner	-11.8196
▁lineal	-11.8196
▁Gairebé	-11.8196
▁pitjors	-11.8196
▁incorporant	-11.8197
bran	-11.8198
▁Born	-11.8198
▁Venècia	-11.8203
Alfa	-11.8204
▁compro	-11.8204
ativa	-11.8204
della	-11.8204
▁Destaca	-11.8205
▁disfressa	-11.8205
▁clausura	-11.8206
▁films	-11.8207
▁aixó	-11.8208
▁rovell	-11.821
Mont	-11.8211
▁folk	-11.8217
fè	-11.8221
▁acostumen	-11.8221
ish	-11.8224
espatlla	-11.8226
VAL	-11.8228
lloc	-11.8228
▁distribuïdor	-11.8228
▁Malauradament	-11.8228
▁mallorquí	-11.8228
▁supervisió	-11.8229
Tra	-11.8229
pus	-11.8229
dències	-11.8229
ografies	-11.823
▁botifarra	-11.8232
sit	-11.8235
RC	-11.8238
encies	-11.824
▁Tx	-11.8245
▁immobiliària	-11.8246
▁mensuals	-11.8248
▁vitals	-11.8248
▁seguia	-11.8248
▁Donar	-11.825
rida	-11.8252
html	-11.8253
2001	-11.8255
▁aprenentatges	-11.8256
ICV	-11.8256
▁pertinents	-11.826
▁[+]	-11.826
pie	-11.8261
DS	-11.8261
▁Rot	-11.8261
Actes	-11.8261
▁marí	-11.8262
tch	-11.8266
▁sanció	-11.8268
▁documentat	-11.8268
▁Camin	-11.8269
▁Day	-11.827
▁caos	-11.8271
▁divertides	-11.8272
▁Metro	-11.8274
▁seqüència	-11.8274
®	-11.8278
▁Capital	-11.8282
▁2/4	-11.8283
▁canalla	-11.8283
▁Yu	-11.8284
▁paratge	-11.8286
Hort	-11.8287
▁absurd	-11.8288
▁satisfets	-11.829
▁aplegar	-11.8291
▁hidro	-11.8292
▁variants	-11.8292
▁investigadora	-11.8294
▁Ama	-11.8294
▁difícilment	-11.8294
RAC	-11.8295
▁formigó	-11.8296
▁classificats	-11.8299
▁Iglesias	-11.83
ofensiva	-11.83
▁criança	-11.83
Estudi	-11.8301
rol	-11.8302
▁nazis	-11.8304
çar	-11.8305
▁Pra	-11.8306
▁marquen	-11.8307
▁remet	-11.831
▁trista	-11.8312
IU	-11.8312
tès	-11.8315
Iraq	-11.8315
▁66	-11.8316
▁Vilassar	-11.8319
▁establerta	-11.8319
admiració	-11.832
▁House	-11.8321
▁bru	-11.8323
confidencialitat	-11.8323
exc	-11.8324
cessi	-11.8324
[...]
