<pad>	0
<unk>	0
[CLS]	0
[SEP]	0
[MASK]	0
(	0
)	0
'	0
"	0
-	0
.	0
–	0
£	0
€	0
$	0
·	0
´	0
▁	-2.38205
▁de	-3.12496
,	-3.15841
▁la	-3.55191
▁i	-3.70793
▁a	-3.86776
▁que	-3.96529
’	-4.03344
▁el	-4.05226
▁l	-4.24835
▁d	-4.33288
▁en	-4.38761
▁per	-4.50895
▁les	-4.6608
▁del	-4.70059
s	-4.71182
▁els	-4.83361
▁amb	-4.86258
▁un	-4.88413
▁una	-5.11298
▁al	-5.23692
▁no	-5.28955
▁es	-5.30863
▁és	-5.32373
▁va	-5.49743
▁com	-5.51523
▁més	-5.51845
▁dels	-5.63054
▁ha	-5.67585
:	-5.83608
▁o	-5.88239
a	-5.88794
▁s	-5.91003
▁aquest	-6.29715
▁fer	-6.31357
▁però	-6.34277
▁tot	-6.34763
▁hi	-6.42258
▁ser	-6.43045
▁si	-6.43067
▁també	-6.46403
▁aquesta	-6.47897
▁seu	-6.48347
▁seva	-6.49547
▁molt	-6.49597
▁“	-6.52699
▁als	-6.53354
▁ja	-6.5373
▁ens	-6.59951
un	-6.60329
t	-6.62905
r	-6.65744
▁van	-6.65753
en	-6.69104
es	-6.71091
▁sobre	-6.72179
▁pel	-6.75311
se	-6.75332
”	-6.75765
▁són	-6.76171
▁entre	-6.7775
una	-6.79835
▁cap	-6.81378
▁han	-6.81808
▁fa	-6.82547
ha	-6.82979
o	-6.83131
la	-6.83814
▁fins	-6.83957
▁anys	-6.84609
i	-6.86852
▁des	-6.88012
▁on	-6.88191
n	-6.91886
;	-7.00354
▁perquè	-7.00593
▁tots	-7.0123
▁dia	-7.01303
▁quan	-7.05
▁col	-7.08568
▁això	-7.09747
?	-7.10319
▁part	-7.13108
▁després	-7.15465
▁fet	-7.1569
▁catalunya	-7.15692
▁ho	-7.15781
da	-7.15991
▁gran	-7.16659
l	-7.17629
▁pot	-7.18977
▁així	-7.19843
▁m	-7.22288
▁sense	-7.23082
▁persones	-7.23655
hi	-7.24569
▁està	-7.24889
▁seus	-7.25229
!	-7.25973
▁durant	-7.26264
▁té	-7.27444
▁barcelona	-7.28174
▁estat	-7.29767
any	-7.30023
▁ara	-7.30779
▁què	-7.31333
▁altres	-7.32178
/	-7.33364
▁cada	-7.33602
m	-7.33819
▁tant	-7.3609
▁hem	-7.38114
▁li	-7.38353
▁només	-7.3882
▁dos	-7.3884
des	-7.39696
▁se	-7.4048
▁temps	-7.41729
▁sant	-7.41803
à	-7.43858
ment	-7.43915
▁lloc	-7.46513
e	-7.46859
▁manera	-7.47447
▁em	-7.48522
nt	-7.48653
▁era	-7.5132
▁encara	-7.51571
▁ni	-7.52909
em	-7.5298
▁primer	-7.53367
va	-7.53461
▁qual	-7.54738
▁mateix	-7.54996
▁cal	-7.56784
▁diferents	-7.572
▁ciutat	-7.58715
▁cas	-7.59048
▁vida	-7.6053
▁dir	-7.61178
▁veure	-7.62196
ho	-7.62306
▁2	-7.63351
▁món	-7.63606
▁bé	-7.63842
▁nou	-7.6451
▁1	-7.65779
el	-7.66217
▁sempre	-7.66479
▁seves	-7.67561
▁poder	-7.67837
han	-7.67874
▁tenir	-7.6818
aquest	-7.68552
▁primera	-7.70737
▁nostra	-7.7098
▁totes	-7.7117
▁forma	-7.72145
▁qui	-7.7243
▁projecte	-7.72721
▁tres	-7.72751
▁nostre	-7.72856
▁treball	-7.73612
▁3	-7.74125
ia	-7.75154
▁us	-7.7549
lo	-7.75828
▁passat	-7.75914
▁centre	-7.76494
ar	-7.76643
▁govern	-7.76786
▁casa	-7.77567
▁havia	-7.77715
ajuntament	-7.77842
▁vaig	-7.77958
aquesta	-7.78176
▁contra	-7.79745
in	-7.80769
▁grup	-7.81075
h	-7.81173
les	-7.83393
▁poden	-7.83807
▁millor	-7.84783
▁social	-7.84881
d	-7.84898
▁moment	-7.85101
▁tal	-7.85132
▁nostres	-7.85271
▁uns	-7.85298
▁dies	-7.85591
c	-7.85859
▁pels	-7.87241
▁web	-7.87851
▁tan	-7.88489
▁dues	-7.89037
▁donar	-7.89465
▁segons	-7.8997
an	-7.90766
1	-7.91207
▁sol	-7.91283
▁aquests	-7.91363
▁he	-7.91372
▁nova	-7.91685
▁gent	-7.9219
▁4	-7.92499
▁tota	-7.92765
▁informació	-7.92769
▁jo	-7.93919
▁ben	-7.95713
▁tenen	-7.95864
▁abans	-7.96067
▁dins	-7.96164
▁català	-7.96549
u	-7.96721
▁qualsevol	-7.9685
▁punt	-7.97563
▁publicació	-7.97821
▁serveis	-7.98827
▁general	-7.98846
de	-7.98877
▁davant	-7.98929
▁avui	-7.98997
2	-8.00107
▁servei	-8.0012
▁sigui	-8.01847
at	-8.03185
▁través	-8.03624
▁«	-8.03693
▁serà	-8.04218
▁cosa	-8.04224
▁any	-8.04319
ne	-8.0443
▁vam	-8.04959
▁molts	-8.05133
ven	-8.05593
▁país	-8.05935
▁dades	-8.06233
▁10	-8.0668
▁5	-8.06867
▁setmana	-8.07182
»	-8.07305
li	-8.08187
3	-8.08716
▁aquestes	-8.09783
▁final	-8.09901
▁cop	-8.09914
▁vol	-8.10473
escola	-8.10515
▁estan	-8.1062
▁partir	-8.11189
ts	-8.11435
▁recupera	-8.11463
▁història	-8.11487
▁anar	-8.11632
no	-8.11952
▁banda	-8.12309
estat	-8.12428
▁llibre	-8.13072
”,	-8.13642
▁mes	-8.1402
000	-8.14079
▁re	-8.14397
te	-8.15442
nos	-8.15641
▁activitats	-8.16481
▁programa	-8.16717
▁públic	-8.17093
▁vegada	-8.17154
▁poc	-8.17178
▁tipus	-8.17395
▁́	-8.17572
▁res	-8.17612
▁catalana	-8.17685
]	-8.17963
▁bona	-8.18613
▁n	-8.19008
altres	-8.19239
▁alguns	-8.20098
▁arribar	-8.20132
▁hores	-8.2077
▁moltes	-8.21003
▁curs	-8.21092
▁joan	-8.21104
al	-8.21563
▁poble	-8.21588
▁18	-8.22195
▁trobar	-8.22517
▁grans	-8.22799
▁et	-8.22828
▁bon	-8.23629
▁música	-8.23856
▁unes	-8.24383
me	-8.24686
▁pas	-8.25734
com	-8.25949
▁sinó	-8.26079
▁mai	-8.26322
▁posar	-8.26325
▁6	-8.27211
▁partit	-8.27464
▁altre	-8.27639
ada	-8.28174
▁cultura	-8.28299
▁fan	-8.28312
▁formació	-8.28316
▁coses	-8.28625
▁política	-8.28799
os	-8.28986
los	-8.29248
▁sistema	-8.30882
▁qualitat	-8.31176
▁important	-8.31185
▁suport	-8.31268
▁mar	-8.31613
▁nosaltres	-8.31616
▁aquí	-8.31885
▁terme	-8.32079
▁societat	-8.32117
▁procés	-8.32495
▁nom	-8.32734
▁alumnes	-8.33749
▁quals	-8.34044
▁menys	-8.34594
▁pla	-8.34612
▁canvi	-8.34712
▁altra	-8.34833
▁20	-8.35023
▁podem	-8.3565
octubre	-8.35903
▁tenim	-8.36389
▁gràcies	-8.36657
▁mentre	-8.37119
▁zona	-8.37261
▁carrer	-8.37893
▁universitat	-8.38371
▁[	-8.38646
▁segle	-8.38926
▁persona	-8.39361
és	-8.39428
▁mateixa	-8.39597
▁quatre	-8.39756
▁personal	-8.39825
▁camí	-8.39938
▁12	-8.40544
▁sí	-8.40563
▁socials	-8.41184
▁15	-8.41281
p	-8.41364
▁president	-8.41842
▁dones	-8.42449
er	-8.43013
▁situació	-8.43114
▁passar	-8.43501
▁fent	-8.44465
▁mica	-8.44484
▁llei	-8.44573
▁dret	-8.44731
▁començar	-8.44769
▁|	-8.4502
▁t	-8.45396
aigua	-8.45504
▁8	-8.45564
▁instal	-8.45744
▁nivell	-8.4599
▁segona	-8.4619
art	-8.46617
educació	-8.47107
cat	-8.47447
▁possible	-8.47627
▁haver	-8.4765
▁municipal	-8.47709
▁major	-8.48041
▁9	-8.48784
▁setembre	-8.48909
▁sota	-8.48913
▁llarg	-8.49389
▁gestió	-8.49485
▁salut	-8.49576
▁conèixer	-8.49638
et	-8.49645
▁sentit	-8.49743
▁generalitat	-8.49771
x	-8.49786
▁internacional	-8.49924
ta	-8.50131
equip	-8.5061
▁in	-8.50716
on	-8.50764
▁família	-8.50862
▁7	-8.5097
y	-8.51335
▁plaça	-8.51354
▁josep	-8.51371
▁c	-8.51427
▁diu	-8.51537
▁exemple	-8.51726
ús	-8.51861
▁local	-8.52003
▁força	-8.52413
▁camp	-8.52881
▁doncs	-8.52987
▁comunicació	-8.53134
▁diversos	-8.53478
▁sembla	-8.53555
▁llengua	-8.5359
ció	-8.5414
b	-8.54727
▁feina	-8.54784
▁meu	-8.54821
que	-8.54895
objectiu	-8.54929
▁ell	-8.5552
▁festa	-8.55568
▁tracta	-8.55776
▁etc	-8.55779
▁maig	-8.55944
▁¦	-8.56164
▁il	-8.56308
▁deixar	-8.56339
▁joves	-8.5644
▁participació	-8.56799
▁consell	-8.56902
▁mesos	-8.56954
▁nens	-8.57264
▁novembre	-8.57363
eu	-8.57434
▁juny	-8.57831
▁mi	-8.57946
▁terra	-8.58379
▁relació	-8.58413
▁drets	-8.58477
per	-8.58784
ant	-8.59267
▁productes	-8.59477
▁17	-8.59713
▁espai	-8.59805
▁desenvolupament	-8.59901
▁projectes	-8.59915
▁diverses	-8.60314
▁algunes	-8.60467
▁edició	-8.60895
▁porta	-8.61024
▁resta	-8.61197
▁obres	-8.61215
▁noves	-8.61225
▁dissabte	-8.61361
▁jordi	-8.61464
▁som	-8.61913
▁16	-8.61955
acord	-8.62052
▁fi	-8.6206
▁estar	-8.62246
▁població	-8.62509
▁14	-8.62635
▁segon	-8.62757
▁‘	-8.63065
▁alguna	-8.6312
▁dona	-8.63442
▁fou	-8.63454
▁vegades	-8.63589
▁aconseguir	-8.63716
▁compte	-8.63747
na	-8.63754
▁potser	-8.63829
▁total	-8.64298
▁juliol	-8.6431
▁marc	-8.64455
▁saber	-8.64648
▁sector	-8.6475
▁empreses	-8.64782
▁cultural	-8.64867
▁nacional	-8.66075
▁premi	-8.66414
▁clar	-8.6644
▁mitjançant	-8.6654
é	-8.66606
▁club	-8.66839
▁realitat	-8.6693
▁seguretat	-8.67244
▁guerra	-8.67374
▁tenia	-8.67503
▁gaudir	-8.67741
▁13	-8.6801
è	-8.68292
▁sobretot	-8.68322
▁seua	-8.68573
abril	-8.68683
▁març	-8.68863
associació	-8.68874
4	-8.69392
▁ells	-8.6946
▁punts	-8.69582
▁permet	-8.69597
▁nit	-8.70025
▁joc	-8.70136
▁fundació	-8.70547
▁teatre	-8.70583
▁pública	-8.71065
▁sala	-8.71084
us	-8.71198
▁meva	-8.71488
▁xarxa	-8.71639
▁veu	-8.71868
▁espanyol	-8.72154
▁nord	-8.7224
or	-8.7226
▁majoria	-8.72301
empresa	-8.72322
▁jornada	-8.72322
▁desembre	-8.72414
▁direcció	-8.72551
▁participar	-8.72918
▁foto	-8.73118
laboració	-8.73212
▁santa	-8.73219
▁30	-8.73311
▁grups	-8.73352
▁b	-8.7366
▁professionals	-8.73748
▁recerca	-8.73839
▁vi	-8.73857
▁massa	-8.7387
▁nous	-8.73881
▁podeu	-8.74013
▁paper	-8.74149
g	-8.74456
▁eren	-8.74508
▁respecte	-8.74604
re	-8.74659
obra	-8.74691
ns	-8.7546
▁mal	-8.75592
cions	-8.75682
▁cos	-8.75876
ls	-8.75923
5	-8.76207
▁2018	-8.76346
▁diumenge	-8.76559
▁treballar	-8.76792
▁costat	-8.76808
▁valència	-8.77133
▁centres	-8.77145
▁futur	-8.77214
f	-8.77348
▁estem	-8.77469
espai	-8.77647
▁matí	-8.77659
▁gener	-8.77843
▁catalans	-8.77856
▁maria	-8.78067
altra	-8.78089
▁19	-8.78269
▁especial	-8.78318
▁mapa	-8.78737
▁divendres	-8.78892
▁girona	-8.79084
▁mercat	-8.79089
▁tema	-8.79241
▁public	-8.79515
▁tothom	-8.79702
▁temporada	-8.79849
▁recursos	-8.799
▁finalment	-8.8013
▁mostra	-8.80176
▁països	-8.80291
▁tu	-8.80499
▁presentar	-8.80541
▁territori	-8.8063
▁fons	-8.80706
▁mort	-8.80764
activitat	-8.80798
▁seguir	-8.808
▁presentació	-8.80831
▁passa	-8.80953
▁oculta	-8.81088
▁llibres	-8.81216
▁proper	-8.81251
▁línia	-8.81701
▁tornar	-8.81836
▁25	-8.81975
▁algun	-8.82091
▁crear	-8.82227
▁realitzar	-8.82358
rà	-8.82825
hora	-8.8286
▁model	-8.82984
▁entitats	-8.83137
ades	-8.83178
▁troba	-8.83179
▁fora	-8.8338
▁euros	-8.83457
▁parlar	-8.83534
▁conjunt	-8.83591
▁professional	-8.83679
ista	-8.83685
▁ple	-8.83758
▁director	-8.83841
▁comunitat	-8.83854
▁cinc	-8.83994
▁can	-8.84343
▁càrrec	-8.84375
ra	-8.84608
▁mitjans	-8.84722
▁milions	-8.85079
▁condicions	-8.85088
▁popular	-8.85674
▁petit	-8.85778
▁servir	-8.8587
▁acabar	-8.85879
í	-8.85927
▁cor	-8.85984
▁h	-8.85999
▁famílies	-8.86122
▁natural	-8.86182
▁favorita	-8.86474
▁volem	-8.86612
is	-8.8668
▁ofereix	-8.86769
▁minuts	-8.86805
▁p	-8.86888
▁estava	-8.87103
aquests	-8.87177
▁principal	-8.87232
▁creació	-8.87412
▁departament	-8.8756
▁teu	-8.8812
▁co	-8.88182
k	-8.88501
▁base	-8.88503
▁problemes	-8.8879
▁prop	-8.88841
30	-8.892
▁mig	-8.89218
▁febrer	-8.89746
▁mare	-8.90175
estiu	-8.90186
àmbit	-8.90296
▁molta	-8.90536
▁especialment	-8.90754
▁millorar	-8.9076
▁2017	-8.91091
▁visita	-8.91299
▁viure	-8.9132
▁barri	-8.91651
▁pau	-8.91837
▁fem	-8.91862
▁actualment	-8.91952
▁imatge	-8.92066
▁pàgina	-8.92095
▁disseny	-8.92126
▁motiu	-8.92294
▁allò	-8.92655
▁espanya	-8.93156
▁mà	-8.93198
▁parc	-8.93199
vos	-8.93501
ja	-8.93542
▁son	-8.93842
ca	-8.94416
▁museu	-8.94501
▁the	-8.94645
▁11	-8.94692
▁vila	-8.9496
▁equip	-8.95419
ir	-8.95564
▁lliure	-8.95656
▁21	-8.95665
▁llegir	-8.95692
▁valor	-8.95901
accés	-8.95953
institut	-8.96107
▁via	-8.96176
▁membres	-8.96187
▁format	-8.96244
▁llocs	-8.96358
he	-8.96415
▁construcció	-8.96456
si	-8.96609
▁data	-8.96616
▁aquell	-8.9696
▁malgrat	-8.97107
atenció	-8.97249
▁obra	-8.97325
isme	-8.97688
▁proposta	-8.97936
7	-8.9801
ran	-8.98099
▁nombre	-8.98127
▁jove	-8.98151
▁municipi	-8.98183
▁dit	-8.98234
aquestes	-8.98417
▁jocs	-8.986
▁fàcil	-8.98673
▁gairebé	-8.98816
▁resultats	-8.98826
▁ve	-8.99068
co	-8.99215
ga	-8.99354
▁campanya	-8.99504
dor	-8.99609
▁tingut	-8.99662
▁idea	-8.99773
▁tarda	-8.99782
acte	-8.99816
ma	-9.00142
v	-9.00304
▁costa	-9.0039
▁resultat	-9.00792
▁seria	-9.01353
▁ciutadans	-9.01449
▁color	-9.01509
▁capacitat	-9.01612
▁millors	-9.01674
▁pare	-9.01682
ó	-9.01712
▁24	-9.01735
▁haurà	-9.01739
▁aquells	-9.01757
▁superior	-9.01916
▁y	-9.01976
▁cara	-9.0202
▁casos	-9.02114
▁títol	-9.02236
▁central	-9.02435
▁dur	-9.02472
▁feia	-9.02739
▁control	-9.02804
▁metres	-9.02887
▁nov	-9.02945
▁següent	-9.03185
▁problema	-9.03218
▁pots	-9.03348
▁pares	-9.03389
▁vist	-9.0364
▁baix	-9.03846
do	-9.03912
▁sa	-9.03926
▁sud	-9.03986
▁mas	-9.04088
era	-9.04092
▁coneixement	-9.04135
▁medi	-9.04148
▁portar	-9.04241
▁caràcter	-9.04244
▁primers	-9.04307
▁paraules	-9.04468
▁podria	-9.0454
▁sortir	-9.04587
▁presència	-9.04715
▁festival	-9.04819
lacions	-9.04901
▁farà	-9.04904
agost	-9.04973
▁prou	-9.05011
▁crec	-9.05112
▁espais	-9.05122
ien	-9.05166
▁tindrà	-9.05166
▁propi	-9.05415
▁font	-9.05498
0	-9.05601
▁sortida	-9.05628
▁principals	-9.05679
▁con	-9.05751
▁material	-9.05884
▁bo	-9.0609
▁activitat	-9.06106
▁novel	-9.06266
▁present	-9.06755
▁protecció	-9.06808
▁por	-9.06853
▁déu	-9.0686
▁pròpia	-9.06883
▁ahir	-9.07011
▁producció	-9.07019
▁polítiques	-9.07534
▁causa	-9.07642
▁tarragona	-9.07668
▁pensar	-9.07769
▁sols	-9.07894
▁necessitats	-9.07973
▁civil	-9.07977
▁petits	-9.08055
19	-9.08252
▁2016	-9.08275
▁sèrie	-9.08484
▁experiència	-9.08516
▁marxa	-9.08635
▁dóna	-9.08664
els	-9.08719
▁continua	-9.08884
▁/	-9.08999
organització	-9.09034
▁sent	-9.09074
▁pugui	-9.09085
▁comissió	-9.09161
▁22	-9.093
▁defensa	-9.094
itat	-9.09451
església	-9.09585
▁lleida	-9.10004
le	-9.10015
6	-9.10026
▁ningú	-9.10249
▁preu	-9.10686
▁amics	-9.10928
▁#	-9.10935
▁econòmica	-9.11067
▁anat	-9.11106
entrada	-9.11379
▁polítics	-9.11457
▁llum	-9.11513
▁quedar	-9.11672
▁vista	-9.11684
ats	-9.11826
▁partits	-9.11844
▁llavors	-9.11942
▁sovint	-9.1228
istes	-9.12433
▁explicar	-9.12443
▁concurs	-9.12694
▁text	-9.12738
▁madrid	-9.12768
▁temes	-9.12792
eta	-9.1282
▁pere	-9.12876
▁compromís	-9.13108
altre	-9.13177
▁taula	-9.13186
usuari	-9.13195
▁dijous	-9.13253
▁llibertat	-9.13348
▁hauria	-9.13502
▁cuina	-9.13773
il	-9.13915
00	-9.13954
▁fills	-9.14001
▁teva	-9.1402
▁decidir	-9.14091
▁just	-9.14435
z	-9.14566
▁voltant	-9.14574
▁necessitat	-9.14653
▁castell	-9.14676
▁cert	-9.1473
▁trobada	-9.14901
sa	-9.15123
▁tinc	-9.1515
▁referència	-9.15175
▁mantenir	-9.15254
▁prova	-9.15257
•	-9.15548
▁valencià	-9.15847
▁comença	-9.15882
▁2015	-9.16095
▁mundial	-9.16202
▁propostes	-9.16211
estudi	-9.16297
▁podrà	-9.1655
▁pp	-9.16661
ara	-9.1668
▁rei	-9.16691
▁taller	-9.16769
▁període	-9.17153
▁quin	-9.17361
▁moviment	-9.17394
administració	-9.17471
▁havien	-9.17474
▁viatge	-9.17558
▁funció	-9.17647
▁pa	-9.17693
▁jaume	-9.17701
to	-9.17851
▁consum	-9.1789
▁riu	-9.17944
▁segur	-9.18437
▁biblioteca	-9.18594
▁usuaris	-9.18609
▁diferent	-9.18618
it	-9.18629
▁to	-9.18678
▁contacte	-9.1875
▁millora	-9.1881
acció	-9.18819
▁elements	-9.1883
▁locals	-9.18962
▁públics	-9.19106
▁baixa	-9.19173
▁actual	-9.19357
ria	-9.1982
▁grau	-9.19821
▁importants	-9.19899
espanya	-9.199
▁hagi	-9.19954
▁veïns	-9.20111
▁explica	-9.20179
exposició	-9.20289
▁presenta	-9.20392
lació	-9.204
▁mans	-9.20457
▁tractament	-9.20582
▁espanyola	-9.20668
▁pogut	-9.20792
▁vall	-9.2083
▁puguin	-9.20971
havia	-9.21079
▁turisme	-9.21135
▁resposta	-9.21169
▁veritat	-9.21224
▁23	-9.21282
▁donat	-9.21309
amb	-9.21338
▁màxim	-9.21397
▁fira	-9.21757
▁estudis	-9.21861
▁treballadors	-9.21896
▁classe	-9.21958
▁patrimoni	-9.21981
▁iniciativa	-9.22019
▁petita	-9.22134
▁participants	-9.22239
▁arriba	-9.22298
▁pràctica	-9.22333
▁lectura	-9.2252
▁pre	-9.22543
▁ambient	-9.22646
di	-9.22719
ament	-9.22829
▁concert	-9.22921
▁cicle	-9.2293
▁responsable	-9.22967
▁tampoc	-9.23028
▁polític	-9.23076
▁demanar	-9.2322
▁compartir	-9.23276
ri	-9.23307
▁queda	-9.23433
8	-9.2349
▁seran	-9.23511
▁dilluns	-9.23518
▁parlament	-9.23536
▁rebre	-9.23647
▁creu	-9.23687
▁musical	-9.23849
▁utilitzar	-9.24011
▁homes	-9.24049
▁infantil	-9.24087
▁intel	-9.24372
▁continguts	-9.25117
▁oficial	-9.25259
▁europea	-9.25263
▁mil	-9.25319
▁mitjà	-9.25368
▁viu	-9.25538
ós	-9.25572
▁me	-9.2563
illa	-9.2591
▁quina	-9.25932
ter	-9.25993
▁valors	-9.26226
▁tercer	-9.26265
▁mesura	-9.26347
▁sessió	-9.26414
▁moments	-9.266
▁ella	-9.26614
▁unió	-9.26648
▁estats	-9.26671
▁mesures	-9.26708
ci	-9.26716
▁endavant	-9.2675
▁real	-9.2681
▁>	-9.27047
▁crisi	-9.27154
▁deu	-9.27175
▁imatges	-9.27225
▁dreta	-9.27254
▁hora	-9.2729
ies	-9.27332
▁27	-9.27481
▁fill	-9.27527
▁celebrar	-9.27592
▁evitar	-9.27627
im	-9.27868
ble	-9.27901
ing	-9.27921
▁possibilitat	-9.27924
▁diari	-9.27967
▁equips	-9.28005
▁alhora	-9.28056
▁sap	-9.28212
▁menjar	-9.28228
▁festes	-9.28275
▁empresa	-9.28414
▁fos	-9.28571
▁trobem	-9.28595
▁mena	-9.28875
esquerra	-9.28888
▁eleccions	-9.28936
▁lluita	-9.2897
aquí	-9.28982
▁enllà	-9.29026
▁debat	-9.29195
▁muntanya	-9.29374
▁fets	-9.29854
▁publicat	-9.30041
▁e	-9.30081
▁sentir	-9.30114
▁allà	-9.30207
haver	-9.30466
▁aviat	-9.30528
▁siguin	-9.30788
▁premis	-9.30811
▁producte	-9.30869
▁home	-9.30874
▁recorregut	-9.30879
▁canviar	-9.30982
▁clients	-9.311
▁volen	-9.31123
▁oferir	-9.31226
▁diners	-9.31237
▁comerç	-9.31314
▁capital	-9.31651
alt	-9.31699
10	-9.31735
▁tècnica	-9.3177
▁2014	-9.3186
▁objectius	-9.31929
▁mateixos	-9.31981
▁voluntat	-9.31986
▁cel	-9.32
▁parla	-9.32125
▁guanyar	-9.32177
▁laboral	-9.32284
▁falta	-9.32296
▁digital	-9.32353
▁comarca	-9.32648
▁tard	-9.32652
interès	-9.32704
▁visitar	-9.32859
▁transport	-9.32899
▁número	-9.32902
▁cinema	-9.32914
ti	-9.32957
▁comú	-9.32987
▁correu	-9.33019
▁sé	-9.33029
▁responsabilitat	-9.33154
economia	-9.33535
lar	-9.33596
▁algú	-9.33713
▁llista	-9.33822
@	-9.33823
▁pi	-9.33921
▁difícil	-9.33962
▁posa	-9.33989
9	-9.34013
edat	-9.3429
▁clau	-9.34372
mo	-9.34549
▁carrers	-9.34697
▁memòria	-9.34838
▁companyia	-9.34842
▁importància	-9.34848
▁infants	-9.34891
▁ciutadania	-9.35008
alcalde	-9.35051
ells	-9.35176
▁ajudar	-9.35263
autor	-9.35399
▁canvis	-9.35606
▁valenciana	-9.35628
18	-9.35755
ed	-9.35851
uns	-9.36036
▁familiar	-9.36298
▁deixa	-9.36362
▁28	-9.3641
▁aspectes	-9.36429
▁podran	-9.36461
▁zones	-9.36516
informació	-9.36532
aire	-9.36538
▁miquel	-9.36548
ni	-9.36593
inici	-9.36671
▁igual	-9.37026
!!	-9.37111
▁50	-9.37112
▁tasca	-9.37217
▁obert	-9.3725
▁tallers	-9.37358
▁entrar	-9.37442
article	-9.37526
▁marca	-9.37557
▁x	-9.37559
▁relacions	-9.37586
▁actes	-9.37627
▁gènere	-9.37638
▁xarxes	-9.37723
▁categoria	-9.37749
▁26	-9.37833
man	-9.37844
ació	-9.37898
▁prendre	-9.37985
▁principi	-9.38069
▁—	-9.38197
àrea	-9.38204
▁promoció	-9.38205
▁escoles	-9.3822
▁seguit	-9.3826
▁objectiu	-9.38294
▁set	-9.38311
▁ruta	-9.38386
▁municipals	-9.38402
▁planta	-9.38583
▁perdre	-9.38669
▁nadal	-9.38915
▁jugar	-9.38946
entorn	-9.38973
tes	-9.39053
▁dimecres	-9.39056
▁te	-9.39223
▁treballs	-9.3936
▁descobrir	-9.39376
ina	-9.39444
alta	-9.39616
▁carles	-9.39793
▁necessari	-9.39887
▁palau	-9.39894
▁ràdio	-9.39911
▁illes	-9.39914
▁termini	-9.39948
▁darrers	-9.40041
w	-9.40057
▁juntament	-9.40099
▁be	-9.40439
▁2013	-9.40524
▁darrera	-9.40531
▁entorn	-9.40541
▁pocs	-9.40574
▁compta	-9.40596
▁arribat	-9.40785
ensenyament	-9.40845
▁últims	-9.40875
▁continuar	-9.40899
▁escrit	-9.40907
▁plataforma	-9.40982
▁accions	-9.41067
▁sis	-9.41158
▁km	-9.41237
▁sort	-9.41427
▁2012	-9.41431
▁risc	-9.41627
11	-9.4178
▁materials	-9.41787
lectiu	-9.4196
▁enguany	-9.42168
▁francesc	-9.42486
▁ca	-9.42537
▁situat	-9.42704
▁següents	-9.42749
▁matèria	-9.42756
▁dubte	-9.42917
rem	-9.42943
▁aquella	-9.42946
▁personatges	-9.42964
▁econòmic	-9.42999
▁recordar	-9.43177
▁val	-9.4325
experiència	-9.4327
activitats	-9.43296
▁estic	-9.43357
▁companys	-9.43366
▁futbol	-9.43401
ització	-9.43469
lícula	-9.43533
▁bloc	-9.43579
▁convertir	-9.436
eix	-9.43626
▁diputació	-9.43799
origen	-9.43815
▁contingut	-9.43856
▁directament	-9.4417
▁quantitat	-9.44304
lecció	-9.4434
fa	-9.44361
▁peu	-9.44532
car	-9.44624
▁port	-9.44643
▁tradicional	-9.44927
ge	-9.4493
▁ex	-9.44932
ex	-9.4507
▁desenvolupar	-9.45073
legi	-9.45075
▁paraula	-9.45082
j	-9.45125
▁castellà	-9.45141
▁humans	-9.45286
▁bar	-9.45352
està	-9.45412
­	-9.456
▁entendre	-9.45601
▁29	-9.45634
▁favor	-9.45698
▁literatura	-9.4577
▁públiques	-9.45798
▁sal	-9.45817
▁dimarts	-9.46136
▁frança	-9.46243
▁sub	-9.46323
entitat	-9.46346
ell	-9.46352
jo	-9.46453
▁escolar	-9.46462
▁tècniques	-9.46465
▁posició	-9.46693
anar	-9.46727
vi	-9.46753
▁document	-9.46785
▁pràctiques	-9.46834
▁podia	-9.46907
ce	-9.47014
▁policia	-9.47014
▁institucions	-9.47126
entre	-9.47141
▁construir	-9.4726
edifici	-9.47303
▁funcionament	-9.47425
▁finalitat	-9.47528
▁personals	-9.47578
estar	-9.47678
▁so	-9.47766
▁violència	-9.47769
▁blog	-9.47783
▁professor	-9.47841
▁premsa	-9.4796
▁versió	-9.48405
▁finals	-9.48538
▁conegut	-9.48585
▁tercera	-9.48632
▁programes	-9.48657
▁carretera	-9.48687
▁f	-9.4872
▁vídeo	-9.48765
▁independència	-9.48802
▁plena	-9.4895
▁buscar	-9.48967
▁selecció	-9.49046
▁alta	-9.49051
▁reunió	-9.49202
▁tècnic	-9.49368
▁qüestió	-9.49389
▁cursos	-9.4941
▁formar	-9.49411
▁article	-9.49502
▁totalment	-9.49545
ro	-9.49581
▁ma	-9.49582
▁pes	-9.49588
▁of	-9.49813
característiques	-9.49934
europa	-9.49962
dors	-9.49971
▁ramon	-9.50026
avui	-9.50107
um	-9.50174
▁anterior	-9.50181
▁diuen	-9.50737
amor	-9.50928
▁estudiants	-9.50932
ix	-9.50989
ebre	-9.51075
▁ganes	-9.51082
▁pro	-9.51389
hotel	-9.51569
▁foc	-9.51574
ocupació	-9.51623
▁estaven	-9.51812
▁europa	-9.51819
▁cursa	-9.51822
home	-9.5183
▁troben	-9.51846
▁electrònic	-9.52004
▁televisió	-9.5202
▁g	-9.5212
15	-9.52143
▁disc	-9.522
▁escriure	-9.52201
▁mitjana	-9.52324
▁notícies	-9.52392
▁convocatòria	-9.52398
▁units	-9.52458
▁municipis	-9.52458
▁justícia	-9.52459
▁fotografia	-9.52537
▁inclou	-9.52655
▁figura	-9.52678
▁secció	-9.52731
▁primeres	-9.52732
▁pista	-9.52797
!!!	-9.52873
▁post	-9.52887
▁tecnologia	-9.52943
▁darrer	-9.52966
▁setmanes	-9.53026
ba	-9.53043
▁realment	-9.53272
▁actuacions	-9.53276
▁comprar	-9.53349
▁nenes	-9.5342
▁raó	-9.53456
▁formes	-9.53528
▁primària	-9.53528
▁recull	-9.53645
▁principis	-9.53732
▁mínim	-9.53744
▁interessant	-9.53863
▁balears	-9.54026
aprenentatge	-9.54196
ques	-9.54241
▁posat	-9.54241
▁revista	-9.54325
▁100	-9.54503
actual	-9.54596
▁visió	-9.54649
▁obtenir	-9.54663
qui	-9.55086
▁comercial	-9.55128
▁llarga	-9.55171
pa	-9.55298
hospital	-9.55346
▁ciutats	-9.55392
▁lliga	-9.55463
▁cotxe	-9.55487
▁terrassa	-9.55548
▁vols	-9.55681
▁sistemes	-9.55832
▁tens	-9.55861
▁directe	-9.55898
▁blanc	-9.55951
▁destacar	-9.55989
▁2011	-9.56004
▁bones	-9.5601
interior	-9.56124
▁celebració	-9.56169
ella	-9.56212
▁aquelles	-9.56245
▁federació	-9.56382
▁varen	-9.56427
▁lluís	-9.56617
ins	-9.56708
agrada	-9.56915
ch	-9.56949
▁culturals	-9.56967
▁disposa	-9.57
▁república	-9.57018
actuació	-9.57074
▁40	-9.57082
▁gaire	-9.57135
▁internet	-9.57263
ets	-9.57325
▁senyor	-9.57496
▁junta	-9.57503
▁creixement	-9.57546
▁colors	-9.57553
▁cost	-9.57629
▁antoni	-9.57649
▁decisió	-9.5771
▁torre	-9.57747
▁segueix	-9.57753
▁aprendre	-9.57955
▁organitzat	-9.58174
osa	-9.58207
▁accedir	-9.58229
últim	-9.58299
▁vull	-9.58372
▁puc	-9.58451
▁congrés	-9.58514
▁jugadors	-9.58515
▁membre	-9.58609
▁gust	-9.58667
▁coll	-9.58937
▁car	-9.59
▁presentat	-9.59017
ic	-9.59039
▁jornades	-9.59071
▁platja	-9.59241
oli	-9.59295
▁mallorca	-9.59307
▁tradició	-9.59326
▁aconseguit	-9.59444
▁torna	-9.59525
▁fotos	-9.59859
▁inter	-9.59937
▁oberta	-9.59955
▁continuació	-9.59999
▁sóc	-9.60003
ers	-9.60067
▁garantir	-9.60208
▁manteniment	-9.6052
▁obrir	-9.60547
ava	-9.60617
època	-9.60628
▁pobles	-9.60643
▁and	-9.6085
▁doble	-9.60873
▁explicat	-9.61112
ten	-9.61121
▁esta	-9.61133
alumnat	-9.61188
▁acabat	-9.6128
▁idees	-9.61345
▁sigut	-9.61397
▁proves	-9.6153
aplicació	-9.61569
euros	-9.61647
▁estudi	-9.61794
▁classes	-9.61835
▁decret	-9.6196
▁fase	-9.62016
▁hagut	-9.62048
▁tenien	-9.62284
bo	-9.62337
▁resolució	-9.62357
▁industrial	-9.62363
▁francès	-9.62479
▁2010	-9.6264
▁anem	-9.62694
▁acte	-9.62751
▁mostrar	-9.62752
▁peces	-9.62753
▁rebut	-9.62781
▁fe	-9.62834
▁portes	-9.62919
est	-9.62944
▁ús	-9.63008
▁propietat	-9.63033
▁natura	-9.63167
▁trobat	-9.63472
▁terres	-9.63485
▁serra	-9.63549
▁efectes	-9.63579
▁històric	-9.63627
▁física	-9.64134
fi	-9.64226
▁realitzat	-9.64229
▁ajuda	-9.6429
▁ciència	-9.64304
únic	-9.64499
go	-9.64653
://	-9.64748
▁educatiu	-9.65058
▁v	-9.65123
▁recuperar	-9.65138
▁josé	-9.65216
esport	-9.65252
▁pàgines	-9.65261
res	-9.65337
▁fort	-9.65364
▁victòria	-9.6537
▁reconeixement	-9.65528
▁eines	-9.6553
ana	-9.65669
▁fotografies	-9.65789
▁pagar	-9.65802
ent	-9.65901
▁facilitar	-9.65928
▁unitat	-9.65928
▁pedra	-9.65992
nes	-9.66024
▁processos	-9.66036
▁jesús	-9.66037
▁cases	-9.66041
▁deixat	-9.66109
▁coneixements	-9.66134
▁31	-9.66196
▁volta	-9.66228
▁disposició	-9.66328
▁tv	-9.66372
mar	-9.66391
▁treballant	-9.66448
▁representació	-9.66513
▁original	-9.66646
▁sabem	-9.6668
▁treure	-9.66859
▁suposa	-9.66923
▁mitja	-9.66924
▁ulls	-9.66996
▁documentació	-9.67142
▁puig	-9.6718
▁europeu	-9.67188
itzar	-9.67442
▁considera	-9.6746
▁diferència	-9.67757
▁obstant	-9.68153
▁vostra	-9.68257
▁parts	-9.68321
energia	-9.68366
▁ciències	-9.68409
▁consulta	-9.68446
▁front	-9.68472
12	-9.68622
▁quart	-9.68779
▁règim	-9.69008
iva	-9.69023
▁clara	-9.69096
▁teniu	-9.69096
»,	-9.69134
▁èxit	-9.69206
elles	-9.69227
▁passant	-9.69233
▁places	-9.69273
▁damunt	-9.69273
▁pressupost	-9.69313
▁j	-9.69376
▁carta	-9.69479
▁venda	-9.69495
▁heu	-9.69566
▁animals	-9.69717
▁for	-9.69783
▁seguint	-9.69903
▁client	-9.6998
ul	-9.69988
▁cançons	-9.70185
actualitat	-9.70223
èxit	-9.70436
▁tranquil	-9.70473
▁reserva	-9.70477
▁tren	-9.705
▁global	-9.70615
ad	-9.70692
mes	-9.707
▁publicar	-9.70752
▁negoci	-9.70868
▁representants	-9.71158
▁donen	-9.71164
estudis	-9.71177
▁meitat	-9.712
▁programació	-9.71377
▁línies	-9.71459
▁acaba	-9.7153
▁anti	-9.71714
int	-9.71974
▁david	-9.72013
am	-9.72299
▁organitza	-9.72313
_	-9.72379
▁arreu	-9.72403
▁quedat	-9.72442
▁camps	-9.72442
▁familiars	-9.72524
▁anglès	-9.72537
▁mont	-9.72603
▁volia	-9.72608
lent	-9.72739
▁fusta	-9.72811
▁escola	-9.7285
▁catalanes	-9.7286
[	-9.72955
▁quasi	-9.72994
▁lluny	-9.73169
▁reus	-9.73197
▁poesia	-9.73213
▁formen	-9.73288
▁para	-9.73403
▁excel	-9.73414
▁k	-9.73535
▁martí	-9.73611
▁sopar	-9.73678
▁manca	-9.7374
estació	-9.73758
▁negre	-9.73813
▁demana	-9.73902
▁situacions	-9.74007
▁mobilitat	-9.74114
▁rosa	-9.7417
▁màxima	-9.74216
▁pujar	-9.74266
▁faci	-9.7444
▁naturals	-9.74521
gar	-9.74557
▁iniciar	-9.74628
▁meus	-9.74965
▁registre	-9.74981
▁mon	-9.74984
▁context	-9.7508
net	-9.75135
▁pont	-9.75181
▁solució	-9.75187
+	-9.75226
▁tram	-9.7526
▁habitual	-9.75451
▁conferència	-9.75868
▁pell	-9.76004
▁socis	-9.76135
▁vuit	-9.76307
▁pregunta	-9.76427
17	-9.76505
unes	-9.76584
tar	-9.76776
▁conveni	-9.76798
▁democràcia	-9.76908
▁morir	-9.7692
▁feta	-9.76921
▁dinar	-9.76938
con	-9.76939
▁restaurant	-9.77058
▁tècnics	-9.77059
▁na	-9.77084
▁demà	-9.77107
▁comarcal	-9.77285
▁lo	-9.7731
▁xx	-9.77397
▁canal	-9.77414
▁alt	-9.776
eso	-9.77725
▁paisatge	-9.77822
▁vehicles	-9.77843
▁roca	-9.77963
▁concepte	-9.78022
ber	-9.7803
▁vallès	-9.78051
▁forces	-9.78085
ordre	-9.78094
▁educació	-9.78295
▁super	-9.78378
▁pretén	-9.78427
▁possibles	-9.78445
▁rep	-9.78493
▁gràcia	-9.7855
ida	-9.78632
▁artistes	-9.78653
▁bons	-9.78683
▁san	-9.7876
més	-9.7881
▁carrera	-9.7891
▁necessita	-9.78941
▁nen	-9.79014
▁mirar	-9.79085
això	-9.79116
▁contrari	-9.79133
▁tenint	-9.79434
▁cent	-9.79508
▁celebra	-9.79558
als	-9.79605
▁codi	-9.79811
▁presó	-9.79832
▁normativa	-9.79832
▁0	-9.79839
▁roba	-9.79884
▁documents	-9.79944
▁colla	-9.79946
▁ritme	-9.79991
▁venir	-9.80059
▁nota	-9.80144
▁fonts	-9.80166
▁vent	-9.80262
▁treballa	-9.80332
▁permetre	-9.8052
▁petites	-9.80665
▁comentaris	-9.80807
▁precisament	-9.80882
20	-9.80882
▁2009	-9.80889
▁60	-9.80977
▁malaltia	-9.81002
▁creat	-9.81097
▁experiències	-9.81207
▁intervenció	-9.81217
▁llobregat	-9.81225
▁pena	-9.81266
▁representa	-9.81267
▁sessions	-9.81401
▁barça	-9.81507
▁aniversari	-9.81571
▁guia	-9.81654
▁recorda	-9.81674
▁definitiva	-9.81755
ver	-9.81757
▁passada	-9.81835
▁mestres	-9.81859
▁funcions	-9.81908
▁dalt	-9.81985
▁exposició	-9.82002
▁has	-9.8203
etes	-9.82234
▁tribunal	-9.8224
▁regidor	-9.82289
▁articles	-9.82334
▁destaca	-9.82444
▁àmbits	-9.82451
habitatge	-9.82465
▁llegint	-9.82601
cal	-9.82617
▁internacionals	-9.82731
▁donant	-9.82778
be	-9.8282
▁atenció	-9.82865
edició	-9.82888
▁començat	-9.83002
ves	-9.83004
▁paral	-9.83008
▁educativa	-9.83037
▁parella	-9.83167
▁agents	-9.83352
▁habitants	-9.83377
▁surt	-9.83383
▁munt	-9.83392
▁ball	-9.83404
estil	-9.83518
▁sang	-9.83723
▁posteriorment	-9.83852
▁missatge	-9.83866
▁vint	-9.83873
▁particular	-9.83916
po	-9.84034
▁interessos	-9.8416
▁parell	-9.84189
▁preguntes	-9.84327
▁tingui	-9.84544
oses	-9.8458
▁tecnologies	-9.84635
▁sabadell	-9.84802
▁propis	-9.84809
▁confiança	-9.84816
lusió	-9.84863
▁cançó	-9.84962
▁professors	-9.85007
▁tocar	-9.85044
ajuda	-9.85076
q	-9.85283
▁vostre	-9.85363
16	-9.85565
▁cura	-9.85574
▁eina	-9.85708
▁permeten	-9.85766
▁època	-9.85819
▁pròpies	-9.85866
▁tasques	-9.85892
▁humà	-9.85894
▁xavier	-9.85905
▁caixa	-9.85933
▁mestre	-9.85933
▁intentar	-9.8596
▁vot	-9.86002
▁reflexió	-9.86036
▁autor	-9.86039
▁concret	-9.86082
▁pagament	-9.86256
▁montserrat	-9.86315
ton	-9.86386
ll	-9.86477
▁possibilitats	-9.86479
▁accés	-9.86493
▁plantes	-9.86495
▁llenguatge	-9.8654
▁superar	-9.86563
as	-9.86576
▁nivells	-9.86641
▁tractar	-9.86943
▁trans	-9.86948
▁recollir	-9.86976
▁anteriors	-9.86981
▁consultar	-9.87022
▁conseller	-9.87031
▁difusió	-9.87157
▁investigació	-9.87202
▁personatge	-9.8724
▁bosc	-9.87246
son	-9.87257
▁juan	-9.87263
▁interior	-9.87327
assemblea	-9.87345
▁corresponent	-9.8743
▁entrada	-9.87502
▁humana	-9.87559
▁2007	-9.87669
osos	-9.8769
▁afegir	-9.87806
▁motius	-9.87822
dia	-9.879
▁trobareu	-9.87908
arribada	-9.87919
única	-9.87941
▁resulta	-9.87942
▁volum	-9.8807
▁crítica	-9.88088
▁aigua	-9.88089
▁art	-9.88116
▁participat	-9.88129
gui	-9.88162
▁junts	-9.88463
ig	-9.88495
▁escoltar	-9.88577
tu	-9.88667
▁acció	-9.88681
▁autors	-9.88686
▁reforma	-9.88746
▁reduir	-9.88783
▁campionat	-9.88794
▁gens	-9.88836
▁pal	-9.8885
▁ideal	-9.88913
▁seues	-9.88966
espera	-9.88986
á	-9.8903
▁llengües	-9.891
▁compra	-9.89104
▁joventut	-9.89149
▁→	-9.89258
▁vic	-9.8926
tor	-9.89284
última	-9.89303
▁google	-9.89416
▁volgut	-9.89423
▁conseqüència	-9.89501
▁+	-9.89594
▁responsables	-9.89622
▁comptar	-9.89798
▁diversitat	-9.89843
▁2008	-9.89869
▁decidit	-9.89886
▁visites	-9.89935
▁permanent	-9.89941
▁organitzar	-9.89971
▁capaç	-9.89976
▁telèfon	-9.8998
▁psc	-9.90018
▁agafar	-9.90069
▁néixer	-9.90187
▁preus	-9.90323
▁estigui	-9.90349
▁ocasió	-9.90417
▁benestar	-9.90444
▁promoure	-9.90464
▁dansa	-9.905
▁regió	-9.90529
ons	-9.90543
▁dedicat	-9.90546
▁reial	-9.90627
▁vosaltres	-9.90686
▁arts	-9.90721
del	-9.90725
▁intenció	-9.90743
▁contes	-9.90774
▁vostres	-9.90921
▁pati	-9.91007
14	-9.91088
pi	-9.91093
▁pol	-9.91189
▁cookies	-9.91242
▁realització	-9.91415
▁produir	-9.91496
ària	-9.91665
▁assistir	-9.91673
▁portal	-9.91693
▁única	-9.91707
▁documental	-9.91772
dora	-9.91844
▁noms	-9.91927
▁completa	-9.91938
▁establir	-9.91973
▁protagonista	-9.92038
aula	-9.92137
hem	-9.92271
▁neu	-9.92282
▁prevenció	-9.92322
▁vacances	-9.92353
▁perdut	-9.92377
▁pis	-9.92411
▁faran	-9.92565
▁man	-9.92615
▁concerts	-9.92664
bi	-9.92794
▁fil	-9.92803
▁tanmateix	-9.92808
▁constitució	-9.92862
▁notícia	-9.92874
exercici	-9.92929
▁forn	-9.9297
estructura	-9.9301
▁voler	-9.93023
▁històrica	-9.93044
▁bases	-9.93135
▁comarques	-9.9323
▁resoldre	-9.93275
antic	-9.9331
▁xix	-9.93312
ona	-9.93334
▁inicial	-9.93447
lat	-9.93464
ka	-9.93481
▁indústria	-9.93525
▁comptes	-9.93553
▁generació	-9.93579
▁contracte	-9.93579
▁competències	-9.93671
▁referèndum	-9.93714
▁dificultats	-9.93792
▁visitants	-9.93792
▁cup	-9.93892
▁relacionats	-9.93913
eres	-9.94082
▁vespre	-9.94085
▁competició	-9.94169
▁mira	-9.94178
▁quant	-9.94215
▁apareix	-9.94283
empreses	-9.94317
▁queden	-9.94334
▁sectors	-9.94336
▁banc	-9.94454
▁discurs	-9.94473
▁acord	-9.94548
▁passeig	-9.94559
▁recuperació	-9.94659
▁distància	-9.94681
pe	-9.94938
▁innovació	-9.95015
▁segurament	-9.95038
—	-9.95092
▁seguiment	-9.95109
▁hagués	-9.95153
▁tancar	-9.95278
▁aleshores	-9.95352
▁cooperació	-9.95575
ut	-9.95655
▁decisions	-9.95674
▁mòbil	-9.95682
història	-9.95698
▁preparar	-9.95704
▁quins	-9.9571
▁palma	-9.95752
▁calendari	-9.95786
▁•	-9.96026
▁regne	-9.96058
▁situada	-9.96112
▁distribució	-9.96162
▁electoral	-9.96362
▁mida	-9.96483
▁significa	-9.96486
▁normal	-9.96498
▁estarà	-9.96525
▁propera	-9.96603
▁superfície	-9.96652
▁voleu	-9.9676
▁previst	-9.96793
▁bany	-9.96806
▁sostenible	-9.96829
▁quants	-9.96942
▁diàleg	-9.96959
men	-9.96979
▁certa	-9.97107
▁fred	-9.97178
▁proposa	-9.97179
▁finançament	-9.97196
▁plat	-9.97213
▁facultat	-9.97323
	-9.97481
▁residus	-9.97614
▁vins	-9.97633
lectius	-9.97661
▁quines	-9.97677
▁territorial	-9.97758
▁mala	-9.97783
▁antic	-9.97839
▁greu	-9.97879
▁poca	-9.97944
atur	-9.98005
▁camins	-9.98105
iu	-9.98137
▁menor	-9.98151
▁legal	-9.98184
par	-9.98201
ren	-9.98293
▁esperem	-9.98306
▁votar	-9.98372
▁farem	-9.98431
▁educatius	-9.98542
fer	-9.98611
▁textos	-9.98668
za	-9.98673
▁criteris	-9.98683
▁defensar	-9.98767
▁traducció	-9.98851
ero	-9.98923
▁gas	-9.99023
▁darrere	-9.99076
▁amic	-9.99123
▁realitza	-9.99146
▁presents	-9.99382
13	-9.99386
▁ministeri	-9.99399
▁terreny	-9.99456
▁termes	-9.99539
▁demanda	-9.99717
▁teus	-9.99741
▁generals	-9.99806
▁sensació	-9.99846
▁actuals	-9.99872
▁castelló	-9.99945
hivern	-9.99981
▁únic	-9.99992
▁toca	-10.0007
▁solidaritat	-10.0011
▁convertit	-10.0018
br	-10.0023
gen	-10.0025
▁simple	-10.0039
ador	-10.0042
▁complir	-10.0046
tin	-10.0053
▁enviar	-10.0053
▁aprofitar	-10.0053
▁manresa	-10.006
▁silenci	-10.0064
▁agrada	-10.0064
▁caure	-10.0064
anàlisi	-10.0065
ull	-10.0065
▁estil	-10.0065
▁solucions	-10.0066
▁partida	-10.0103
▁administracions	-10.0116
▁existeix	-10.0123
&	-10.0124
▁detalls	-10.0128
▁àrees	-10.0133
▁copa	-10.0138
mi	-10.0142
▁associacions	-10.0142
evolució	-10.0157
▁dic	-10.0158
▁organitzacions	-10.0168
▁moviments	-10.0174
▁consciència	-10.0177
▁peça	-10.0177
▁vostè	-10.0179
▁patir	-10.018
▁milers	-10.02
▁carn	-10.0212
licitud	-10.0215
▁salt	-10.0217
▁salvador	-10.022
▁boca	-10.0229
oc	-10.0231
▁entitat	-10.0234
▁torn	-10.0238
escenari	-10.0242
▁anava	-10.0247
▁secretari	-10.0249
▁pintura	-10.0251
bles	-10.0253
▁coneix	-10.0255
▁opció	-10.0257
▁200	-10.0266
▁estudiar	-10.027
▁autònoma	-10.0274
▁constant	-10.0274
▁professorat	-10.0275
▁declaració	-10.0284
▁manifest	-10.0286
▁cita	-10.03
▁necessària	-10.03
25	-10.03
▁espectacle	-10.0305
▁llar	-10.0311
▁trajectòria	-10.0314
▁migdia	-10.032
▁casal	-10.0322
▁manté	-10.0333
▁plans	-10.0336
ur	-10.0345
▁destacat	-10.035
▁privat	-10.0362
▁filosofia	-10.0364
▁estona	-10.0365
▁trànsit	-10.0369
▁esportiva	-10.037
▁recollida	-10.0372
▁alemanya	-10.0377
▁populars	-10.038
▁ciutadana	-10.038
expressió	-10.0381
▁parís	-10.0386
▁mirada	-10.0387
▁calor	-10.0389
▁llet	-10.039
agència	-10.0404
▁tret	-10.0404
▁manuel	-10.0407
▁generar	-10.0414
▁normes	-10.0415
▁periodista	-10.0419
▁afegit	-10.0427
▁qüestions	-10.0428
▁vots	-10.043
▁conte	-10.0432
▁fruit	-10.0436
oportunitat	-10.044
▁conflicte	-10.0445
▁domini	-10.0446
▁velocitat	-10.045
▁opcions	-10.0451
▁pèrdua	-10.0455
ke	-10.0456
ès	-10.0462
▁podreu	-10.0463
▁mateixes	-10.0467
▁deixem	-10.0469
▁ocasions	-10.0472
▁sola	-10.0472
▁especials	-10.0476
▁relat	-10.0479
▁empresarial	-10.0496
▁sou	-10.0497
oferta	-10.0503
▁simplement	-10.0516
▁este	-10.052
▁gra	-10.0521
▁regal	-10.0535
▁ambiental	-10.0539
▁poques	-10.0543
▁històries	-10.0549
▁bastant	-10.0554
▁protagonistes	-10.0559
gues	-10.056
▁ampli	-10.0581
ré	-10.0583
pro	-10.0585
▁andreu	-10.059
▁sr	-10.0591
▁models	-10.0593
▁barris	-10.0594
der	-10.0597
▁novetats	-10.0598
▁veus	-10.0616
▁record	-10.0617
▁menorca	-10.0617
▁enrere	-10.062
▁coneguda	-10.0621
existència	-10.0621
▁urbà	-10.0631
▁fomentar	-10.0637
▁retorn	-10.0657
▁crida	-10.0672
▁hauran	-10.0674
▁propers	-10.0678
so	-10.0696
▁relacionades	-10.0702
▁repte	-10.0703
▁su	-10.0708
▁esdeveniments	-10.0711
▁etapa	-10.0721
▁viuen	-10.0724
▁principalment	-10.0725
enc	-10.0726
▁directa	-10.0741
▁neteja	-10.0743
ve	-10.0747
espectacle	-10.0752
▁deia	-10.0754
▁perill	-10.076
ines	-10.0764
esforç	-10.0772
▁vella	-10.0785
▁consisteix	-10.0801
artista	-10.0801
▁ajuntaments	-10.0801
▁militar	-10.0802
▁filla	-10.0803
sos	-10.0806
▁núm	-10.0807
▁quilòmetres	-10.0812
▁lletres	-10.0814
▁&	-10.0819
▁tinguin	-10.0821
▁pensament	-10.0823
▁dedicar	-10.0825
▁comercials	-10.0842
▁nucli	-10.0847
▁edificis	-10.0853
▁econòmics	-10.0855
ens	-10.0857
▁roda	-10.0857
▁mossos	-10.0861
▁segles	-10.0866
▁¿	-10.0874
ly	-10.0876
▁edicions	-10.0887
▁motor	-10.0896
www	-10.0899
▁pressió	-10.0902
▁malalties	-10.0906
500	-10.0907
enllaç	-10.091
▁individual	-10.0911
▁assistents	-10.0919
▁vehicle	-10.092
▁detall	-10.0921
antiga	-10.0925
ner	-10.0927
▁maneres	-10.0929
▁foment	-10.0929
▁80	-10.093
▁reglament	-10.093
▁gratuïta	-10.0935
▁verd	-10.0937
▁veiem	-10.0938
ap	-10.0951
▁botiga	-10.0953
id	-10.0954
▁habitatges	-10.0962
▁batxillerat	-10.0964
th	-10.0966
▁lingüística	-10.0966
bar	-10.0973
▁almenys	-10.0979
▁menors	-10.0981
▁feu	-10.0988
▁gestionar	-10.099
cs	-10.0993
▁*	-10.0994
▁conselleria	-10.1017
▁assegurar	-10.1022
▁primavera	-10.1028
oficina	-10.1038
elaboració	-10.1046
▁faig	-10.1062
▁feliu	-10.1064
▁institució	-10.1068
▁conservació	-10.1068
▁últim	-10.1076
ò	-10.1077
▁durada	-10.1079
“	-10.1082
▁lloguer	-10.1084
▁plegat	-10.1084
▁tradicionals	-10.1085
▁independent	-10.1085
▁varietat	-10.1088
▁juvenil	-10.1091
ol	-10.1096
▁treballen	-10.1098
▁igualtat	-10.111
tra	-10.1111
▁albert	-10.1122
▁fonamental	-10.1127
▁mares	-10.1135
▁activa	-10.1141
▁diada	-10.1143
▁comunitats	-10.1151
▁esportiu	-10.1152
▁treballat	-10.1161
▁marques	-10.1166
▁celebrat	-10.1167
▁pràcticament	-10.117
▁compliment	-10.1177
▁feien	-10.1179
au	-10.119
▁guàrdia	-10.1192
ç	-10.1193
▁considerar	-10.1199
▁secundària	-10.1199
▁màster	-10.1201
▁pròxim	-10.1211
▁perfil	-10.1214
alguns	-10.1219
▁jardí	-10.1233
▁tardor	-10.1235
▁cm	-10.1243
cio	-10.1246
▁sens	-10.1248
▁vell	-10.1251
▁plana	-10.1254
▁ministre	-10.1266
col	-10.1271
lectual	-10.1283
▁restes	-10.1285
▁exemples	-10.1297
▁interès	-10.1299
▁província	-10.1311
▁procediment	-10.1316
▁oportunitat	-10.1321
▁reconèixer	-10.1322
▁espanyols	-10.1324
ry	-10.133
▁organitzada	-10.1333
▁consta	-10.1339
▁le	-10.1339
▁film	-10.1341
ure	-10.1343
▁conjuntament	-10.1349
▁perspectiva	-10.1355
▁podrien	-10.1355
▁prèvia	-10.1356
▁restauració	-10.1358
▁vistes	-10.1359
▁parlant	-10.1359
▁conseqüències	-10.1382
▁proximitat	-10.1392
▁poeta	-10.1392
▁sánchez	-10.1396
▁triar	-10.1401
▁baixar	-10.1402
▁ràpid	-10.1404
▁titular	-10.1404
▁rural	-10.1408
▁espècies	-10.141
▁transformació	-10.1417
▁cambra	-10.1418
▁evident	-10.1422
▁assolir	-10.1424
▁líder	-10.1424
ac	-10.1426
▁posterior	-10.1431
▁fiscal	-10.1431
▁anual	-10.1432
▁pacients	-10.1434
▁arran	-10.1436
▁musicals	-10.1437
▁flors	-10.1438
>	-10.1447
du	-10.1455
▁element	-10.1458
▁concentració	-10.1466
aquell	-10.1476
▁circuit	-10.1477
lic	-10.1486
andorra	-10.1487
▁beneficis	-10.1491
ion	-10.1497
▁inscripció	-10.1498
▁acompanyat	-10.1501
▁ciu	-10.1504
▁posem	-10.1505
▁serveix	-10.1517
▁anomenat	-10.1521
▁necessàries	-10.1527
▁organització	-10.1538
▁reptes	-10.1539
erc	-10.154
▁complet	-10.154
▁penedès	-10.154
laborar	-10.1542
▁preveu	-10.1543
▁cotxes	-10.1544
▁dirigit	-10.1548
▁tornat	-10.1551
ck	-10.1558
esperit	-10.156
▁curt	-10.1566
▁busca	-10.1568
investigació	-10.1572
▁gal	-10.1576
▁conté	-10.1589
▁referent	-10.1598
▁cadascun	-10.1601
▁portaveu	-10.1607
informe	-10.1609
allò	-10.161
▁càncer	-10.1613
▁identitat	-10.1616
▁portat	-10.1619
[1]	-10.162
▁valls	-10.1631
▁objecte	-10.1633
▁vies	-10.1641
▁andorra	-10.1642
▁tri	-10.1652
ny	-10.1653
▁jugador	-10.1655
▁músics	-10.1662
able	-10.167
mer	-10.1672
▁gol	-10.1674
▁hagin	-10.1674
▁prat	-10.1686
vo	-10.1686
▁comentari	-10.1691
▁mataró	-10.1695
▁revolució	-10.1697
▁ordre	-10.171
▁presenten	-10.1714
▁peus	-10.1725
vem	-10.1734
▁gira	-10.1742
▁víctimes	-10.1745
agricultura	-10.1748
▁blanca	-10.175
▁resum	-10.1762
▁penso	-10.1765
barcelona	-10.1768
▁70	-10.1769
▁pujada	-10.177
▁mur	-10.1789
▁forta	-10.1802
▁integral	-10.1805
▁elles	-10.1807
▁porten	-10.1809
▁preparat	-10.1812
▁moda	-10.1814
▁necessaris	-10.1815
▁parlem	-10.1818
▁dedicada	-10.1823
zo	-10.1829
ï	-10.1857
oci	-10.1861
▁directora	-10.1869
▁xerrada	-10.1876
45	-10.1877
▁breu	-10.1881
▁concretament	-10.1885
50	-10.1885
▁publicitat	-10.1886
▁majors	-10.1888
▁vaga	-10.1891
▁convivència	-10.1899
▁oferta	-10.1903
07	-10.1907
▁menjador	-10.1909
40	-10.191
▁inici	-10.1915
▁ii	-10.1934
▁competència	-10.1944
▁marina	-10.1947
assistència	-10.195
▁privada	-10.1952
▁descripció	-10.1954
▁minut	-10.1954
▁condició	-10.1961
▁cim	-10.1966
mat	-10.1971
instal	-10.1973
▁pacte	-10.1978
▁consorci	-10.1979
▁http	-10.1991
lícules	-10.1993
▁artística	-10.1994
▁entrevista	-10.2
▁mor	-10.2008
▁veig	-10.2009
▁manifestació	-10.2014
▁batalla	-10.2025
eria	-10.2031
▁cau	-10.2038
ica	-10.204
▁celebrarà	-10.2051
▁modificació	-10.2053
▁temperatura	-10.2053
havien	-10.2055
▁homenatge	-10.2062
▁discapacitat	-10.2074
▁passen	-10.2084
▁mental	-10.2099
▁residència	-10.2101
arxiu	-10.2105
▁fes	-10.2105
▁www	-10.2112
▁completament	-10.2114
oposició	-10.2116
▁divisió	-10.2117
▁degut	-10.212
▁laborals	-10.213
▁mo	-10.2133
▁despeses	-10.2143
▁psoe	-10.2144
ot	-10.2145
land	-10.2145
▁carme	-10.2149
▁edifici	-10.2159
▁actuació	-10.216
sta	-10.2167
▁objectes	-10.217
▁aliments	-10.2172
tic	-10.2176
▁aprovar	-10.218
àries	-10.2184
▁categories	-10.2191
▁pr	-10.2193
▁pu	-10.2198
ari	-10.2199
▁aplicar	-10.2202
▁pan	-10.2206
▁facebook	-10.2211
▁pluja	-10.2214
▁domicili	-10.2221
▁ju	-10.2233
▁iniciatives	-10.2235
▁impossible	-10.2238
tem	-10.2239
▁pres	-10.2244
▁produeix	-10.225
ler	-10.2251
▁correspon	-10.2253
▁implica	-10.2273
obres	-10.2277
▁recurs	-10.228
▁los	-10.2282
▁vigent	-10.2285
licitar	-10.2286
cia	-10.2292
▁efecte	-10.2295
vol	-10.2296
▁definició	-10.23
▁bellesa	-10.2308
▁viatges	-10.2308
▁plats	-10.2311
sol	-10.2315
▁deixant	-10.2326
ià	-10.2327
▁germans	-10.2347
▁reducció	-10.2349
tot	-10.235
▁esport	-10.235
▁bio	-10.2352
▁dubtes	-10.2357
▁demostrar	-10.2358
ris	-10.236
▁tindran	-10.2369
▁toni	-10.2371
▁medicina	-10.2382
▁aprovat	-10.2384
▁company	-10.2389
▁tirar	-10.2399
▁dirigir	-10.2403
efecte	-10.2427
▁anna	-10.2431
▁haurien	-10.2433
▁tercers	-10.2439
▁naturalesa	-10.2441
21	-10.2444
impacte	-10.2445
▁bi	-10.2457
litat	-10.2467
▁arriben	-10.2468
▁raons	-10.247
ín	-10.2471
arribar	-10.2476
▁classificació	-10.2476
▁universal	-10.2483
▁oct	-10.2486
▁aigües	-10.2503
nd	-10.2508
▁ue	-10.251
▁lliurament	-10.2516
tà	-10.2519
gi	-10.2519
▁judicial	-10.2523
▁piscina	-10.253
▁teves	-10.2535
▁riera	-10.254
▁du	-10.2544
▁últimes	-10.2547
▁fàbrica	-10.2547
▁cant	-10.2554
▁300	-10.2555
▁pressupostos	-10.2556
às	-10.2566
▁oficials	-10.2572
04	-10.2578
▁jurat	-10.2588
▁peix	-10.2595
▁llegit	-10.2595
▁auto	-10.2609
estan	-10.261
▁marta	-10.2613
▁créixer	-10.2614
▁cerca	-10.2614
▁augmentar	-10.2615
▁vàrem	-10.2623
▁naixement	-10.2627
▁informar	-10.2631
▁35	-10.2639
▁docent	-10.2641
▁comprovar	-10.2643
▁pren	-10.2648
org	-10.2649
▁voluntaris	-10.2653
esta	-10.2661
▁permetrà	-10.2663
alçada	-10.2668
▁disposar	-10.2669
▁sostenibilitat	-10.2677
st	-10.2679
apartat	-10.2683
▁probablement	-10.2693
▁dibuix	-10.2695
avaluació	-10.2702
aquells	-10.2703
▁dura	-10.2705
▁doctor	-10.2707
▁plaer	-10.2707
▁noies	-10.2713
▁estatal	-10.2718
▁associació	-10.272
▁lleis	-10.2722
▁enllaç	-10.2729
▁marge	-10.2741
▁lliures	-10.2744
▁tra	-10.2747
▁utilització	-10.275
▁viscut	-10.2752
▁germà	-10.2755
▁funciona	-10.2756
▁econòmiques	-10.2758
▁podrem	-10.2763
▁tancat	-10.2769
auto	-10.277
ze	-10.2776
▁visual	-10.2778
▁comunicar	-10.2779
▁urbana	-10.278
▁adults	-10.2782
▁resistència	-10.2782
▁recentment	-10.2784
2018	-10.2784
▁imprescindible	-10.2788
▁entrades	-10.2788
▁estructura	-10.2793
▁lópez	-10.2796
pre	-10.2799
▁caldrà	-10.2831
▁pilota	-10.2834
▁micro	-10.2842
▁ofereixen	-10.2845
ud	-10.2845
▁normalment	-10.2853
▁badalona	-10.2861
▁teoria	-10.2862
▁dolor	-10.2866
enguany	-10.2874
lí	-10.2876
tat	-10.2879
▁assegura	-10.2881
▁acompanyar	-10.2883
ologia	-10.2888
▁neix	-10.2894
▁extra	-10.2897
▁online	-10.2906
▁suma	-10.2906
▁científica	-10.2908
▁consistori	-10.2911
▁xifra	-10.2918
▁malament	-10.2921
05	-10.2924
▁creixent	-10.2931
▁reunir	-10.2932
lectiva	-10.2935
▁democràtica	-10.2936
▁gratuït	-10.2936
▁foren	-10.2937
▁institucional	-10.2942
▁torres	-10.2944
▁sentència	-10.2953
▁ba	-10.2958
▁vora	-10.296
▁àmplia	-10.2965
▁clàssic	-10.2967
▁pantalla	-10.297
02	-10.2982
hagi	-10.2983
▁pitjor	-10.2987
cap	-10.299
’1	-10.2993
▁vers	-10.2997
▁respondre	-10.3
▁coordinació	-10.3001
▁contractació	-10.3002
▁saló	-10.3009
▁vulguin	-10.3012
▁vilanova	-10.3018
▁monestir	-10.3023
▁suficient	-10.3029
▁habitacions	-10.3032
▁valoració	-10.3034
▁utilitza	-10.3042
aran	-10.3043
▁roma	-10.3049
esa	-10.305
▁provocar	-10.3051
▁pe	-10.3057
▁planeta	-10.3059
▁lluitar	-10.306
▁2006	-10.3065
itzat	-10.3075
aeroport	-10.3076
▁martínez	-10.3077
internet	-10.3079
▁circ	-10.3087
▁full	-10.3091
▁cadascú	-10.31
▁pensat	-10.3101
dos	-10.3102
▁cu	-10.3107
ura	-10.3112
▁factors	-10.3113
▁avançar	-10.3118
▁actuar	-10.3119
▁bicicleta	-10.312
nia	-10.3121
▁flor	-10.3122
▁posada	-10.3128
▁dècada	-10.3139
▁obertes	-10.3141
▁fòrum	-10.3146
▁contribuir	-10.3149
▁tantes	-10.3158
▁corrent	-10.3164
▁inversió	-10.3167
▁físic	-10.3171
▁ferran	-10.3174
▁apareixen	-10.3176
▁saben	-10.3176
▁crea	-10.3178
▁descans	-10.3181
▁participen	-10.3181
▁observar	-10.3183
▁guanyat	-10.3187
▁torrent	-10.319
▁edat	-10.3192
▁regidora	-10.3197
▁q	-10.3197
▁vulgui	-10.3203
▁experts	-10.3204
▁electrònica	-10.3208
▁recent	-10.3208
arquitectura	-10.3227
▁disponible	-10.3229
iana	-10.3234
cer	-10.3238
▁valorar	-10.3244
▁socialista	-10.3244
▁sorpresa	-10.3247
▁comitè	-10.3247
rs	-10.3256
▁oferim	-10.3257
▁propietaris	-10.3258
lla	-10.3259
▁antics	-10.326
▁parar	-10.3263
▁pobresa	-10.3263
▁definir	-10.3263
▁estiguin	-10.3269
▁medieval	-10.3279
mb	-10.3279
ges	-10.3293
tre	-10.3294
▁benefici	-10.3295
cor	-10.3303
06	-10.3308
▁esquerra	-10.3311
▁passió	-10.3315
▁exterior	-10.3317
▁formulari	-10.3317
aven	-10.3321
▁veuen	-10.3321
▁llegeix	-10.3324
▁perfectament	-10.3326
▁tants	-10.3327
exèrcit	-10.3328
▁connexió	-10.3333
▁moral	-10.3333
adreça	-10.3336
▁consells	-10.3338
▁exercir	-10.3338
▁creure	-10.334
▁establiments	-10.3342
▁capítol	-10.3344
▁amunt	-10.3345
▁recepta	-10.3346
▁ver	-10.3351
▁sales	-10.3354
▁lletra	-10.3354
▁mediterrània	-10.3358
anglès	-10.3364
▁esforç	-10.3366
▁dirigida	-10.3371
▁iii	-10.3378
ki	-10.3379
▁cadena	-10.3385
▁seguim	-10.3388
oest	-10.3389
ec	-10.3396
▁proposar	-10.3399
▁perfecte	-10.3399
▁comencen	-10.3406
▁potenciar	-10.3408
▁poemes	-10.3409
guin	-10.3416
▁francesa	-10.3419
urgell	-10.342
▁mètode	-10.3424
▁hotel	-10.3426
▁xina	-10.343
▁façana	-10.3431
cà	-10.3444
mon	-10.3445
▁york	-10.3446
▁valencians	-10.3446
tiva	-10.3453
▁carlos	-10.3453
▁límits	-10.3468
▁90	-10.3473
▁demostra	-10.3474
▁aplicació	-10.3478
▁europeus	-10.3478
▁vendre	-10.3481
▁científic	-10.3488
▁legislació	-10.3494
▁sortit	-10.3494
▁publicacions	-10.3497
▁presa	-10.3501
abast	-10.351
▁petició	-10.3514
▁tele	-10.3533
ou	-10.3548
▁occidental	-10.3549
▁localitat	-10.3552
▁únicament	-10.3552
▁w	-10.3554
▁escala	-10.3556
▁conceptes	-10.356
▁informa	-10.3564
▁afecta	-10.3565
▁transparència	-10.3568
essin	-10.3569
▁rec	-10.3572
▁comporta	-10.3581
▁ronda	-10.3587
op	-10.3592
▁sexual	-10.3601
▁permès	-10.3602
ís	-10.3607
▁jazz	-10.3607
▁ce	-10.3609
▁cadascuna	-10.361
▁sucre	-10.3617
▁rock	-10.3624
▁tanta	-10.3628
▁participa	-10.3635
▁subvencions	-10.3636
▁blau	-10.3637
▁inferior	-10.3655
▁cooperativa	-10.3656
▁desig	-10.3657
▁ets	-10.366
▁muntanyes	-10.367
io	-10.367
▁lector	-10.3674
▁nombrosos	-10.3676
▁clarament	-10.3677
▁finalitzar	-10.368
ya	-10.3681
24	-10.3685
▁sumar	-10.3694
▁marxar	-10.3699
▁formada	-10.3706
▁ru	-10.3706
▁amor	-10.371
▁interessants	-10.3717
hauria	-10.3734
▁crema	-10.3738
▁converteix	-10.3745
ib	-10.3747
▁utilitzant	-10.375
▁útil	-10.3755
▁bàsics	-10.3758
▁demanat	-10.3758
▁cartell	-10.3761
▁soci	-10.3769
opinió	-10.3774
▁antiga	-10.3774
guen	-10.3776
▁reconegut	-10.3779
ita	-10.3781
▁pensa	-10.379
àvem	-10.3795
entitats	-10.3795
▁aspecte	-10.38
▁moderna	-10.3801
▁veritable	-10.3801
cen	-10.3803
▁corresponents	-10.3805
fe	-10.3807
▁gel	-10.3813
▁moció	-10.3814
anterior	-10.3819
len	-10.3822
▁límit	-10.383
▁parròquia	-10.3832
▁mel	-10.3839
▁tornada	-10.3844
▁enric	-10.3845
▁lectors	-10.3848
▁representant	-10.3849
▁interpretació	-10.3849
alguna	-10.385
▁ràpidament	-10.3852
▁reunions	-10.3853
▁di	-10.3855
▁facin	-10.3855
actes	-10.386
▁necessiten	-10.3863
▁impulsar	-10.3864
▁estableix	-10.3864
▁redacció	-10.3871
▁dificultat	-10.3875
▁núria	-10.3876
▁igualment	-10.3884
via	-10.3891
▁conversa	-10.3897
án	-10.3901
▁refugi	-10.3901
▁solidària	-10.3902
▁parets	-10.3903
acions	-10.3911
ps	-10.3912
▁aproximadament	-10.3915
▁2000	-10.3915
▁positiu	-10.3919
▁ràpida	-10.3919
▁creativitat	-10.392
▁cafè	-10.3922
▁nau	-10.3923
▁virtual	-10.3933
ger	-10.3943
▁sanitat	-10.3947
▁garcía	-10.3951
tres	-10.3952
▁aporta	-10.3954
▁indica	-10.3959
▁negra	-10.396
▁seguida	-10.3968
▁artístic	-10.3979
▁reis	-10.398
▁barreja	-10.3982
▁situa	-10.3982
▁analitzar	-10.3983
▁preparació	-10.3994
▁nois	-10.3995
▁preguntar	-10.4003
▁llit	-10.4007
▁alternativa	-10.4009
22	-10.4011
anys	-10.4014
▁erc	-10.4017
▁universitats	-10.4021
▁sants	-10.4022
▁rendiment	-10.4022
▁espero	-10.4031
▁emocions	-10.4033
▁femení	-10.4035
▁vital	-10.404
▁posant	-10.404
its	-10.4049
avinguda	-10.405
▁sòl	-10.4055
▁escolars	-10.4055
infraestructures	-10.4059
▁energètica	-10.4061
▁projecció	-10.407
09	-10.4072
▁frase	-10.4077
intercanvi	-10.4078
▁figueres	-10.4079
▁tendència	-10.4081
▁identificar	-10.4081
▁diputats	-10.4085
▁requisits	-10.4087
01	-10.409
▁%	-10.4092
alimentació	-10.4092
▁ribera	-10.4096
▁corre	-10.4098
▁espera	-10.4104
▁torneig	-10.4105
▁afegeix	-10.4108
▁diferències	-10.4108
▁viva	-10.4111
▁comportament	-10.4113
▁aplicacions	-10.4114
▁pen	-10.4115
▁composició	-10.4115
▁universitari	-10.4118
▁turística	-10.412
▁mercats	-10.412
▁conflictes	-10.4125
▁bell	-10.4126
▁junt	-10.4126
arreu	-10.4129
ie	-10.4132
▁vídeos	-10.4133
▁constitucional	-10.4142
obertura	-10.4144
▁presidenta	-10.4149
▁podríem	-10.415
▁esportives	-10.415
▁hom	-10.4152
▁podien	-10.4153
íem	-10.416
▁restaurants	-10.4171
▁pilar	-10.4171
▁creiem	-10.4171
▁genera	-10.4174
▁cantant	-10.4175
▁repetir	-10.4176
▁pep	-10.4188
je	-10.4189
▁havíem	-10.4195
▁basat	-10.4198
sió	-10.42
▁esperar	-10.4205
tro	-10.4211
ju	-10.4212
▁descarregar	-10.4212
▁vermell	-10.4221
▁antonio	-10.4222
▁dècades	-10.423
▁districte	-10.4231
ces	-10.4243
35	-10.4245
▁ac	-10.4248
▁bat	-10.4249
▁actiu	-10.4251
den	-10.4251
▁habilitats	-10.4253
ú	-10.4255
ena	-10.4259
▁figures	-10.4262
▁espectacular	-10.4262
ine	-10.4262
▁darreres	-10.4264
▁nombroses	-10.4265
▁protegir	-10.4265
▁acceptar	-10.4267
▁parada	-10.4268
=	-10.4268
honor	-10.4274
▁esdeveniment	-10.4278
▁plantejar	-10.4278
▁metge	-10.428
▁mercè	-10.4281
▁corona	-10.4289
▁morts	-10.429
▁senzill	-10.4291
met	-10.4291
▁cops	-10.4292
exterior	-10.4293
▁acollir	-10.4293
àfrica	-10.4294
99	-10.4295
▁150	-10.4296
▁posen	-10.4297
▁pic	-10.4297
▁unitats	-10.4298
nat	-10.4302
cu	-10.4315
▁actors	-10.4316
sin	-10.4318
▁triomf	-10.4321
▁meves	-10.4323
▁parlat	-10.433
▁trenta	-10.4334
▁unit	-10.4335
▁respon	-10.4337
▁pedro	-10.4341
▁ros	-10.4342
▁causes	-10.4343
▁produït	-10.4346
▁regular	-10.4347
▁disponibles	-10.435
▁docents	-10.4354
▁desenvolupa	-10.4354
up	-10.4356
▁ferrer	-10.4357
▁45	-10.4368
rí	-10.4371
▁arbres	-10.4372
▁augment	-10.4379
cul	-10.4382
▁biblioteques	-10.4382
▁taules	-10.4383
▁somni	-10.4385
ència	-10.4389
▁afirma	-10.439
▁autoritats	-10.4392
▁nascut	-10.4395
▁aposta	-10.4402
▁certificat	-10.4407
ko	-10.4413
ser	-10.4413
execució	-10.4415
▁estiu	-10.4416
▁xiquets	-10.4422
ola	-10.4423
ments	-10.4426
▁castells	-10.4426
aconseguir	-10.4428
escriptor	-10.4429
▁oblidar	-10.4429
▁temple	-10.443
▁mostren	-10.443
▁poblacions	-10.4431
pot	-10.4438
▁última	-10.4442
▁records	-10.4444
ives	-10.4445
▁trencar	-10.4446
▁circumstàncies	-10.4449
▁desenvolupat	-10.445
▁pujol	-10.4457
▁fetes	-10.4459
▁humanitat	-10.4459
estranger	-10.4462
ub	-10.4464
▁riquesa	-10.4469
▁ferro	-10.448
▁notes	-10.4482
ambient	-10.4485
▁twitter	-10.4493
▁utilitzat	-10.4496
▁bol	-10.4496
ng	-10.45
▁comentar	-10.4503
ius	-10.4505
▁ro	-10.4508
▁similar	-10.4519
▁ampliar	-10.452
gut	-10.4523
▁conferències	-10.4524
▁pur	-10.4527
▁basa	-10.4529
▁mediterrani	-10.4531
▁senyal	-10.4532
▁particulars	-10.4535
▁podràs	-10.4536
▁aportar	-10.4544
▁dormir	-10.4544
▁jutge	-10.4545
▁marcat	-10.4552
▁parelles	-10.4554
mp	-10.4558
▁instruments	-10.4559
dis	-10.456
lu	-10.4564
▁controlar	-10.4568
▁potencial	-10.457
▁planificació	-10.4574
▁mer	-10.4575
▁territoris	-10.4581
▁informe	-10.4582
%	-10.4584
aprovació	-10.4588
▁adquirir	-10.4592
▁estratègies	-10.4597
pol	-10.46
▁tindre	-10.4601
▁noia	-10.4608
▁canviat	-10.4611
84	-10.4611
▁omplir	-10.4613
▁comunicat	-10.4625
▁circular	-10.4626
pen	-10.4627
xa	-10.4628
▁paga	-10.4628
▁modern	-10.4635
▁càrrecs	-10.4645
▁oportunitats	-10.4645
▁campus	-10.4645
▁complex	-10.465
▁prèviament	-10.465
▁dates	-10.4651
▁energia	-10.4652
▁climàtic	-10.4657
▁emocional	-10.4658
▁alemany	-10.4662
▁elaborat	-10.4666
▁continuïtat	-10.4667
▁acords	-10.467
▁llicència	-10.4675
▁claus	-10.4678
▁considerat	-10.4688
▁periodistes	-10.4692
▁tancament	-10.4703
▁500	-10.4707
ab	-10.4714
▁escollir	-10.4717
▁turístic	-10.4717
▁anàlisi	-10.4726
esports	-10.4732
▁vinent	-10.4735
tí	-10.4736
▁signat	-10.4737
▁agradable	-10.474
▁títols	-10.4742
▁canals	-10.4745
▁taxa	-10.4746
▁ciutadà	-10.4751
▁temporal	-10.4751
▁luis	-10.4753
▁clima	-10.476
▁catàleg	-10.476
▁nacionals	-10.4764
▁catedral	-10.4766
▁puigdemont	-10.4769
▁interna	-10.477
▁solar	-10.4773
▁sabeu	-10.4779
alcaldessa	-10.4784
▁declaracions	-10.4787
▁arribem	-10.4787
▁transició	-10.4794
▁ka	-10.4795
▁rutes	-10.4797
▁papa	-10.4798
[2]	-10.4799
▁audiovisual	-10.4803
▁segueixen	-10.4805
itzada	-10.4806
▁escrita	-10.4809
▁sabia	-10.4812
▁semblant	-10.4814
augment	-10.4816
▁londres	-10.4817
▁marató	-10.4819
▁properes	-10.4823
▁missió	-10.4827
▁provoca	-10.4835
opció	-10.4839
▁animal	-10.484
28	-10.4844
▁botigues	-10.4848
sis	-10.4851
ides	-10.4852
▁dimensions	-10.4855
▁fruita	-10.4857
▁cartes	-10.4859
03	-10.4868
▁pop	-10.4871
▁múltiples	-10.4875
▁enllaços	-10.4877
▁2005	-10.4878
▁càrrega	-10.4879
▁quelcom	-10.488
ans	-10.4885
▁baixada	-10.4891
ron	-10.4893
▁marcar	-10.4895
▁destaquen	-10.4896
▁requereix	-10.4896
▁aprofitant	-10.4898
sc	-10.4901
▁tracte	-10.4902
▁xocolata	-10.4907
nts	-10.4908
▁modificar	-10.4909
26	-10.491
▁ensenyar	-10.4916
ía	-10.492
▁dibuixos	-10.4923
▁pensant	-10.4924
▁inauguració	-10.4929
▁itàlia	-10.493
▁matemàtiques	-10.4935
▁quarta	-10.4937
▁dis	-10.4937
▁béns	-10.4938
▁boscos	-10.4945
▁esforços	-10.4945
▁caminar	-10.4946
tiu	-10.495
uri	-10.495
che	-10.4958
▁pérez	-10.4959
▁espectacles	-10.496
audiència	-10.4963
▁relleu	-10.4966
anc	-10.4969
▁parlen	-10.4977
▁roses	-10.4977
▁recordo	-10.498
▁gos	-10.4982
▁agradat	-10.4987
▁personalitat	-10.4992
▁multi	-10.4994
▁iniciat	-10.5001
▁opinió	-10.5002
ard	-10.5009
lit	-10.501
▁literària	-10.5014
▁aportacions	-10.5027
▁trimestre	-10.5028
bri	-10.503
▁buscant	-10.5038
ions	-10.5042
▁siga	-10.5045
▁navegació	-10.5047
▁positiva	-10.5048
▁fc	-10.5048
guer	-10.5056
▁pacient	-10.5062
▁capaços	-10.5072
▁culpa	-10.5079
▁provar	-10.508
▁senzilla	-10.5082
▁temàtica	-10.5085
▁absoluta	-10.5088
▁po	-10.509
esdeveniment	-10.509
▁dient	-10.5091
▁existeixen	-10.5093
▁toc	-10.5093
tant	-10.5102
ateneu	-10.5102
▁conscient	-10.5104
ong	-10.5111
▁secret	-10.5111
▁teixit	-10.5122
escriptura	-10.5123
▁nu	-10.5126
▁sortides	-10.5128
▁tast	-10.5131
▁sentiments	-10.5132
▁dut	-10.5136
▁habituals	-10.5142
▁selva	-10.5143
aparició	-10.5144
▁riscos	-10.5145
assa	-10.5147
▁@	-10.5151
▁situar	-10.5154
val	-10.5154
▁dintre	-10.5157
▁mu	-10.5157
▁garantia	-10.5161
▁guanyador	-10.5163
▁coneguts	-10.5171
▁clàssica	-10.5179
▁clubs	-10.518
▁or	-10.5182
▁talent	-10.5182
23	-10.5186
▁traslladar	-10.5194
▁pendent	-10.5195
▁donarà	-10.5202
▁despesa	-10.5215
▁respostes	-10.5215
ag	-10.5216
▁reals	-10.5219
▁màquina	-10.5219
▁editorial	-10.5221
▁recinte	-10.5224
let	-10.5229
▁passos	-10.5233
▁roig	-10.5237
gon	-10.5238
ejar	-10.5239
▁100%	-10.5241
escala	-10.5241
▁absolut	-10.5243
‘	-10.5251
▁regidoria	-10.5256
agradaria	-10.5256
▁conserva	-10.5263
▁nació	-10.5268
▁viatjar	-10.5269
autonomia	-10.5278
▁inclòs	-10.528
▁deixen	-10.5282
esquadra	-10.5283
sí	-10.5283
estany	-10.5285
▁reconeix	-10.5286
▁semblava	-10.5287
▁directiva	-10.5291
ampa	-10.5291
▁danys	-10.5291
▁honor	-10.5293
▁màgia	-10.5293
horari	-10.5294
can	-10.5295
▁solament	-10.53
▁xxi	-10.5301
▁independentista	-10.5302
▁nena	-10.5306
▁transmetre	-10.5322
▁bàsquet	-10.5324
▁xviii	-10.5326
▁plantilla	-10.5326
alumne	-10.5335
lle	-10.5341
▁diputat	-10.5343
tal	-10.5345
min	-10.5348
▁exposicions	-10.535
▁enmig	-10.5351
▁vicent	-10.5353
▁bici	-10.5353
▁aconsegueix	-10.537
▁vingut	-10.5371
▁tall	-10.5375
▁renda	-10.5377
▁elèctrica	-10.5378
▁plens	-10.5379
▁testimoni	-10.5389
▁destí	-10.5397
▁poema	-10.5401
auditori	-10.5404
▁inscripcions	-10.5405
▁cugat	-10.5406
▁fenomen	-10.5409
▁paret	-10.5409
▁assegurat	-10.5411
▁sindicat	-10.5412
▁caps	-10.5418
xi	-10.5418
▁juga	-10.542
▁córrer	-10.542
acaba	-10.5424
entendre	-10.5424
▁trobo	-10.5425
▁atès	-10.5426
▁rajoy	-10.5427
inter	-10.5428
▁estratègia	-10.5436
▁moure	-10.545
estratègia	-10.5452
▁bàsiques	-10.5453
▁2019	-10.5453
▁crític	-10.5457
▁diaris	-10.5459
▁infantils	-10.5461
▁mini	-10.5465
ermita	-10.5466
▁cobrir	-10.5467
▁feliç	-10.5471
mit	-10.5471
▁voluntariat	-10.5471
all	-10.5473
▁gr	-10.548
▁fabra	-10.5486
▁dinàmica	-10.549
▁previ	-10.5492
▁capella	-10.5495
▁pols	-10.5502
▁ter	-10.5503
▁do	-10.5506
vin	-10.5506
utilitza	-10.5517
endemà	-10.5521
alumnes	-10.5521
▁dotze	-10.5525
▁estada	-10.5532
▁xi	-10.5534
▁comunicacions	-10.5539
lada	-10.5541
▁agrair	-10.5546
▁integració	-10.5547
▁platges	-10.555
ordinador	-10.5564
▁basada	-10.5565
▁revisió	-10.5568
lència	-10.5572
27	-10.5573
▁vidre	-10.558
tives	-10.5582
▁cèl	-10.5585
▁adequat	-10.5591
▁metro	-10.5594
▁reflexionar	-10.5599
▁tanca	-10.5614
▁solidari	-10.5617
▁corts	-10.5618
▁coberta	-10.562
3%	-10.5622
▁corrupció	-10.5624
▁publica	-10.5624
▁esmorzar	-10.5626
▁cossos	-10.563
▁circulació	-10.5634
▁escriu	-10.5635
▁renovació	-10.5639
▁expressar	-10.5643
▁horaris	-10.5646
ió	-10.5652
▁garcia	-10.5656
ències	-10.5656
▁regidors	-10.5657
ea	-10.5666
▁introducció	-10.5668
▁hui	-10.5673
▁muntatge	-10.5685
sant	-10.5685
labora	-10.5686
▁socialistes	-10.5693
ã	-10.5694
▁vivim	-10.5696
▁oriental	-10.5708
▁interessats	-10.5709
▁gegants	-10.5709
▁400	-10.5711
▁anirà	-10.5714
▁info	-10.5716
▁wi	-10.5718
08	-10.5723
esperança	-10.5724
▁lluna	-10.5726
the	-10.5726
▁segura	-10.5726
horta	-10.5728
▁habitatge	-10.5732
▁realitzen	-10.5733
▁acadèmic	-10.5735
▁novetat	-10.5737
▁64	-10.5745
▁teresa	-10.5748
▁instrument	-10.5751
lia	-10.5756
▁representar	-10.5765
port	-10.5768
▁norma	-10.5773
▁evidentment	-10.5775
▁pavelló	-10.5778
▁generacions	-10.5778
avi	-10.578
▁fum	-10.5781
▁influència	-10.5781
▁comuns	-10.5787
▁pistes	-10.5791
▁digitals	-10.5802
▁sexe	-10.5807
▁pirineu	-10.5808
▁cua	-10.581
▁professora	-10.581
▁quantes	-10.5812
▁planteja	-10.5814
▁bu	-10.5819
▁habitació	-10.5825
▁informat	-10.583
▁celler	-10.5832
camp	-10.5832
▁centenars	-10.5844
▁baixos	-10.5851
cle	-10.586
▁esports	-10.5867
gué	-10.5867
▁essent	-10.5872
▁tractat	-10.5879
▁poli	-10.5881
▁candidat	-10.589
▁museus	-10.589
▁missatges	-10.5894
▁posicionament	-10.5895
▁gols	-10.5898
2%	-10.5902
▁oli	-10.5908
▁originals	-10.5909
rien	-10.5916
▁elaborar	-10.5917
▁gar	-10.5917
▁publicada	-10.5922
orquestra	-10.5923
form	-10.5926
▁espècie	-10.5927
hospitalet	-10.5929
▁anunciat	-10.5932
▁ofertes	-10.5933
là	-10.5934
▁investigadors	-10.5941
▁deute	-10.5941
ésser	-10.5944
▁net	-10.595
univers	-10.5951
▁enfront	-10.5951
▁marcador	-10.5952
ino	-10.5953
▁greus	-10.5956
▁cre	-10.596
bor	-10.5968
▁comprendre	-10.5971
▁vessant	-10.5974
▁venen	-10.5976
2017	-10.5977
▁completar	-10.5978
▁coral	-10.5982
▁infància	-10.5983
▁començament	-10.5986
▁lleure	-10.5986
▁aparèixer	-10.5988
▁mòbils	-10.5989
▁negocis	-10.599
60	-10.5992
▁ésser	-10.6
▁científics	-10.6003
▁cens	-10.6004
▁costos	-10.6014
▁bal	-10.6021
▁quarts	-10.6028
▁2004	-10.6029
▁existents	-10.6034
▁puja	-10.604
▁bonic	-10.6044
▁societats	-10.6049
*	-10.6054
arc	-10.6055
▁governs	-10.6056
▁incorporar	-10.6056
▁nacions	-10.6059
▁blocs	-10.6061
▁demostrat	-10.6068
▁soroll	-10.6074
terra	-10.6074
▁depèn	-10.6075
▁realitzada	-10.6077
▁entra	-10.608
pes	-10.6087
▁recórrer	-10.6088
▁individuals	-10.609
▁surten	-10.6097
▁excepte	-10.61
▁contemporània	-10.61
ón	-10.6102
▁antigues	-10.6103
sh	-10.6106
▁vaixell	-10.6117
atge	-10.6121
aquella	-10.6123
▁targeta	-10.6123
▁horari	-10.6125
▁pisos	-10.6126
▁avall	-10.613
▁mot	-10.6137
▁dedica	-10.6141
ligència	-10.6141
▁matrimoni	-10.6145
▁saps	-10.6148
▁ficció	-10.6149
▁teatral	-10.6152
▁intent	-10.6153
▁adaptar	-10.6157
▁far	-10.6159
▁intensitat	-10.6163
▁acull	-10.6175
▁lema	-10.6175
▁comptarà	-10.6176
▁càmera	-10.6176
▁ací	-10.6178
▁mínima	-10.6182
▁rector	-10.6184
▁contractes	-10.619
1%	-10.6191
▁estudiant	-10.6194
▁satisfacció	-10.6197
gà	-10.6198
▁propietari	-10.6199
▁universitària	-10.6202
▁pintor	-10.6213
▁tornem	-10.6213
▁rehabilitació	-10.6216
90	-10.6217
▁estructures	-10.6217
▁cavall	-10.6218
pul	-10.6223
▁modalitat	-10.6223
aragó	-10.6226
▁candidatura	-10.6227
▁exclusivament	-10.624
4%	-10.624
▁professió	-10.6241
▁derrota	-10.6244
▁finestra	-10.6245
▁tria	-10.625
atac	-10.6254
▁miguel	-10.6255
▁capacitats	-10.6256
7%	-10.6257
▁matèries	-10.6265
▁crist	-10.6266
▁francisco	-10.6268
▁punta	-10.6275
▁facilitat	-10.6277
▁joaquim	-10.6282
▁mandat	-10.6283
▁opinions	-10.6284
▁gastronomia	-10.6285
▁incloent	-10.6286
obre	-10.6286
▁maresme	-10.6287
▁afectats	-10.6297
▁vides	-10.6301
▁eliminar	-10.6307
tur	-10.6309
▁adolescents	-10.6309
tion	-10.6311
▁industrials	-10.6311
▁semblar	-10.6312
▁mereix	-10.6313
▁par	-10.6313
▁verda	-10.6315
▁orgànica	-10.6318
▁crèdit	-10.6324
jar	-10.6328
▁trobades	-10.6328
▁bus	-10.6332
▁rere	-10.6333
adors	-10.6335
▁dignitat	-10.6338
▁introduir	-10.634
uc	-10.6341
▁↑	-10.6341
▁decideix	-10.6347
ego	-10.6351
▁vilafranca	-10.6354
▁fulles	-10.6358
▁ponent	-10.6358
▁bur	-10.6359
▁millores	-10.636
eri	-10.6363
ep	-10.6363
ví	-10.6364
▁consideren	-10.6366
humor	-10.6367
però	-10.6368
lin	-10.6369
algunes	-10.6371
▁tensió	-10.6373
ics	-10.6385
▁pertany	-10.6388
estatut	-10.639
▁determinar	-10.6391
▁fonamentals	-10.6393
▁ingredients	-10.6395
ses	-10.6397
▁xifres	-10.6398
▁recordat	-10.64
▁combinació	-10.6401
▁viatgers	-10.6402
▁penya	-10.6404
▁portada	-10.6409
▁començarà	-10.6409
independentistes	-10.641
▁prestació	-10.641
▁rambla	-10.6412
itza	-10.6413
▁europees	-10.6429
80	-10.6431
▁frontera	-10.6432
▁bisbe	-10.6433
▁mostrat	-10.6444
▁presidència	-10.645
ru	-10.645
▁fre	-10.6452
▁graus	-10.6454
orientació	-10.6454
▁literari	-10.6457
▁gegant	-10.6458
▁guanya	-10.6465
▁bàsic	-10.6471
▁establert	-10.6472
▁profunditat	-10.6474
▁pilot	-10.6476
▁granollers	-10.6477
▁salvar	-10.6477
odi	-10.6478
▁religió	-10.648
▁representen	-10.6481
▁històrics	-10.6484
▁aules	-10.6485
▁bandera	-10.6492
29	-10.6494
▁pesca	-10.6498
▁judici	-10.6501
▁repressió	-10.6502
▁escriptor	-10.6506
▁programari	-10.6512
▁treballem	-10.6514
▁desprès	-10.6517
▁gest	-10.6519
▁allí	-10.6522
▁voltes	-10.6525
laboradors	-10.6532
▁metodologia	-10.6533
▁penal	-10.6534
▁formatge	-10.654
▁sindicats	-10.654
▁retallades	-10.6541
▁destinat	-10.6542
▁vicenç	-10.6543
quen	-10.6544
▁ko	-10.6545
▁complicat	-10.655
▁proporciona	-10.655
▁receptes	-10.6551
▁soler	-10.6554
▁fàcilment	-10.6558
▁obtingut	-10.656
▁sentiment	-10.6562
ombra	-10.6576
▁anomenada	-10.6577
▁correcte	-10.6578
ty	-10.6579
▁new	-10.6582
▁paisatges	-10.6584
▁bombers	-10.6588
▁rodríguez	-10.6591
▁construït	-10.6591
baix	-10.6592
▁delicte	-10.6595
▁denunciar	-10.6599
▁anunciar	-10.6601
▁felicitat	-10.6614
ordenació	-10.6618
▁presos	-10.6618
anomena	-10.662
ang	-10.6623
▁escollit	-10.6627
▁màrqueting	-10.6629
ct	-10.6629
▁pit	-10.6631
eg	-10.6632
amics	-10.6633
▁recordem	-10.6634
▁escena	-10.6638
▁determinats	-10.6648
ster	-10.6657
▁curta	-10.666
▁clic	-10.666
▁difondre	-10.666
▁st	-10.6664
▁mirant	-10.6668
▁tir	-10.6671
▁visitant	-10.6675
▁clàssics	-10.6678
exili	-10.668
▁sorra	-10.6681
▁diagnòstic	-10.6681
▁practicar	-10.6683
▁torra	-10.6683
▁menú	-10.669
fo	-10.6691
dre	-10.67
▁vivint	-10.6701
pat	-10.6703
▁descobreix	-10.6705
ahir	-10.6708
▁guarda	-10.6711
▁dispositius	-10.6712
▁avantatges	-10.6713
rat	-10.6713
▁iv	-10.6715
mal	-10.672
▁incorporació	-10.6722
▁gir	-10.6726
▁laboratori	-10.6728
▁conscients	-10.6731
▁bandes	-10.6732
▁bàsica	-10.6736
98	-10.6737
▁propietats	-10.6738
▁veient	-10.6738
▁implicació	-10.6739
▁piano	-10.674
ave	-10.674
▁barra	-10.6741
▁veurem	-10.6743
▁cervell	-10.6746
▁atendre	-10.6747
▁roger	-10.6747
▁recepció	-10.6752
▁parcial	-10.6754
ue	-10.6756
▁cristina	-10.6761
bal	-10.6766
▁respectivament	-10.6776
▁sensibilitat	-10.678
dores	-10.678
▁fabricació	-10.6781
▁mecanismes	-10.6781
estrena	-10.6784
▁pasta	-10.6784
ben	-10.6786
▁edats	-10.6789
88	-10.6789
tge	-10.679
▁àrea	-10.6791
▁exercici	-10.6806
▁pogués	-10.6811
real	-10.6811
su	-10.6812
▁adequada	-10.6813
▁increment	-10.6814
cada	-10.6815
▁32	-10.6816
▁cab	-10.6822
▁campanyes	-10.6823
▁gossos	-10.683
aga	-10.6832
import	-10.6835
ez	-10.6836
▁rival	-10.6841
▁veïnes	-10.6846
zi	-10.685
editorial	-10.685
▁more	-10.6851
aris	-10.6852
▁realitzades	-10.6854
innovació	-10.6856
▁daniel	-10.6858
▁metges	-10.6858
▁cantar	-10.6858
▁decoració	-10.6859
▁companyies	-10.6867
▁alternatives	-10.6872
▁oficines	-10.6872
aparcament	-10.6875
▁aturar	-10.6877
▁bas	-10.6877
▁retirar	-10.6879
▁cava	-10.6891
▁bàsicament	-10.6892
▁components	-10.6894
▁video	-10.6903
▁dispositiu	-10.691
▁ingressos	-10.6911
▁jardins	-10.6911
▁destinació	-10.6911
▁especialitzada	-10.6912
▁maría	-10.6912
establiment	-10.6915
▁descens	-10.6917
6%	-10.6918
▁sanitària	-10.6919
▁delegació	-10.692
▁educatives	-10.692
▁personalment	-10.6921
▁democràtic	-10.6923
▁actitud	-10.6923
▁ocupa	-10.6924
excel	-10.6926
eja	-10.6927
▁transformar	-10.693
esca	-10.693
▁incloure	-10.6931
▁disposem	-10.6932
▁baixes	-10.6937
▁caiguda	-10.6937
▁errors	-10.6946
55	-10.6947
▁ubicació	-10.6955
▁guillem	-10.6967
▁ambdós	-10.6974
▁signar	-10.6976
▁absolutament	-10.6977
▁suposar	-10.6979
▁acompanyats	-10.6982
▁continuen	-10.6984
▁escenari	-10.6984
enca	-10.6988
▁recomana	-10.6997
▁comencem	-10.7001
▁factor	-10.7001
pu	-10.7002
▁2003	-10.7006
▁cancel	-10.7008
▁masia	-10.7015
explotació	-10.7019
▁ocupar	-10.7022
▁convida	-10.7025
ssin	-10.7027
▁química	-10.7032
95	-10.7038
▁disposen	-10.7043
▁refugiats	-10.7047
quin	-10.705
▁significat	-10.7053
▁altes	-10.7056
cis	-10.706
mos	-10.706
▁exactament	-10.7063
▁revistes	-10.7071
▁usos	-10.7073
▁adreça	-10.7073
▁donem	-10.7075
km	-10.7077
▁cd	-10.7083
▁fernández	-10.7084
▁escrits	-10.7084
▁criteri	-10.7089
▁esdevenir	-10.7093
▁cala	-10.7094
itzen	-10.7095
▁rafael	-10.7098
▁sitges	-10.7099
76	-10.7104
▁còmic	-10.7109
▁tradicions	-10.7111
▁efectiva	-10.7115
▁percentatge	-10.7118
▁zero	-10.7119
▁afavorir	-10.712
▁superiors	-10.7122
til	-10.7127
▁declarar	-10.7131
▁bancs	-10.714
▁prestigi	-10.7155
▁esperant	-10.7158
▁hàbits	-10.7159
▁necessitem	-10.716
▁finca	-10.7177
▁comptat	-10.7179
▁terrenys	-10.7181
▁tortosa	-10.7181
▁femenina	-10.7183
ça	-10.7193
▁quadre	-10.7198
▁luxe	-10.7199
▁pensem	-10.72
▁plàstic	-10.7209
▁2001	-10.7212
▁estàs	-10.7216
▁2017,	-10.7222
86	-10.7228
▁coincidint	-10.7234
▁crònica	-10.7237
▁quinze	-10.7239
▁dissenyat	-10.7239
▁presentarà	-10.7242
amèrica	-10.7243
▁calia	-10.7244
▁divertit	-10.7245
8%	-10.7247
clar	-10.7249
▁coordinadora	-10.7249
▁vidal	-10.726
▁adonar	-10.7262
ccions	-10.7263
cin	-10.7268
▁generalment	-10.727
ssa	-10.7276
▁passi	-10.7279
▁determinat	-10.7279
▁inicialment	-10.7281
tv	-10.7285
▁cicles	-10.7288
▁potència	-10.7288
▁suau	-10.7288
▁reina	-10.7292
esquí	-10.7293
▁mou	-10.7293
▁turistes	-10.7301
▁pedres	-10.7305
▁tic	-10.7305
▁llibreria	-10.7308
▁prepara	-10.7312
▁suposat	-10.7312
▁màquines	-10.7314
▁haurem	-10.7316
▁oriol	-10.7317
▁hola	-10.7325
explicar	-10.7328
guda	-10.7329
ting	-10.733
ants	-10.7336
33	-10.7339
▁realitzarà	-10.7342
▁permeti	-10.7342
cha	-10.7348
▁legals	-10.7353
▁facilita	-10.7354
anna	-10.7355
line	-10.7355
65	-10.7356
té	-10.7359
▁sanitari	-10.7359
▁faltar	-10.7361
▁consellera	-10.7363
xo	-10.7364
▁top	-10.7364
▁açò	-10.7366
9%	-10.7366
▁sabor	-10.7368
▁tindrem	-10.737
▁mata	-10.7375
▁radio	-10.7376
escena	-10.7378
tori	-10.7381
▁red	-10.7382
impuls	-10.7393
▁trets	-10.7394
▁psicologia	-10.7394
▁fantàstic	-10.7399
▁ajudes	-10.7405
▁llorenç	-10.7407
▁singular	-10.7407
pla	-10.7407
▁proposem	-10.7409
▁cercle	-10.7411
▁felip	-10.7417
▁sec	-10.742
▁envers	-10.742
ano	-10.7424
▁superat	-10.7425
▁específic	-10.7434
▁colònies	-10.745
▁sergi	-10.7455
87	-10.7461
aliments	-10.7461
▁conjunta	-10.7462
▁pou	-10.7463
▁sabut	-10.7463
▁concessió	-10.7464
▁manel	-10.7471
anunci	-10.7471
▁trobava	-10.7475
for	-10.7477
▁reacció	-10.7484
▁símbol	-10.7487
vis	-10.7489
▁convidats	-10.7493
▁creix	-10.7498
ley	-10.7502
gue	-10.7502
▁treballadores	-10.7503
▁clínica	-10.7503
▁navegador	-10.7504
▁expressa	-10.7509
▁inclosos	-10.751
▁teníem	-10.7512
▁ccoo	-10.7518
▁eficaç	-10.752
▁aventura	-10.752
▁balanç	-10.752
▁garanteix	-10.7522
▁votació	-10.7528
▁verge	-10.7529
▁rus	-10.7539
haurà	-10.754
▁avançat	-10.7542
apos	-10.7543
▁famós	-10.7543
▁intens	-10.7543
▁falla	-10.7548
▁grec	-10.7558
▁john	-10.756
enginyeria	-10.7561
var	-10.7561
▁similars	-10.7564
34	-10.7581
▁xvi	-10.7582
▁extraordinària	-10.7584
▁potent	-10.7586
▁permís	-10.7587
▁genial	-10.7588
hort	-10.7593
▁jurídica	-10.7594
bre	-10.7596
▁miró	-10.7596
▁reproducció	-10.7597
imperi	-10.7598
▁riure	-10.7599
pin	-10.7605
▁rius	-10.7606
▁consentiment	-10.7608
▁gala	-10.7611
▁elèctric	-10.7611
▁inversions	-10.7613
2015	-10.7614
▁temperatures	-10.7615
▁equipaments	-10.7615
▁principat	-10.7619
▁33	-10.7628
▁matinada	-10.7631
▁península	-10.7633
igualtat	-10.764
▁xerrades	-10.7641
▁referències	-10.7644
▁indrets	-10.7644
▁cha	-10.7649
▁oferint	-10.7651
escriure	-10.7658
▁duran	-10.7658
▁tendències	-10.7659
▁negres	-10.7664
▁buit	-10.7668
esquena	-10.7674
rt	-10.7674
▁ajuts	-10.7675
▁franco	-10.7678
▁gat	-10.7679
▁somriure	-10.7683
32	-10.7684
▁compositor	-10.7691
▁sostre	-10.7692
▁apunta	-10.7694
dra	-10.7697
tri	-10.7698
▁coordinador	-10.7701
entrega	-10.7701
▁esdevé	-10.7705
▁racó	-10.7705
espanyol	-10.7706
▁guanyadors	-10.7708
bit	-10.7709
▁acaben	-10.771
2,	-10.7711
▁visitat	-10.7711
drà	-10.7715
ries	-10.7718
▁repertori	-10.772
alacant	-10.772
▁eco	-10.7723
▁error	-10.7726
▁anteriorment	-10.7726
dar	-10.7737
▁mari	-10.7737
▁descobert	-10.7739
▁estacions	-10.774
▁galetes	-10.7741
▁avis	-10.7744
▁números	-10.7744
encs	-10.7747
▁gràfic	-10.7749
▁mètodes	-10.7749
▁sensacions	-10.775
eixen	-10.7751
▁associats	-10.7751
▁privades	-10.7752
▁versions	-10.7754
▁vagi	-10.7756
▁xavi	-10.7757
▁correcta	-10.7759
▁comprensió	-10.7764
▁campanar	-10.7766
▁conductor	-10.7775
▁trobaràs	-10.7775
▁solen	-10.7781
▁mostres	-10.7788
▁roja	-10.779
autoritat	-10.7791
▁laura	-10.7793
▁rebuig	-10.7795
▁atac	-10.7797
bus	-10.7804
▁proporcionar	-10.7812
▁específica	-10.7813
don	-10.7814
explica	-10.7814
wa	-10.7816
▁intervencions	-10.7819
iz	-10.782
cc	-10.7821
▁combat	-10.7823
locar	-10.7827
▁pablo	-10.7833
▁cul	-10.7833
▁pobla	-10.7833
▁rússia	-10.7837
▁novament	-10.7841
ors	-10.7843
elecció	-10.7844
ef	-10.7844
▁comerços	-10.7848
oliva	-10.7849
▁meta	-10.7854
▁by	-10.7856
▁portarà	-10.7856
▁feines	-10.7859
▁robert	-10.7863
▁canvia	-10.7864
llo	-10.7866
▁organismes	-10.7867
▁tractaments	-10.787
▁mag	-10.787
▁cultures	-10.7873
▁llevat	-10.7873
aquelles	-10.7878
▁relacionat	-10.7878
▁consultes	-10.7889
▁inicis	-10.789
▁negociació	-10.7892
▁36	-10.7896
▁regulació	-10.7897
▁secretaria	-10.7905
▁ana	-10.7906
tica	-10.7906
licituds	-10.7907
▁demanen	-10.7909
operació	-10.7909
▁fitxer	-10.791
din	-10.7912
▁fiscals	-10.7912
▁brillant	-10.792
▁detectar	-10.7921
▁reforçar	-10.7923
▁rodes	-10.7923
acabar	-10.7924
olot	-10.7925
fil	-10.7925
▁envolta	-10.7927
▁posicions	-10.7933
gu	-10.7935
▁fixa	-10.7935
▁contactar	-10.7936
▁administrativa	-10.7943
▁finestres	-10.7943
89	-10.7945
▁residents	-10.7951
▁cova	-10.7952
▁formacions	-10.7954
▁configuració	-10.7957
▁estrany	-10.796
▁patit	-10.7964
alba	-10.7968
▁galeria	-10.797
▁suc	-10.7973
▁declarat	-10.7974
quan	-10.7974
▁esteve	-10.7974
cas	-10.7976
▁coloma	-10.7982
▁recomanable	-10.7983
bul	-10.7983
▁gonzález	-10.7983
▁mèxic	-10.7983
quer	-10.7985
▁denúncia	-10.7987
▁reg	-10.7987
▁fórmula	-10.7988
▁senyora	-10.7989
▁agradar	-10.7995
molt	-10.7996
▁anaven	-10.7997
▁espanyoles	-10.7998
od	-10.7998
▁empordà	-10.8001
if	-10.8003
▁dissenyar	-10.8006
▁consumidors	-10.8013
one	-10.8013
inscripció	-10.8016
▁pateix	-10.8016
▁economia	-10.8018
▁resultar	-10.8025
▁manifestacions	-10.803
▁saludable	-10.8031
▁etapes	-10.8032
▁capdavant	-10.8036
agenda	-10.8038
animació	-10.8042
▁sento	-10.8045
▁coneixem	-10.8046
▁contaminació	-10.8048
▁creada	-10.8049
ofici	-10.8049
▁oberts	-10.8049
▁rebel	-10.8051
▁esteu	-10.8053
▁riba	-10.8055
▁editat	-10.8056
▁ecològica	-10.8056
▁legislatura	-10.8061
79	-10.8065
imatges	-10.8068
bes	-10.8069
dy	-10.807
guem	-10.8073
▁servit	-10.8075
▁basc	-10.8077
▁escenaris	-10.8079
▁relats	-10.8084
▁plegats	-10.8084
cent	-10.8085
▁manual	-10.8086
què	-10.8087
▁constitueix	-10.8088
ira	-10.8095
▁benvinguda	-10.8096
▁casals	-10.8097
acollida	-10.8098
2016	-10.8098
▁fidel	-10.8099
▁habitualment	-10.81
▁unides	-10.81
▁víctima	-10.8103
altura	-10.8108
▁veí	-10.8111
▁cervesa	-10.8117
▁pateixen	-10.8118
▁suprem	-10.8118
▁seminari	-10.8119
▁noi	-10.8119
▁afrontar	-10.812
▁impacte	-10.8123
▁visible	-10.8123
▁triat	-10.8124
▁transmissió	-10.8124
ificació	-10.8126
rio	-10.8126
▁conca	-10.813
▁romana	-10.813
▁orígens	-10.8131
▁defineix	-10.8132
▁afirmar	-10.8134
▁eua	-10.8142
exclusió	-10.8143
▁etiquetes	-10.8143
▁curses	-10.8144
▁procediments	-10.8145
▁marit	-10.8147
adaptació	-10.8148
▁òrgans	-10.8155
▁respectar	-10.8156
▁origen	-10.8157
sat	-10.8161
▁àmbit	-10.8163
▁periodisme	-10.8164
gat	-10.8164
▁creant	-10.8165
▁cares	-10.8167
legal	-10.8167
▁centenar	-10.8168
exemple	-10.8173
▁sarrià	-10.8173
▁apropar	-10.8174
▁prevista	-10.8176
▁hotels	-10.818
▁expliquen	-10.8182
▁dedicació	-10.8186
gent	-10.8188
▁penjar	-10.8189
dó	-10.8189
ró	-10.819
▁propòsit	-10.8193
▁totalitat	-10.8194
agrupació	-10.8194
▁semi	-10.8198
aca	-10.8199
▁tornen	-10.82
▁2018,	-10.8202
ft	-10.8203
▁fronteres	-10.8203
▁soc	-10.8203
▁conservar	-10.8204
▁campió	-10.8205
mm	-10.8209
▁nits	-10.8211
▁candidats	-10.8225
▁actua	-10.8226
▁ri	-10.8227
75	-10.823
▁participant	-10.8231
americà	-10.8232
pp	-10.8232
▁tros	-10.8235
dí	-10.8236
37	-10.8243
▁essencial	-10.8245
▁z	-10.8245
▁50%	-10.8249
▁vendes	-10.825
▁go	-10.8251
▁imaginació	-10.8254
▁ventall	-10.8255
quet	-10.8258
▁regula	-10.8261
▁colles	-10.8262
▁obre	-10.8264
▁faria	-10.8264
59	-10.8265
infant	-10.827
▁artista	-10.8278
eficiència	-10.828
▁perd	-10.8282
van	-10.8283
▁matar	-10.8283
▁brava	-10.8283
ànima	-10.8289
▁universitaris	-10.829
▁patronat	-10.8297
▁combina	-10.8297
▁músic	-10.8297
▁oral	-10.83
▁groc	-10.83
▁protocol	-10.8301
▁procedents	-10.8302
vel	-10.8305
96	-10.8306
age	-10.8309
ip	-10.8311
▁japó	-10.8315
▁intensa	-10.8315
nis	-10.8316
legis	-10.8317
empordà	-10.8317
▁esportius	-10.8319
ló	-10.8322
▁progrés	-10.8322
▁dolors	-10.8327
tec	-10.8327
70	-10.8328
▁missa	-10.8329
▁passarà	-10.8338
▁colom	-10.8339
arròs	-10.8344
▁gris	-10.8347
af	-10.8352
▁semblen	-10.8352
48	-10.8353
▁tràmits	-10.8353
49	-10.8355
▁romà	-10.8355
▁bonica	-10.8355
sense	-10.836
▁panorama	-10.8366
pel	-10.8369
▁eixos	-10.8373
▁localització	-10.8373
▁sorteig	-10.8375
▁referents	-10.8376
▁físiques	-10.8376
▁determinades	-10.8378
▁divertida	-10.8383
etapa	-10.8384
encara	-10.8385
▁immediatament	-10.8389
▁beques	-10.8395
▁relacionada	-10.8395
▁dictadura	-10.8398
fec	-10.8399
▁pobres	-10.8401
increment	-10.8405
▁imaginar	-10.8405
▁informativa	-10.8405
▁donava	-10.8407
entrevista	-10.841
▁dr	-10.8412
esquerres	-10.8415
▁quotidiana	-10.8421
▁passava	-10.8423
▁dimensió	-10.8432
▁plata	-10.8433
▁optar	-10.8435
▁compartit	-10.8436
▁1999	-10.8437
▁assenyala	-10.8438
▁sorgir	-10.8438
▁afecten	-10.8441
▁impostos	-10.8442
▁especialitzat	-10.8449
▁65	-10.845
▁cercar	-10.8451
74	-10.8458
▁ajuden	-10.8464
▁quaranta	-10.8465
▁profunda	-10.8467
▁informacions	-10.8467
▁marítim	-10.8467
aprendre	-10.8476
lel	-10.8484
▁cinquanta	-10.8486
▁agrícola	-10.8486
▁ballar	-10.8488
▁caldria	-10.8491
▁especialistes	-10.8493
allotjament	-10.8499
itzant	-10.85
▁institut	-10.8501
▁disponibilitat	-10.8506
dem	-10.8514
▁concreta	-10.8514
▁rellotge	-10.8517
▁bel	-10.8518
39	-10.8521
▁jugant	-10.8521
▁test	-10.8525
▁ed	-10.8526
▁integrat	-10.8531
▁parades	-10.8535
▁intenta	-10.8535
nar	-10.8537
▁creus	-10.854
▁reben	-10.8549
▁formats	-10.8555
▁gaudeix	-10.856
▁suposo	-10.856
▁roc	-10.8561
▁perque	-10.8561
▁isabel	-10.8563
▁recomanacions	-10.8564
▁germana	-10.8565
ami	-10.8568
▁tallar	-10.8578
▁subvenció	-10.8578
▁provincial	-10.8581
cos	-10.8589
her	-10.8589
▁uab	-10.8591
82	-10.8596
▁convoca	-10.8597
▁líders	-10.8597
aleshores	-10.8598
▁assessorament	-10.8601
tos	-10.8605
▁fruits	-10.8607
▁provocat	-10.861
estalvi	-10.8611
tina	-10.8611
▁jurídic	-10.8614
▁cívic	-10.8621
▁definitivament	-10.8624
▁inclouen	-10.8626
eig	-10.8628
equilibri	-10.8633
▁segell	-10.8634
▁mac	-10.8639
31	-10.8639
▁certes	-10.864
2014	-10.8646
tó	-10.8647
|	-10.8653
▁muntar	-10.8654
▁canviant	-10.8656
▁aire	-10.8656
observatori	-10.8661
▁vestit	-10.8662
`	-10.8663
▁enorme	-10.8664
▁fresc	-10.8665
▁específiques	-10.8666
▁conduir	-10.8667
iv	-10.8672
▁dirigeix	-10.8673
mà	-10.8674
▁vives	-10.8676
wi	-10.8676
▁converses	-10.8678
▁sentits	-10.8679
▁interpretar	-10.8682
rec	-10.8683
▁quim	-10.8684
▁certamen	-10.8685
▁compost	-10.8685
▁contemporani	-10.8691
ito	-10.8691
[3]	-10.8691
▁creuen	-10.8692
aventura	-10.8697
▁lideratge	-10.8703
▁correctament	-10.8705
▁cobertura	-10.8708
▁reportatge	-10.8716
▁italià	-10.8717
▁dèficit	-10.8718
▁reparació	-10.872
▁implantació	-10.8722
▁carreteres	-10.8724
▁pendents	-10.8725
índia	-10.8732
én	-10.8734
▁pensava	-10.8734
▁moll	-10.8736
▁estalvi	-10.8736
▁pirineus	-10.8736
▁tornarà	-10.874
▁xiv	-10.8743
ofereix	-10.8744
▁trobarem	-10.875
▁rovira	-10.875
▁pintar	-10.8751
▁proveïdors	-10.8756
▁informes	-10.8757
▁geo	-10.8763
▁acompanyada	-10.8766
▁llistes	-10.8769
▁bernat	-10.8769
▁reflexions	-10.8769
▁disciplina	-10.877
bra	-10.8775
bon	-10.8782
anes	-10.8785
▁connectar	-10.8788
▁arc	-10.8788
100	-10.8789
ai	-10.8792
▁durà	-10.8794
▁específics	-10.8799
▁manifestar	-10.8803
▁factura	-10.8805
gan	-10.8807
▁pagès	-10.881
▁regional	-10.8816
gran	-10.8819
independentisme	-10.882
emergència	-10.8821
encia	-10.8822
▁compres	-10.8823
38	-10.8824
▁desert	-10.8826
▁pdf	-10.8829
▁lucre	-10.8829
▁arxius	-10.8829
▁destacats	-10.8833
▁francesos	-10.8836
▁posteriors	-10.8842
▁forestal	-10.8842
ji	-10.8842
▁imposar	-10.8845
▁mol	-10.8845
▁dependència	-10.8845
ures	-10.8846
▁ric	-10.8847
lules	-10.8856
▁elevat	-10.8857
▁evolució	-10.8858
▁portem	-10.8859
▁privats	-10.8859
▁continu	-10.8864
ak	-10.8868
▁tro	-10.8871
▁plenament	-10.8871
▁convidat	-10.8874
▁cristians	-10.8874
▁jutjat	-10.8874
luminació	-10.8875
â	-10.8875
▁hospital	-10.8881
òs	-10.8884
97	-10.8887
cents	-10.8891
?”	-10.8893
▁crítiques	-10.8894
▁fossin	-10.8899
▁xvii	-10.8901
44	-10.8907
bat	-10.8913
▁divulgació	-10.8914
▁espectadors	-10.8916
adquisició	-10.8917
▁chi	-10.892
▁confirmar	-10.8921
200	-10.8921
▁anirem	-10.8921
▁impulsat	-10.8924
▁narrativa	-10.893
▁llac	-10.8931
eco	-10.8936
fu	-10.8944
▁costum	-10.8946
▁corredors	-10.8946
ones	-10.8947
▁informàtica	-10.8951
▁perfecta	-10.8961
▁anuals	-10.8962
▁gui	-10.8965
cy	-10.897
▁don	-10.8971
utilitzar	-10.8973
▁corredor	-10.8973
▁alts	-10.8978
▁centra	-10.898
itzades	-10.8987
▁dieta	-10.8988
▁javier	-10.8993
▁alimentació	-10.8995
▁avís	-10.8998
▁currículum	-10.9003
animals	-10.9004
▁vigor	-10.9004
▁sl	-10.9007
85	-10.9014
▁gràfica	-10.9015
nu	-10.9016
▁hauríem	-10.9019
▁llums	-10.902
oferir	-10.9022
▁magnífica	-10.9022
▁pin	-10.9024
▁financera	-10.9024
▁conegudes	-10.9027
▁75	-10.903
▁convocar	-10.903
▁àngel	-10.9033
mont	-10.9033
▁curiositat	-10.9034
ante	-10.9034
▁valent	-10.9039
▁administratiu	-10.9041
▁policial	-10.9041
▁compromet	-10.9043
▁molins	-10.9048
far	-10.9049
▁reclamar	-10.9051
▁magnífic	-10.9051
ula	-10.9052
83	-10.9055
▁descriu	-10.9056
▁abandonar	-10.906
▁reserves	-10.9061
36	-10.9062
▁tor	-10.9063
ence	-10.9064
▁gu	-10.9064
▁lliurar	-10.9067
ascens	-10.9068
▁escriptors	-10.9068
▁possiblement	-10.9073
▁pons	-10.9074
▁estaran	-10.9075
▁vivien	-10.9083
▁substituir	-10.9087
llen	-10.9088
actitud	-10.9089
▁quedi	-10.9089
▁mentrestant	-10.9092
estima	-10.9096
▁operacions	-10.9096
▁desnivell	-10.9098
▁aixecar	-10.9099
tz	-10.91
▁veia	-10.9103
▁destinats	-10.9111
ist	-10.9113
▁finalitats	-10.9115
▁militars	-10.9117
▁ge	-10.9117
▁oposició	-10.9121
▁denominació	-10.9123
▁lògica	-10.9125
lles	-10.9126
▁600	-10.9127
gués	-10.9132
▁vinya	-10.9132
▁cort	-10.9139
▁world	-10.9139
▁arribant	-10.9142
▁corda	-10.9145
▁fotogràfic	-10.9147
▁tropes	-10.915
▁passem	-10.9151
▁llegenda	-10.9152
▁seguidors	-10.9153
▁balear	-10.9156
▁freqüència	-10.9158
▁après	-10.9159
▁habilitat	-10.916
arquitecte	-10.916
▁moltíssim	-10.9163
▁remei	-10.9163
chi	-10.9165
▁assumir	-10.9166
▁trajecte	-10.9167
▁pastor	-10.9169
▁gi	-10.9172
arra	-10.9172
ff	-10.9173
▁testimonis	-10.9174
▁metàl	-10.9176
algun	-10.9176
catalunya	-10.9176
▁solucionar	-10.9179
eb	-10.9181
▁portava	-10.9186
▁virus	-10.9189
▁concepció	-10.9191
▁varem	-10.9192
▁caracteritza	-10.9192
▁passejar	-10.9192
▁efectiu	-10.9192
▁conclusions	-10.9196
guera	-10.9197
▁ram	-10.9197
▁diària	-10.9199
▁consens	-10.9202
▁realitzant	-10.9212
▁arrels	-10.9216
èr	-10.9218
▁vegetació	-10.9219
▁deixo	-10.9219
quem	-10.9219
▁gabriel	-10.9221
▁desplaçar	-10.9222
▁papers	-10.9226
▁parcs	-10.9226
▁gremi	-10.923
rre	-10.9231
▁ger	-10.9233
▁comissions	-10.9235
▁vicepresident	-10.9237
▁cooperatives	-10.9241
▁interessades	-10.9241
▁centenari	-10.9242
▁voldria	-10.9243
▁rodona	-10.9246
▁produeixen	-10.9249
▁bou	-10.9249
▁diria	-10.9252
▁tour	-10.9257
▁impressió	-10.9257
▁assistència	-10.9261
▁empresaris	-10.9262
eo	-10.9263
▁ambientals	-10.9273
▁contempla	-10.9276
▁fina	-10.9277
▁bressol	-10.9281
▁amiga	-10.9283
organisme	-10.9286
▁negar	-10.9286
▁franquisme	-10.9288
ire	-10.9289
▁hu	-10.9297
ètica	-10.9297
▁2002	-10.9299
▁bru	-10.9302
▁modificacions	-10.9308
▁litoral	-10.9309
▁llargues	-10.9312
fra	-10.9322
▁misteri	-10.9322
vic	-10.9325
▁somnis	-10.9332
albert	-10.9342
▁apuntar	-10.9343
rd	-10.9347
▁filles	-10.9351
▁mantingut	-10.9352
▁santiago	-10.9353
▁consumidor	-10.9354
cant	-10.9354
▁certs	-10.9355
▁previsió	-10.9356
cional	-10.9359
▁conclusió	-10.936
▁gaudí	-10.9361
ms	-10.9361
▁capa	-10.9363
▁1936	-10.9365
▁llatí	-10.9368
▁cabell	-10.9369
47	-10.9372
▁radical	-10.9373
nya	-10.9374
▁cartells	-10.9375
▁consolidar	-10.9377
▁guitarra	-10.9377
▁entrat	-10.9378
▁ga	-10.9379
cr	-10.9384
▁garanties	-10.9389
▁víctor	-10.939
segui	-10.939
▁racons	-10.9391
abans	-10.9391
▁retrat	-10.9393
▁difícils	-10.9396
▁ambdues	-10.9396
▁extraordinari	-10.9401
▁serien	-10.9402
▁éssers	-10.9406
▁banyoles	-10.9407
▁patró	-10.9407
▁mono	-10.9409
▁arguments	-10.9411
!!!!	-10.9413
▁excepcional	-10.9416
▁transferència	-10.9417
aro	-10.9419
68	-10.9424
▁cementiri	-10.9425
’11	-10.9429
3,	-10.9429
▁fases	-10.9429
▁condemna	-10.9433
uda	-10.9433
▁34	-10.9433
▁rigor	-10.9434
▁exclusiva	-10.9434
acadèmia	-10.9437
▁bages	-10.9439
94	-10.9441
▁fundador	-10.9443
▁sebastià	-10.9445
lis	-10.9447
▁explicacions	-10.9449
▁recomanem	-10.9451
▁funcionaris	-10.9454
ampliació	-10.9456
▁estrella	-10.9457
dio	-10.9459
▁serveixen	-10.946
▁vius	-10.9462
ku	-10.9462
mil	-10.9466
57	-10.9471
▁rellevants	-10.9475
▁monument	-10.9476
▁forts	-10.9478
àvia	-10.948
lents	-10.948
▁servidor	-10.9481
▁garrotxa	-10.9481
▁enlloc	-10.9482
▁38	-10.9482
▁importa	-10.9483
acosta	-10.9483
▁varietats	-10.9484
ado	-10.9485
▁caire	-10.949
ü	-10.9491
▁funcionar	-10.9495
▁mantenen	-10.9497
▁2016,	-10.9497
▁diccionari	-10.9499
▁abast	-10.9507
▁comanda	-10.9511
▁tesi	-10.9513
▁profund	-10.9514
▁percepció	-10.9516
arà	-10.9518
▁aportació	-10.952
▁construccions	-10.9524
impost	-10.9525
▁fracàs	-10.9526
▁moto	-10.9527
ligent	-10.9532
rra	-10.9534
91	-10.9534
▁ceràmica	-10.9535
▁tapa	-10.9537
▁eficient	-10.9538
▁immediata	-10.9539
▁carnet	-10.954
▁gamma	-10.9542
ciones	-10.9542
\	-10.9542
▁preocupació	-10.9545
fort	-10.9546
▁llistat	-10.9549
▁convidar	-10.9549
universitat	-10.9551
▁reduït	-10.9552
amo	-10.9553
▁trama	-10.9553
▁nomenat	-10.9554
ret	-10.9558
▁cridar	-10.9559
▁majoritàriament	-10.956
▁insular	-10.956
ini	-10.9569
ncia	-10.9573
bel	-10.9574
fins	-10.9574
▁min	-10.9576
tis	-10.9584
▁denuncia	-10.9585
▁vergonya	-10.9586
▁pintures	-10.9597
▁martorell	-10.9598
▁proposat	-10.9599
xe	-10.9602
assessorament	-10.9603
58	-10.9603
▁pica	-10.9611
▁comerciants	-10.9612
▁formant	-10.9623
set	-10.9623
▁convocat	-10.9624
▁entenc	-10.9625
▁cerdanyola	-10.9626
lli	-10.9627
▁exercicis	-10.9627
▁ub	-10.9627
burg	-10.9629
▁escales	-10.9633
▁cohesió	-10.9635
ros	-10.964
bu	-10.9644
▁federal	-10.9647
▁còpia	-10.9648
▁funcional	-10.9648
▁import	-10.9649
▁tecnològic	-10.965
▁fon	-10.9651
▁mestra	-10.9655
▁acostar	-10.9657
mis	-10.9659
▁retirada	-10.9661
▁vinyes	-10.9662
▁depenent	-10.9665
ïn	-10.9667
▁verdures	-10.9668
▁xiii	-10.9671
▁curiós	-10.9677
▁productors	-10.9678
▁vendrell	-10.9678
nova	-10.968
▁provisional	-10.9683
64	-10.9687
▁trams	-10.9692
▁apartat	-10.9694
sen	-10.9699
▁volien	-10.9701
▁religiosa	-10.9705
nen	-10.9708
▁sorprenent	-10.971
▁bot	-10.971
▁250	-10.9715
▁seccions	-10.9717
▁vianants	-10.9719
▁2015,	-10.9723
▁calma	-10.9726
▁grècia	-10.9728
▁boi	-10.9728
46	-10.9733
▁presentada	-10.9735
▁coure	-10.9735
▁augmenta	-10.9737
▁creuar	-10.9742
entrenament	-10.9744
▁je	-10.9745
▁expectatives	-10.9745
▁caminant	-10.9746
▁parcel	-10.9747
▁protesta	-10.975
▁havent	-10.9751
▁afirmat	-10.9752
▁detingut	-10.9753
▁subministrament	-10.9756
▁sèries	-10.9756
▁balaguer	-10.9758
por	-10.9759
▁assenyalat	-10.9762
cons	-10.9763
▁impuls	-10.9771
▁territorials	-10.9774
▁republicana	-10.9775
iem	-10.9776
encarrega	-10.9778
▁exemplars	-10.9779
▁príncep	-10.978
▁atacs	-10.9781
▁estrelles	-10.9781
espectador	-10.9782
▁turó	-10.9785
▁cambrils	-10.9786
lica	-10.979
▁complexitat	-10.9792
sor	-10.9799
▁obligacions	-10.9806
42	-10.9806
▁combatre	-10.9807
cus	-10.9809
▁electrònics	-10.9812
inicia	-10.9814
▁ocupació	-10.9814
[4]	-10.9819
▁expressament	-10.9828
▁demandes	-10.9831
▁vocació	-10.9831
tera	-10.9834
estadi	-10.9835
cre	-10.9838
▁parroquial	-10.9841
▁sobirania	-10.9844
stra	-10.9847
▁valencianes	-10.9848
▁adaptat	-10.9853
ker	-10.9854
gre	-10.9856
▁dits	-10.9859
▁xv	-10.9861
▁llevant	-10.9861
▁armes	-10.9862
anoia	-10.9862
▁competir	-10.9863
▁promou	-10.9866
top	-10.9872
▁natació	-10.9872
▁drac	-10.9872
▁retornar	-10.9875
ani	-10.9878
▁reclama	-10.9878
▁fas	-10.9879
▁urbans	-10.9879
▁estable	-10.988
▁plataformes	-10.988
▁creativa	-10.9883
▁travessa	-10.9884
evitar	-10.9886
▁bossa	-10.9886
▁iguals	-10.9887
extrem	-10.9887
també	-10.9889
gó	-10.989
67	-10.9891
porta	-10.9892
▁ous	-10.9894
dir	-10.9898
▁murs	-10.9905
▁presentem	-10.9906
▁comte	-10.9906
▁rol	-10.9909
43	-10.991
acer	-10.9914
vers	-10.9915
ocasió	-10.9915
organitza	-10.9917
▁indret	-10.9917
▁deixeu	-10.992
▁manifesta	-10.9921
estudiants	-10.9922
▁impedir	-10.9922
▁tancada	-10.9923
▁paella	-10.9925
56	-10.9926
▁155	-10.9927
▁poseu	-10.9927
alça	-10.9928
part	-10.9931
▁accident	-10.9933
ek	-10.9934
▁instruccions	-10.9934
arts	-10.9936
aigües	-10.9938
▁coalició	-10.9939
▁tur	-10.9939
▁pero	-10.9944
▁molí	-10.9944
▁esportistes	-10.9947
▁convent	-10.9949
▁centrat	-10.9951
accessibilitat	-10.9953
▁expressió	-10.9954
▁braços	-10.9954
▁allotjament	-10.9958
▁blanques	-10.9959
autora	-10.9961
▁quota	-10.9962
▁her	-10.9965
ring	-10.9967
▁franquista	-10.9968
▁fixar	-10.9969
▁porter	-10.997
espais	-10.9971
▁existent	-10.9976
ori	-10.9976
▁inclusió	-10.9977
▁disputar	-10.9977
▁guió	-10.9979
▁intern	-10.9981
sim	-10.9982
▁entenem	-10.9991
▁amants	-10.9991
▁regions	-10.9992
▁mobilització	-10.9994
▁nas	-10.9994
▁campanes	-10.9994
▁esdevingut	-10.9998
òpera	-11.0004
laborat	-11.0007
▁acollirà	-11.001
▁signatura	-11.0015
▁freqüent	-11.0015
itzats	-11.0016
2009	-11.0021
▁quedarà	-11.0022
▁poetes	-11.0025
▁malauradament	-11.0025
▁matrícula	-11.0027
▁inclosa	-11.0032
dit	-11.0037
▁llull	-11.0038
▁informàtic	-11.0038
▁golf	-11.0043
▁normalitat	-11.0043
by	-11.0044
aspecte	-11.005
▁idioma	-11.0051
▁possessió	-11.0052
▁constància	-11.0054
tia	-11.0056
bil	-11.0057
▁definitiu	-11.0059
gia	-11.0059
▁julià	-11.0061
▁supera	-11.0061
▁escenes	-11.0062
▁geografia	-11.0062
▁reuneix	-11.0065
objecte	-11.0066
▁bra	-11.0068
▁milió	-11.0068
▁prioritat	-11.007
▁drogues	-11.0072
accions	-11.0073
▁fresca	-11.0074
▁fugir	-11.0075
▁obliga	-11.0075
▁pensions	-11.0081
▁continuem	-11.0082
▁soldats	-11.0083
81	-11.0086
▁fitxa	-11.0087
▁vocal	-11.0091
enviament	-11.0092
ual	-11.0099
▁santuari	-11.0101
ling	-11.0104
▁cames	-11.0105
▁notable	-11.0107
▁plan	-11.0107
▁sons	-11.0108
▁talla	-11.011
▁solitari	-11.011
zar	-11.0113
▁alcalde	-11.0113
▁catedràtic	-11.0114
▁ports	-11.0115
▁alba	-11.0115
▁docència	-11.0117
▁borsa	-11.012
▁ordinador	-11.012
▁mora	-11.0121
▁assemblea	-11.0122
of	-11.0128
▁psico	-11.0131
▁sensibilització	-11.0136
▁trist	-11.0137
acta	-11.0138
▁calefacció	-11.0138
▁bro	-11.014
▁discriminació	-11.014
ables	-11.014
2013	-11.014
▁destrucció	-11.0146
▁acadèmica	-11.0152
▁satisfer	-11.0153
▁masculí	-11.0154
cí	-11.0155
bé	-11.0156
▁afegim	-11.0159
66	-11.0162
alemanya	-11.0166
▁prestacions	-11.0168
▁sam	-11.017
▁men	-11.0171
▁despertar	-11.0172
infants	-11.0172
isa	-11.0174
▁eva	-11.0174
▁favorable	-11.0185
low	-11.0186
amistat	-11.0187
▁rurals	-11.0188
▁treu	-11.0189
▁coneixen	-11.0189
▁play	-11.0196
▁venia	-11.0197
leccions	-11.0198
▁obligat	-11.0198
▁https	-11.02
▁you	-11.0202
▁constituir	-11.0202
▁únics	-11.0203
▁centrar	-11.0203
acn	-11.0207
dri	-11.0208
▁compleix	-11.0211
▁ciutadella	-11.0215
▁corporació	-11.0219
▁actius	-11.0221
69	-11.0226
▁fiscalia	-11.023
▁eixe	-11.0233
▁indicat	-11.0234
rar	-11.0235
encanta	-11.0235
▁protagonisme	-11.0237
▁turístics	-11.024
▁dirigents	-11.0244
▁pat	-11.0246
▁rellevant	-11.0248
orde	-11.025
▁delegat	-11.025
▁estratègic	-11.0254
▁xii	-11.0255
▁crèdits	-11.0256
▁pèl	-11.0259
▁dol	-11.0269
▁cru	-11.0271
▁sab	-11.0275
òrgan	-11.0278
▁freda	-11.0278
▁considerem	-11.0281
▁93	-11.0283
▁independents	-11.0288
▁castella	-11.0297
▁samarreta	-11.0301
pec	-11.0304
▁big	-11.0307
▁ripoll	-11.0308
▁preparant	-11.0309
▁idiomes	-11.031
iga	-11.0312
▁1998	-11.0317
▁castellers	-11.0321
▁delta	-11.0322
lustracions	-11.0324
▁we	-11.0328
ov	-11.0328
▁audiovisuals	-11.0328
▁comenta	-11.0331
▁formatius	-11.0332
urbanisme	-11.0332
▁electorals	-11.0333
▁sorprendre	-11.0338
▁cine	-11.0338
▁trasllat	-11.0338
▁manifestat	-11.0339
mia	-11.0339
▁llançament	-11.0347
▁trucar	-11.0349
▁taronja	-11.0352
▁voltants	-11.0352
▁39	-11.0356
gor	-11.0358
▁48	-11.0361
▁privacitat	-11.0361
▁berga	-11.0362
▁posi	-11.0364
ètic	-11.0365
▁debats	-11.0367
▁comentat	-11.0369
▁fotògraf	-11.037
▁establerts	-11.0371
av	-11.0371
▁montse	-11.0373
aparell	-11.0374
▁medalla	-11.0374
▁martín	-11.0376
ici	-11.038
▁enviat	-11.0381
▁prové	-11.0382
▁trenca	-11.0383
▁exposar	-11.0384
▁onze	-11.0386
▁complert	-11.0387
reu	-11.0387
▁comunitària	-11.0391
mus	-11.04
▁humanes	-11.0404
▁energètic	-11.0408
▁revisar	-11.0409
mas	-11.0409
▁presentacions	-11.041
▁assolit	-11.0413
▁ànim	-11.0419
nic	-11.042
▁pagesos	-11.0431
▁acabada	-11.0431
▁tar	-11.0432
ajut	-11.0432
▁columna	-11.0434
▁dipòsit	-11.0439
▁mm	-11.044
▁exigeix	-11.044
ok	-11.0441
▁empresarials	-11.0443
has	-11.0444
▁obligatòria	-11.0445
▁usar	-11.0446
▁metropolitana	-11.0449
allà	-11.0451
actor	-11.0452
berg	-11.0453
▁convé	-11.0454
▁repartiment	-11.0456
▁afectar	-11.0458
siu	-11.0462
▁caigut	-11.0464
▁fires	-11.0466
▁lloret	-11.0467
ey	-11.0472
▁recordeu	-11.048
▁clares	-11.0483
▁busquen	-11.0485
ians	-11.0485
ua	-11.0485
▁porto	-11.049
▁agustí	-11.0493
hagin	-11.0494
anti	-11.0494
ach	-11.0503
▁xoc	-11.0505
ñ	-11.0506
62	-11.0507
vet	-11.0507
ents	-11.0511
▁portugal	-11.0511
▁pobre	-11.0514
▁37	-11.0518
▁comuna	-11.0518
tan	-11.052
▁reformes	-11.0523
neu	-11.0524
▁intentant	-11.0528
adora	-11.053
cho	-11.0531
▁conta	-11.0535
▁escolta	-11.0537
americana	-11.054
▁xic	-11.0544
2011	-11.0545
▁masses	-11.0545
▁sch	-11.0547
▁estils	-11.055
▁justament	-11.055
▁guardar	-11.0552
▁tira	-11.0552
jos	-11.0562
▁creatiu	-11.0563
▁mesa	-11.0568
ico	-11.0569
▁ceba	-11.057
itinerari	-11.057
▁queixa	-11.0571
▁formal	-11.0572
▁jean	-11.0573
▁despatx	-11.0575
rin	-11.058
▁fragment	-11.058
▁arribi	-11.0585
obrir	-11.0586
▁utilitzen	-11.0589
▁entrevistes	-11.0599
▁fosc	-11.0599
accent	-11.0601
▁descompte	-11.0603
fà	-11.0606
▁llança	-11.0607
▁britànic	-11.0608
▁addicional	-11.0609
▁ultra	-11.061
▁caixes	-11.0611
▁preocupa	-11.0612
▁maquinària	-11.0615
▁fuster	-11.0615
▁salsa	-11.0617
▁caminada	-11.0623
▁convertint	-11.0623
cri	-11.0635
dria	-11.064
▁pastís	-11.064
▁incidència	-11.0646
▁desde	-11.065
som	-11.0652
▁treballador	-11.0652
▁fauna	-11.0653
▁centrals	-11.0653
▁gor	-11.0654
▁gerard	-11.066
▁accepta	-11.0666
▁pensen	-11.0668
▁tocat	-11.0669
▁euro	-11.0673
▁costums	-11.0673
▁gall	-11.0674
▁extrem	-11.0674
63	-11.0674
▁delictes	-11.0676
este	-11.0676
с	-11.0677
▁trens	-11.0681
▁transversal	-11.0688
▁meua	-11.0688
▁contemplar	-11.0689
▁urbanística	-11.0696
▁estrangers	-11.0699
▁glòria	-11.0702
▁fernando	-11.0703
accept	-11.0706
arrel	-11.0708
▁incorpora	-11.071
▁artificial	-11.0711
ndo	-11.0712
▁característica	-11.0712
igualada	-11.0714
enques	-11.0718
▁fita	-11.0718
▁dotar	-11.0718
▁gustos	-11.0719
▁peixos	-11.0721
alliberament	-11.0722
ei	-11.0725
▁braç	-11.0725
▁music	-11.0727
acceptació	-11.0732
▁partides	-11.0734
▁cerdanya	-11.0739
▁42	-11.074
reta	-11.0741
▁civils	-11.0742
▁immediat	-11.0744
▁atorga	-11.0754
▁jugat	-11.0755
▁actituds	-11.0758
alegria	-11.0759
▁artístiques	-11.0759
▁with	-11.0761
▁seixanta	-11.0764
▁lectures	-11.0765
▁autèntic	-11.0766
▁blaugrana	-11.0769
▁arxiu	-11.0769
▁finalitzat	-11.077
▁mèdica	-11.0771
▁incrementar	-11.0773
▁regals	-11.0774
▁formatiu	-11.0774
▁=	-11.0781
▁1992	-11.0784
▁tràmit	-11.0785
ido	-11.0791
▁incorporat	-11.0794
euro	-11.0801
▁bri	-11.0802
▁brussel	-11.0803
▁registrar	-11.0807
pà	-11.0808
▁carmen	-11.0808
▁disciplines	-11.0814
▁sentim	-11.0815
▁regalar	-11.0817
▁quadrats	-11.0819
trac	-11.082
eliminació	-11.0822
▁vet	-11.0822
▁rod	-11.0823
и	-11.0826
▁signes	-11.0829
arbre	-11.083
íssim	-11.0831
▁urgent	-11.0833
▁fal	-11.0838
▁cavalls	-11.0839
▁desenvolupen	-11.084
▁plau	-11.084
▁secrets	-11.0841
▁poblet	-11.0843
▁cinquena	-11.0847
tol	-11.0848
▁alimentària	-11.0849
▁barca	-11.085
▁cama	-11.085
▁colònia	-11.0851
▁normalització	-11.0851
▁titularitat	-11.0852
habitació	-11.0853
pc	-11.0853
▁jueus	-11.0854
▁visibilitat	-11.0854
▁parlava	-11.0856
▁especialista	-11.0856
2012	-11.0859
▁analitza	-11.0859
▁tecnològica	-11.0861
▁espectaculars	-11.0863
ora	-11.0863
▁prevenir	-11.0864
▁cultiu	-11.0864
▁personalitzat	-11.0868
2008	-11.0871
lats	-11.0872
▁endur	-11.0875
▁gil	-11.0879
▁frases	-11.088
▁cristiana	-11.0881
titu	-11.0886
▁repartir	-11.0886
▁alegre	-11.0886
▁cinquè	-11.089
▁mantenint	-11.0891
78	-11.0891
alcohol	-11.0891
▁bassa	-11.0893
hí	-11.0897
▁deriva	-11.0904
▁símptomes	-11.0904
▁priorat	-11.0908
▁farina	-11.0909
▁pompeu	-11.091
eva	-11.0912
end	-11.0913
▁butlletí	-11.0915
ob	-11.0915
▁seca	-11.0918
▁generat	-11.0921
fes	-11.0922
▁guies	-11.0933
▁organitzadors	-11.0933
▁vertical	-11.0933
nom	-11.0934
▁guanyadora	-11.0936
ev	-11.0936
▁ras	-11.0937
hagués	-11.0938
▁quantitats	-11.0941
54	-11.0942
tura	-11.0943
bol	-11.0948
▁martin	-11.0948
entrar	-11.0948
dic	-11.0948
▁content	-11.0953
▁comparteix	-11.0955
▁10%	-11.0956
▁cer	-11.0956
▁tel	-11.0956
▁gómez	-11.0957
▁oferirà	-11.0959
ds	-11.096
veu	-11.096
▁entrega	-11.096
▁sanitaris	-11.0965
▁instituts	-11.0972
ning	-11.0972
▁adreçat	-11.0974
▁beca	-11.0976
corre	-11.0978
pos	-11.0981
▁1995	-11.0988
▁exteriors	-11.099
nés	-11.0991
▁començant	-11.0996
▁calent	-11.0999
▁atractiu	-11.0999
emissió	-11.1
▁previstes	-11.1001
essència	-11.1006
fund	-11.1006
▁valencia	-11.1006
▁afectades	-11.1014
tel	-11.1015
emperador	-11.102
esc	-11.1021
iques	-11.1021
!”	-11.1025
▁concretes	-11.1026
▁competitivitat	-11.1028
vé	-11.1028
▁1997	-11.1032
▁permetin	-11.1032
▁gandia	-11.1034
▁tom	-11.1037
▁got	-11.1039
uf	-11.1039
▁constantment	-11.1039
executiu	-11.104
▁balcó	-11.1043
▁conec	-11.1052
▁interessat	-11.1054
▁sin	-11.1061
▁directors	-11.1064
▁anunci	-11.1064
gas	-11.1065
▁tramitació	-11.1066
▁rat	-11.1066
▁digui	-11.1068
▁ubicat	-11.1069
ànim	-11.1073
77	-11.1074
▁directes	-11.1074
▁fruites	-11.1077
post	-11.1078
▁vela	-11.1078
▁famosa	-11.1079
▁integrada	-11.1082
▁indicar	-11.1082
▁expert	-11.1083
▁unir	-11.1085
▁campana	-11.1085
▁puguem	-11.1087
▁bateria	-11.1087
▁negativa	-11.1093
▁imp	-11.1099
▁especialitzats	-11.11
▁complement	-11.1101
▁españa	-11.1101
nou	-11.1105
41	-11.1109
obtenció	-11.111
▁fu	-11.1111
▁recorre	-11.1115
▁avaluar	-11.112
▁porc	-11.1121
sal	-11.1123
có	-11.1123
emprenedoria	-11.1125
▁donació	-11.1126
▁censura	-11.1128
▁relativa	-11.1132
▁badia	-11.1133
▁experimentar	-11.1135
homenatge	-11.1136
▁probable	-11.1138
idad	-11.1139
▁paràmetres	-11.114
▁fla	-11.1141
cher	-11.1141
▁franc	-11.1144
▁condicionat	-11.1144
▁motivació	-11.1144
assaig	-11.1147
eda	-11.1147
▁blat	-11.1148
▁cedir	-11.1151
▁obligatori	-11.1155
▁lingüístic	-11.1156
▁120	-11.1158
▁manacor	-11.1162
▁contactes	-11.1163
orient	-11.1164
▁malalts	-11.1166
▁bord	-11.1168
▁determinada	-11.1173
▁desaparegut	-11.1173
només	-11.1173
▁suïssa	-11.1181
▁comèdia	-11.1182
lant	-11.1185
▁estrenar	-11.1187
▁culte	-11.1188
▁bolets	-11.119
▁casc	-11.1192
lina	-11.1192
▁transmet	-11.1195
▁multitud	-11.1196
▁vinculats	-11.1196
▁estació	-11.1196
▁relacionar	-11.1197
▁claustre	-11.12
fin	-11.1202
▁verds	-11.1202
▁núvols	-11.1205
▁tennis	-11.1209
▁excepció	-11.1209
▁rescat	-11.1211
ple	-11.1211
▁utilitzats	-11.1212
▁bicicletes	-11.1212
▁conformen	-11.1215
▁diem	-11.1217
▁ku	-11.1218
▁tractava	-11.1219
▁assumeix	-11.1221
▁alumne	-11.1221
autorització	-11.1221
▁suspensió	-11.1223
▁gana	-11.1223
yo	-11.1227
ística	-11.1228
▁sevilla	-11.1231
▁roman	-11.1233
▁adrià	-11.1237
aposta	-11.1241
▁coincidir	-11.1243
▁paciència	-11.1243
▁celebrada	-11.1245
▁ecològic	-11.1246
▁confirma	-11.1247
▁orientació	-11.1247
▁sus	-11.1249
▁còmode	-11.1249
pt	-11.125
▁reivindicar	-11.1251
▁pinta	-11.1254
▁forat	-11.1258
▁bars	-11.1259
▁moneda	-11.1262
▁intentat	-11.1265
▁gruix	-11.1267
flu	-11.1268
ui	-11.1271
▁creador	-11.1274
▁sender	-11.1274
app	-11.1278
▁promocionar	-11.1279
dà	-11.1279
▁duu	-11.128
▁capítols	-11.1282
▁vo	-11.1282
▁prats	-11.1283
▁certament	-11.1284
ä	-11.1284
▁ajudat	-11.1285
▁comparació	-11.1285
dd	-11.1285
stu	-11.1286
lustració	-11.1286
▁relativament	-11.1287
viv	-11.1289
ota	-11.1291
▁brasil	-11.1293
▁pet	-11.1294
▁limita	-11.1295
▁reconeguda	-11.1299
ima	-11.1299
▁demanem	-11.1301
▁identificació	-11.1301
▁mèdic	-11.1304
▁1996	-11.1307
▁contents	-11.1307
▁sona	-11.1309
▁explorar	-11.1309
vell	-11.1311
▁tinent	-11.1313
▁aprovada	-11.1315
obligació	-11.1317
▁neo	-11.1317
▁pràctic	-11.1318
perquè	-11.1318
▁placa	-11.1318
esperar	-11.1319
▁contrast	-11.132
▁banca	-11.1326
▁problemàtica	-11.1328
▁consideració	-11.133
heroi	-11.1331
▁belles	-11.1337
▁polèmica	-11.1341
▁cro	-11.1345
▁contínua	-11.1348
▁adjunt	-11.1354
▁cobrar	-11.136
gir	-11.1361
▁fabricants	-11.1373
▁extensió	-11.1374
52	-11.1375
▁fam	-11.1379
▁vells	-11.1383
▁autèntica	-11.1385
▁temàtiques	-11.1385
quis	-11.1388
▁sur	-11.1388
▁llançar	-11.1388
▁coca	-11.1391
consulta	-11.1391
▁anglesa	-11.1392
▁gestiona	-11.1394
gra	-11.1394
▁senten	-11.1395
cel	-11.14
▁vivia	-11.1404
▁adreces	-11.1406
▁conducta	-11.1409
▁estimat	-11.141
▁hiper	-11.141
▁descomptat	-11.1412
▁exigir	-11.1416
▁mediació	-11.1416
▁contractar	-11.1421
estic	-11.1421
▁unesco	-11.1423
▁esperit	-11.1424
▁llibertats	-11.1424
▁caça	-11.1426
▁recol	-11.1427
▁modalitats	-11.143
▁cessió	-11.1433
▁versos	-11.1433
▁anomenar	-11.1433
▁registrat	-11.1433
▁inscriure	-11.1434
ville	-11.1435
▁44	-11.1436
▁desaparèixer	-11.1436
▁agafa	-11.1439
▁bronze	-11.1442
accident	-11.1445
▁continuada	-11.1452
illo	-11.1454
bis	-11.1454
rus	-11.1457
▁carnaval	-11.1457
▁regles	-11.1457
▁preparats	-11.146
onada	-11.1461
▁adoptar	-11.1462
▁controls	-11.1466
▁llegat	-11.1468
▁navarro	-11.1468
lista	-11.1468
intervenció	-11.1469
▁quadres	-11.1475
▁lleugerament	-11.1475
▁vigilància	-11.1475
▁55	-11.1477
utilitzen	-11.1479
▁càlcul	-11.1483
pet	-11.1484
▁ricard	-11.1489
▁teixits	-11.149
▁explicant	-11.1491
▁focus	-11.1491
▁activament	-11.1492
▁regla	-11.1498
▁sor	-11.1499
artistes	-11.1502
▁separa	-11.1502
▁explicació	-11.1504
▁triple	-11.1504
▁vestits	-11.1509
▁etiquetat	-11.151
▁classificat	-11.1513
▁amenaça	-11.1513
▁dolça	-11.1513
▁raval	-11.1517
▁monitors	-11.152
▁discussió	-11.1521
▁fur	-11.1522
▁dani	-11.1525
▁església	-11.153
antiguitat	-11.1531
alcaldia	-11.1535
▁generen	-11.1535
▁drama	-11.1537
▁registres	-11.154
▁fantàstica	-11.1541
▁inaugurar	-11.1543
gem	-11.1543
▁ajudant	-11.1547
▁joguines	-11.1548
▁postres	-11.1549
absència	-11.1549
▁mobles	-11.1552
ky	-11.1553
▁corrents	-11.1557
pí	-11.156
riu	-11.1562
rada	-11.1563
▁franja	-11.1565
tus	-11.1571
▁vagin	-11.1577
5%	-11.1579
tòria	-11.1579
▁mollet	-11.1579
▁conformitat	-11.158
▁renunciar	-11.158
oma	-11.1584
▁berlín	-11.1585
▁desitja	-11.1588
ity	-11.1588
sca	-11.1589
▁avaluació	-11.159
▁2014,	-11.159
▁romans	-11.1592
92	-11.1598
▁cadira	-11.1606
▁historia	-11.1612
doc	-11.1619
cep	-11.162
bert	-11.1626
atletisme	-11.1628
300	-11.1631
▁tindria	-11.1631
▁estètica	-11.1632
estada	-11.1633
aportació	-11.1634
▁llars	-11.1635
autodeterminació	-11.1636
▁refereix	-11.1642
▁montseny	-11.1643
2010	-11.1644
▁acostuma	-11.1646
tm	-11.165
▁substitució	-11.1654
gudes	-11.1654
olla	-11.1654
▁impressionant	-11.1655
▁aprofundir	-11.1656
pit	-11.1657
▁bor	-11.1659
▁senyals	-11.1661
▁sara	-11.1661
cl	-11.1662
▁jorge	-11.1662
git	-11.1664
▁vapor	-11.1666
▁anuncia	-11.1666
▁capità	-11.167
acompanyament	-11.1671
▁pròxims	-11.1673
▁bosch	-11.1673
▁brossa	-11.1675
▁fra	-11.1675
▁oficialment	-11.1676
▁sexuals	-11.1676
▁vermella	-11.1678
▁estatuts	-11.168
▁pallars	-11.168
▁administració	-11.1681
▁gen	-11.1685
▁perfils	-11.1685
imatge	-11.1686
arriba	-11.1687
▁rica	-11.1689
observació	-11.169
vor	-11.1691
▁destinada	-11.1691
om	-11.1694
▁èpoques	-11.1694
pres	-11.1698
▁convidem	-11.17
▁aprofita	-11.1701
▁poders	-11.1702
▁bella	-11.1702
▁quedava	-11.1703
▁qualificació	-11.1703
▁roques	-11.1705
▁corporal	-11.1707
▁considerable	-11.1709
▁sencer	-11.1711
▁debut	-11.1711
▁debatre	-11.1711
▁convenient	-11.1714
▁che	-11.1714
▁separació	-11.1716
argument	-11.1718
▁barret	-11.1719
▁implicats	-11.1719
▁coincideix	-11.172
▁separat	-11.1721
cet	-11.1723
▁guerres	-11.1723
▁festivals	-11.1724
cial	-11.1727
entén	-11.1728
só	-11.1729
▁titulars	-11.173
▁fitxers	-11.1731
▁narra	-11.1732
▁comparteixen	-11.1732
sky	-11.1733
nit	-11.1735
utes	-11.1736
emergències	-11.1736
fem	-11.1737
▁1990	-11.1738
bet	-11.1739
▁olot	-11.1742
ras	-11.1744
ah	-11.1748
▁compten	-11.1748
▁retard	-11.1748
▁mapes	-11.175
▁ciutadanes	-11.1753
vit	-11.1756
▁longitud	-11.1757
▁reciclatge	-11.1763
▁sagrada	-11.1766
idees	-11.1768
▁executiu	-11.1772
▁<	-11.1776
aires	-11.178
▁justificar	-11.1782
▁paco	-11.1784
▁àngels	-11.1786
▁malalt	-11.1788
ks	-11.1788
independència	-11.1788
▁vintena	-11.1789
▁villa	-11.1789
▁interessa	-11.179
▁estaria	-11.1791
▁individus	-11.1791
dura	-11.1794
asfalt	-11.1794
▁espiritual	-11.1795
way	-11.1797
▁tomàs	-11.1798
▁rècord	-11.1798
bot	-11.1799
▁cornellà	-11.1805
▁más	-11.1809
▁ocells	-11.1811
ixen	-11.1818
▁aprenent	-11.1818
yer	-11.1819
gin	-11.1819
▁aniran	-11.182
▁postgrau	-11.1822
▁poètica	-11.1825
▁youtube	-11.1826
▁nacionalisme	-11.1827
▁revolta	-11.1827
▁informàtics	-11.1829
▁liceu	-11.1832
▁associat	-11.1834
▁posarà	-11.1836
▁efectivament	-11.1843
▁guiada	-11.1849
ño	-11.1851
▁girar	-11.1854
ndre	-11.1857
▁fot	-11.1862
▁park	-11.1866
▁seguidament	-11.1866
▁cinta	-11.1872
put	-11.1873
▁sac	-11.1873
▁assistit	-11.1874
▁desenvolupant	-11.1876
▁tancats	-11.1878
▁city	-11.1878
▁tèxtil	-11.1883
°	-11.1884
▁band	-11.1884
▁pujant	-11.1884
▁realitzats	-11.1889
▁corresponen	-11.1892
▁ber	-11.1893
▁continent	-11.1896
habitatges	-11.1897
▁doni	-11.1897
▁pensaments	-11.1899
▁carregar	-11.1901
▁barranc	-11.1904
ric	-11.1906
ski	-11.1908
▁lateral	-11.1912
▁participatiu	-11.1915
▁incloses	-11.1917
▁destinades	-11.1918
▁gom	-11.1918
▁entorns	-11.1926
▁animar	-11.1926
▁derivats	-11.1926
▁reflex	-11.1927
▁setanta	-11.193
essa	-11.1931
▁útils	-11.1931
tir	-11.1932
▁situats	-11.1935
▁mir	-11.1935
▁urbanització	-11.1938
ificar	-11.1939
▁pins	-11.1941
▁pressa	-11.1943
▁maragall	-11.1946
infantil	-11.1947
▁organitzades	-11.195
▁seleccionar	-11.195
gim	-11.1951
▁temporades	-11.1954
▁fundar	-11.1958
▁competicions	-11.1959
▁renovar	-11.1966
ters	-11.1967
▁poguessin	-11.1969
▁cloenda	-11.1971
▁pluges	-11.1971
▁itinerari	-11.1973
▁peticions	-11.1975
▁precisió	-11.1975
▁destinacions	-11.1976
▁demarcació	-11.1979
[5]	-11.1983
▁construïda	-11.1987
▁teràpia	-11.199
esplai	-11.1993
▁racional	-11.1997
▁subjecte	-11.1998
▁duen	-11.1999
identitat	-11.2001
▁consolidació	-11.2001
cion	-11.2004
▁nul	-11.2012
▁justa	-11.2014
▁vinculades	-11.2014
inversió	-11.2016
▁alegria	-11.2018
aniversari	-11.202
▁taxes	-11.2021
▁falles	-11.2022
▁excursió	-11.2022
61	-11.2024
▁portant	-11.2028
▁disposat	-11.2028
▁aventures	-11.2029
usuaris	-11.203
▁tribunals	-11.203
▁confirmat	-11.2031
ejant	-11.2032
▁financer	-11.2034
▁marcel	-11.2035
▁clínic	-11.2038
cil	-11.2038
▁anul	-11.2039
▁robots	-11.204
▁casar	-11.2043
▁sobreviure	-11.2043
▁dolç	-11.2045
▁ensenyaments	-11.2047
▁sortint	-11.2049
▁republicà	-11.2049
▁abordar	-11.2054
▁començava	-11.2057
▁1994	-11.2058
▁sindical	-11.2061
▁certificació	-11.2061
▁vine	-11.2062
▁afectat	-11.2063
▁2012,	-11.2066
▁20%	-11.2068
▁màgic	-11.2069
▁descomptes	-11.2071
▁beure	-11.2073
▁fri	-11.2074
elements	-11.2075
51	-11.208
▁afegiu	-11.2081
▁participaran	-11.2083
aplica	-11.2084
▁ruiz	-11.2087
▁juntes	-11.2091
▁redueix	-11.2092
▁rap	-11.2096
▁esp	-11.2096
▁històriques	-11.2097
▁rom	-11.2099
agulla	-11.21
igual	-11.21
▁celebren	-11.2106
72	-11.2106
▁blancs	-11.211
▁vivències	-11.2112
íssima	-11.2113
▁emprenedors	-11.2116
dé	-11.2117
▁practica	-11.2117
rri	-11.2119
pir	-11.212
▁paul	-11.2121
▁fals	-11.2124
▁gros	-11.2125
and	-11.2125
▁uib	-11.2132
▁típic	-11.2133
và	-11.2135
▁felicitats	-11.2136
poli	-11.2137
▁calcula	-11.2139
rè	-11.2139
▁didàctica	-11.2141
idi	-11.2142
tiques	-11.2143
▁esperen	-11.2147
▁isbn	-11.2149
▁maó	-11.2152
▁futura	-11.2153
ier	-11.2155
aprova	-11.2158
estudiant	-11.2159
▁publicats	-11.2162
▁disputa	-11.2169
tots	-11.2174
anomenat	-11.2177
nal	-11.2178
▁creadors	-11.2178
important	-11.218
▁banys	-11.2181
rum	-11.2185
▁tàrrega	-11.2186
▁carboni	-11.2186
▁reproduir	-11.2194
expedient	-11.2195
▁desaparició	-11.2196
adolescència	-11.2198
▁reivindicació	-11.2199
ee	-11.2203
▁denunciat	-11.2203
cultura	-11.2203
▁mode	-11.2207
▁gerent	-11.2211
▁pàrquing	-11.2212
▁vénen	-11.2212
▁saltar	-11.2212
▁traçat	-11.2213
▁agenda	-11.2216
ites	-11.2216
▁italiana	-11.2218
▁consecutiu	-11.222
▁soles	-11.222
▁conc	-11.2222
▁aparells	-11.2222
▁tinguem	-11.2227
▁biologia	-11.2233
▁narració	-11.2234
▁prohibit	-11.2234
▁investigador	-11.2238
▁descriure	-11.2239
▁pura	-11.2243
▁salou	-11.2245
▁inclús	-11.2246
▁pilars	-11.2246
▁prima	-11.2249
▁descoberta	-11.2252
▁800	-11.2252
▁intercanvi	-11.2256
▁capitalisme	-11.2258
▁contundent	-11.2259
dell	-11.2259
▁estratègica	-11.226
actuar	-11.226
▁1993	-11.226
▁usuari	-11.226
▁brutal	-11.2262
▁continuarà	-11.2262
▁victòries	-11.2262
▁neuro	-11.2266
▁noguera	-11.2267
▁equilibri	-11.2268
▁manipulació	-11.2268
edi	-11.2268
▁vanguardia	-11.227
antoni	-11.227
tius	-11.2274
▁servirà	-11.2277
agraden	-11.2278
▁causar	-11.2278
▁bomba	-11.2284
lab	-11.2287
▁durar	-11.2288
▁vaixells	-11.2291
▁lesions	-11.2293
▁masclista	-11.2294
▁plantejat	-11.2294
▁catòlica	-11.2299
▁rics	-11.2299
▁contenen	-11.2301
▁canta	-11.2301
▁adaptació	-11.2302
▁anant	-11.2305
▁feminista	-11.231
▁nevera	-11.231
cut	-11.2314
gr	-11.2316
▁arribarà	-11.232
▁aparell	-11.232
rup	-11.2321
▁elegant	-11.2322
ago	-11.2323
▁reconeguts	-11.2325
▁blanes	-11.2325
▁farmàcia	-11.2327
▁ordres	-11.233
off	-11.2331
▁essencials	-11.2334
▁autònoms	-11.2334
▁dinàmiques	-11.2336
html	-11.2338
▁george	-11.2341
▁roser	-11.2344
▁rectificació	-11.2344
▁romànic	-11.2349
deu	-11.2351
▁fotogràfica	-11.2353
▁botó	-11.2358
▁pròxima	-11.2363
▁xa	-11.2363
assignatura	-11.2365
▁marcada	-11.237
▁plenes	-11.2372
armes	-11.2373
▁cirurgia	-11.2374
ii	-11.2375
▁ref	-11.2377
▁open	-11.2379
▁terror	-11.2379
▁considerada	-11.2381
▁barberà	-11.2381
▁fragments	-11.239
àngel	-11.2392
▁passes	-11.2394
▁infraestructura	-11.2395
▁firma	-11.241
▁tràfic	-11.2411
2006	-11.2413
▁alemanys	-11.2415
atmosfera	-11.2415
▁estima	-11.2417
▁compren	-11.2418
▁trastorns	-11.242
▁produccions	-11.2423
▁increïble	-11.2423
▁immigració	-11.2426
mann	-11.2428
▁accessible	-11.243
▁garriga	-11.243
▁autònomes	-11.243
▁software	-11.2431
▁aconseguint	-11.2432
▁aneu	-11.2434
▁períodes	-11.2435
▁notar	-11.2437
▁plantar	-11.2439
▁vesprada	-11.244
▁reduïda	-11.244
▁donada	-11.244
▁motors	-11.2441
▁demanant	-11.2441
unió	-11.2441
enquesta	-11.2441
pr	-11.2443
▁emissions	-11.2445
▁indicadors	-11.2446
arqueologia	-11.2448
▁commemoració	-11.2449
▁forestals	-11.2451
▁compromisos	-11.2452
▁aficionats	-11.2455
horitzó	-11.246
idioma	-11.2461
▁informatiu	-11.2466
txa	-11.2466
▁saint	-11.2468
▁wa	-11.2469
equipament	-11.2473
▁nacionalitat	-11.2473
▁ressò	-11.2479
▁alçada	-11.248
▁àlbum	-11.2481
▁aporten	-11.2481
rell	-11.2482
▁tabac	-11.2483
vila	-11.2485
establir	-11.2486
▁pala	-11.2488
illes	-11.249
▁càmeres	-11.2493
▁reunit	-11.2494
enten	-11.25
▁humor	-11.2501
▁supervivència	-11.2505
imi	-11.2506
▁llàstima	-11.2509
▁aprenentatge	-11.2511
lió	-11.2512
▁gòtic	-11.2514
▁balls	-11.2516
ham	-11.252
▁deures	-11.2523
▁parlamentari	-11.2526
▁tap	-11.2531
▁desconegut	-11.2531
etiqueta	-11.2533
▁sorgeix	-11.2536
pal	-11.2539
gs	-11.2541
▁valorat	-11.2542
▁titulat	-11.2543
dal	-11.2545
fí	-11.2545
▁mòdul	-11.2549
▁bèlgica	-11.255
centre	-11.2553
▁sortim	-11.2554
ph	-11.2554
▁preservar	-11.2556
▁departaments	-11.2557
▁webs	-11.2558
bia	-11.256
▁mobiliari	-11.2561
nica	-11.2561
hu	-11.2562
estableix	-11.2563
kin	-11.2567
eixample	-11.2568
▁bosses	-11.2571
▁gemma	-11.2572
▁consolidat	-11.2575
▁científiques	-11.2575
emmarca	-11.2575
▁fang	-11.2576
▁cobert	-11.2576
adapta	-11.2581
igues	-11.2585
interpretació	-11.2585
▁2013,	-11.2586
escalada	-11.2587
▁inscrits	-11.2591
▁tutor	-11.2592
ianes	-11.2592
cm	-11.2594
▁desenes	-11.2595
iment	-11.2595
▁celebracions	-11.2596
qu	-11.2597
▁xàtiva	-11.26
▁ibèrica	-11.2602
▁cuidar	-11.2604
▁republicans	-11.2606
▁comportar	-11.261
▁1939	-11.2612
▁finançar	-11.2613
ajudar	-11.2615
▁futurs	-11.2615
▁guíxols	-11.2619
ificat	-11.262
lot	-11.2624
ral	-11.2627
▁flamenc	-11.2629
▁fibra	-11.263
▁dutxa	-11.2637
▁messi	-11.2642
▁frontal	-11.2646
▁refer	-11.2647
▁garraf	-11.2649
▁cl	-11.2649
tas	-11.2651
issa	-11.2651
▁integrar	-11.2652
▁públicament	-11.2654
▁fortes	-11.2655
aprofitament	-11.2655
▁recents	-11.2656
encontre	-11.2658
animal	-11.2662
▁dius	-11.2666
leg	-11.2666
▁vore	-11.2668
▁finalitza	-11.267
▁utilitat	-11.2674
cinc	-11.2675
onze	-11.2678
▁mateu	-11.2679
▁concrets	-11.268
▁amèrica	-11.2683
▁fundada	-11.2684
▁inspirat	-11.2687
▁veïnat	-11.2687
▁alerta	-11.2688
èn	-11.2688
▁virtut	-11.2689
▁prenen	-11.2693
▁acabem	-11.2696
▁vinculat	-11.2697
▁juguen	-11.2699
▁marroc	-11.2699
▁gastronòmica	-11.2701
ance	-11.2702
cur	-11.2711
▁darrerament	-11.2712
▁torni	-11.2712
▁independentment	-11.2713
▁avançada	-11.2718
▁arbre	-11.2718
▁organitzen	-11.2722
▁limitat	-11.2722
▁estadístiques	-11.2726
▁mons	-11.2727
▁resolt	-11.2731
organitzar	-11.2734
▁planes	-11.2734
▁estimar	-11.2735
▁apuntat	-11.2737
fal	-11.2739
itàlia	-11.274
▁senyors	-11.2747
93	-11.2748
esclat	-11.2748
jec	-11.2757
nc	-11.2757
▁component	-11.2758
excursió	-11.2759
▁gaudi	-11.276
▁tastar	-11.2761
▁emocionant	-11.2762
▁vincle	-11.2765
oportunitats	-11.2766
▁inc	-11.2769
▁repàs	-11.2769
▁presentades	-11.277
event	-11.277
▁pollastre	-11.2772
▁pedagogia	-11.2774
▁encarregat	-11.2774
2019	-11.2775
error	-11.2776
▁futures	-11.2777
▁operació	-11.2783
▁mecànica	-11.2783
▁mirador	-11.2784
▁combinar	-11.2784
▁equipament	-11.2784
▁símbols	-11.2787
▁ordinària	-11.2788
aria	-11.2789
▁consellers	-11.2791
tari	-11.2791
king	-11.2792
▁plural	-11.2792
▁uneix	-11.2793
▁llicenciat	-11.2794
▁àrab	-11.2796
ux	-11.2796
gal	-11.2796
associacions	-11.2797
▁monumental	-11.2798
ice	-11.28
▁olor	-11.28
▁2011,	-11.2802
▁coneixia	-11.2802
rc	-11.2803
▁convençut	-11.2807
▁interacció	-11.2809
▁mat	-11.281
▁vincles	-11.2811
▁menuts	-11.2811
▁adient	-11.2812
▁monuments	-11.2813
▁comunitari	-11.2816
73	-11.282
▁festiu	-11.2822
▁clot	-11.2822
ye	-11.2822
▁gaudit	-11.2822
▁politècnica	-11.2822
escapa	-11.2823
▁transforma	-11.2824
bas	-11.2826
▁agafat	-11.2826
▁dirigides	-11.2826
autopista	-11.2827
▁sensible	-11.2829
▁prim	-11.283
▁assenyalar	-11.2832
▁pl	-11.2832
▁digne	-11.2833
enric	-11.2836
▁castellana	-11.2837
▁begudes	-11.2838
▁raïm	-11.2839
http	-11.2839
▁acudir	-11.2841
▁marx	-11.2842
pac	-11.2842
▁augmentat	-11.2844
▁demostren	-11.2845
expedició	-11.2847
mir	-11.285
▁escèniques	-11.285
▁nuclear	-11.2854
▁cerimònia	-11.2854
▁mireia	-11.2854
▁institucionals	-11.2855
herència	-11.2856
▁felicitar	-11.2858
▁dinamització	-11.2859
▁actor	-11.2862
▁aprofitat	-11.2865
▁nuclis	-11.2865
professionalitat	-11.2866
ingrés	-11.287
▁tr	-11.2872
▁petroli	-11.2873
▁concursos	-11.2875
▁substàncies	-11.2878
▁pesar	-11.2878
ençà	-11.288
▁ribes	-11.2881
estrès	-11.2882
▁laterals	-11.2885
▁entès	-11.2887
▁compartida	-11.2887
▁utilitzada	-11.2893
entrenador	-11.2894
fol	-11.2896
ància	-11.2897
▁conservatori	-11.2901
▁ofert	-11.2903
▁granja	-11.2904
▁1991	-11.2905
▁eix	-11.2908
▁diversió	-11.2908
▁bla	-11.2909
▁companyes	-11.2911
▁ugt	-11.2913
▁manlleu	-11.2914
▁acompanya	-11.2918
▁religiós	-11.2923
▁procedent	-11.2923
▁sonora	-11.2924
▁cors	-11.2926
▁horts	-11.2928
osona	-11.2931
▁semblants	-11.2934
▁exp	-11.2934
we	-11.2935
▁envia	-11.2935
▁curts	-11.2935
▁grapat	-11.2936
pra	-11.2937
▁llargs	-11.2941
▁visuals	-11.2941
▁requereixen	-11.2942
coc	-11.2944
▁israel	-11.2945
atura	-11.2945
tés	-11.2946
▁geltrú	-11.2946
loqui	-11.2949
edificació	-11.2951
▁exemplar	-11.2956
▁cuba	-11.2959
intel	-11.2959
▁medicaments	-11.296
▁començà	-11.2963
▁patates	-11.2965
▁prenent	-11.2968
▁perspectives	-11.297
▁immigrants	-11.2972
▁vil	-11.2972
qué	-11.2973
escut	-11.2977
fica	-11.2978
▁rastre	-11.2985
bó	-11.2988
▁ferma	-11.2991
▁mecanisme	-11.2992
▁significativa	-11.2995
▁cuinar	-11.2996
▁complicitat	-11.2999
▁fin	-11.3
▁autonòmic	-11.3001
anada	-11.3007
▁mònica	-11.3008
encarregat	-11.3009
▁diagonal	-11.3017
▁180	-11.3018
▁definit	-11.3019
▁sra	-11.3025
▁anglaterra	-11.3026
▁perjudici	-11.3026
dr	-11.3029
aconsella	-11.3031
▁jutges	-11.3034
▁nomenament	-11.3035
▁traductor	-11.3037
▁cooperatiu	-11.304
▁cervera	-11.3042
▁gravar	-11.3045
▁préstec	-11.3045
ford	-11.3047
▁separar	-11.3049
▁interiors	-11.305
▁mit	-11.305
е	-11.3052
▁41	-11.3054
▁religioses	-11.3054
▁critica	-11.3054
▁descobriment	-11.3055
eina	-11.3056
eivissa	-11.3058
▁legalitat	-11.3058
▁profundament	-11.306
▁geogràfica	-11.3061
▁traslladat	-11.3063
anomenada	-11.3064
empat	-11.3071
▁tomàquet	-11.3073
▁transparent	-11.3073
▁limitar	-11.3074
▁suficients	-11.3075
▁comunica	-11.3077
▁estudiat	-11.3082
▁negociacions	-11.3082
▁esglésies	-11.3083
▁representacions	-11.3085
mera	-11.3085
vir	-11.3086
600	-11.3086
▁extens	-11.3089
▁nocturn	-11.3092
▁continuat	-11.3092
▁captar	-11.3093
▁voluntària	-11.3098
▁comoditat	-11.31
53	-11.31
▁card	-11.3105
▁magatzem	-11.3106
▁recomano	-11.3107
▁casino	-11.3107
400	-11.3107
▁indi	-11.3112
▁pèrdues	-11.3115
▁ab	-11.3116
▁saludables	-11.3116
esmorzar	-11.3117
▁excursions	-11.3117
▁aliment	-11.3118
▁ral	-11.3119
▁titelles	-11.3119
▁estudia	-11.3125
amic	-11.3127
▁benet	-11.313
▁unanimitat	-11.313
▁mescla	-11.3134
▁mentida	-11.3135
▁paquet	-11.3136
estabilitat	-11.3137
▁elèctrics	-11.3137
▁seguirem	-11.3139
▁roure	-11.3143
escoles	-11.3144
▁escapar	-11.3144
interés	-11.3144
▁my	-11.3146
▁provinents	-11.3146
dom	-11.3146
rons	-11.3147
mul	-11.3147
▁faré	-11.3149
▁monitor	-11.3153
rit	-11.3154
▁treballadora	-11.3157
ced	-11.3159
▁impulsa	-11.316
element	-11.3161
▁urnes	-11.3161
amposta	-11.3161
▁segre	-11.3162
▁recollit	-11.3168
▁constitueixen	-11.3168
▁densitat	-11.3169
cid	-11.3173
▁guanyant	-11.3173
▁necessites	-11.3175
▁pros	-11.3177
▁coordinar	-11.3177
▁titulació	-11.3177
▁recuperat	-11.3178
iniciació	-11.3178
▁lleó	-11.3179
integració	-11.3194
gh	-11.3195
▁sobte	-11.3198
gueren	-11.32
sions	-11.3202
nder	-11.3204
▁érem	-11.3204
▁utilitzem	-11.3205
ejat	-11.3206
licitat	-11.3207
▁berenar	-11.3207
mini	-11.3209
▁complexa	-11.3209
▁traduir	-11.3212
▁illa	-11.322
▁doctorat	-11.3221
▁comunista	-11.3221
▁crit	-11.3222
▁43	-11.3222
▁volums	-11.3223
rol	-11.3223
▁recorden	-11.3224
▁convergència	-11.3229
esco	-11.3231
▁inicia	-11.3232
original	-11.3232
▁coherent	-11.3234
▁disminució	-11.3234
web	-11.3237
▁reflecteix	-11.324
▁comoditats	-11.3245
▁menja	-11.3249
«	-11.3251
▁comtat	-11.3251
2007	-11.3253
tom	-11.3253
▁mirall	-11.3258
pur	-11.3261
grup	-11.3265
▁estàvem	-11.3266
▁episodis	-11.3269
ide	-11.3269
▁fila	-11.327
comercialització	-11.3271
▁sènior	-11.3271
▁mensual	-11.3273
▁ordinadors	-11.3275
ö	-11.3282
▁seguirà	-11.3283
▁agrícoles	-11.3285
▁líquid	-11.3286
▁limitacions	-11.3286
▁desfer	-11.329
▁anomenats	-11.3291
▁reservar	-11.3291
▁dalí	-11.3292
teu	-11.3293
▁males	-11.3293
▁mariano	-11.3297
><	-11.3298
aplicar	-11.3301
lades	-11.3302
▁dita	-11.3305
▁upc	-11.3307
▁bcn	-11.3309
escriu	-11.3309
▁detecció	-11.3311
lega	-11.3312
coll	-11.3312
nça	-11.3315
oro	-11.3316
eve	-11.3317
▁carregat	-11.3319
▁max	-11.332
▁maca	-11.332
enviar	-11.3321
experiències	-11.3322
▁lluites	-11.3323
▁desplegament	-11.3324
▁autorització	-11.3324
▁rubí	-11.333
▁lligat	-11.3331
▁biodiversitat	-11.3334
▁personalitzada	-11.3337
ibi	-11.3344
▁comptem	-11.3344
▁operatiu	-11.3345
▁connecta	-11.3346
mu	-11.3346
▁puntuació	-11.335
▁anualment	-11.3353
▁1980	-11.3353
▁èxits	-11.3353
▁finances	-11.3354
bell	-11.3356
gol	-11.3358
▁mario	-11.3359
▁tradicionalment	-11.3361
bin	-11.3362
▁empat	-11.3363
▁positivament	-11.3363
▁volar	-11.3366
▁negatiu	-11.337
nada	-11.337
▁congressos	-11.3371
infermeria	-11.3375
▁programat	-11.3375
▁convencional	-11.3376
▁dj	-11.3382
▁mad	-11.3382
▁gaudint	-11.3382
▁cabal	-11.3382
▁negociar	-11.3382
ònica	-11.3385
▁túnel	-11.3388
▁perdent	-11.3388
▁palla	-11.3389
gur	-11.3389
▁30%	-11.3391
▁mama	-11.3392
▁cata	-11.3398
rò	-11.34
ografia	-11.3401
▁acceptat	-11.3402
▁màgica	-11.3403
▁llicències	-11.3405
dent	-11.3409
▁policies	-11.341
▁acollit	-11.341
▁valora	-11.3416
grad	-11.3416
▁blava	-11.3417
▁assessor	-11.342
▁vegetals	-11.342
▁argument	-11.3428
▁obligar	-11.3429
med	-11.343
▁ki	-11.3431
bilitat	-11.3431
▁vuitanta	-11.3432
▁mana	-11.3432
▁automàticament	-11.3434
▁romànica	-11.3434
▁butxaca	-11.3437
▁pertanyen	-11.3441
▁reb	-11.3441
oi	-11.3442
▁cellers	-11.3442
в	-11.3442
hostal	-11.3443
▁formentera	-11.3444
▁palamós	-11.3446
▁olímpics	-11.345
▁dra	-11.3454
ama	-11.3455
cic	-11.3464
lelament	-11.3465
lectuals	-11.3467
▁amigues	-11.3469
▁tirant	-11.3473
▁poma	-11.3473
▁processó	-11.3474
fan	-11.3474
▁dibuixar	-11.3476
gmail	-11.3477
▁gravat	-11.3477
▁sorpreses	-11.3477
▁publicades	-11.3483
▁asseguren	-11.3487
ere	-11.3489
▁intervenir	-11.349
▁governar	-11.3493
▁ecològics	-11.3493
▁desitjos	-11.3494
▁realitzaran	-11.3498
▁acabarà	-11.3498
adopció	-11.35
▁defensat	-11.3501
▁hospitals	-11.3502
né	-11.3503
▁muralla	-11.3504
interessa	-11.3504
ositat	-11.3504
laboracions	-11.3507
▁contenidors	-11.3507
àn	-11.3512
▁neta	-11.3512
dran	-11.3513
guard	-11.3513
legacions	-11.3514
▁hort	-11.3516
▁trastorn	-11.352
òria	-11.3522
▁ramón	-11.3526
guet	-11.3529
apren	-11.3532
▁adequades	-11.3532
▁externa	-11.3537
▁verdes	-11.3539
oy	-11.3543
▁jose	-11.3545
▁ignasi	-11.3547
▁tomb	-11.3547
▁may	-11.3548
▁liderat	-11.3549
▁assignatures	-11.3549
▁oficina	-11.3551
▁netejar	-11.3552
rie	-11.3553
▁justifica	-11.3555
▁invent	-11.3557
cular	-11.3558
▁duc	-11.3561
▁integrants	-11.3565
▁reclamació	-11.3565
▁pals	-11.3568
evangeli	-11.3569
dro	-11.3575
▁alcaldes	-11.3575
gada	-11.3577
▁vestir	-11.3577
ay	-11.3578
▁elevada	-11.3581
▁representat	-11.3582
#	-11.3582
▁fusió	-11.3583
mail	-11.3584
▁disfressa	-11.3584
tò	-11.3586
▁ocupat	-11.3586
▁salvatge	-11.3589
▁estalviar	-11.3591
▁windows	-11.3591
▁ten	-11.3592
▁liberal	-11.3592
▁branca	-11.3593
▁trencat	-11.3593
tell	-11.3594
▁acordar	-11.3594
▁vicente	-11.3597
▁sisè	-11.36
extinció	-11.36
▁aplicable	-11.3601
▁disposats	-11.3602
▁podi	-11.3604
▁cruïlla	-11.3605
informa	-11.3607
▁rellevància	-11.3607
▁subtil	-11.3609
▁calella	-11.3611
▁santi	-11.3612
▁bes	-11.3613
lus	-11.3613
cd	-11.3615
▁apunt	-11.3615
▁verbal	-11.3617
▁mesurar	-11.362
▁2010,	-11.3625
▁pedagògica	-11.3626
▁formativa	-11.3628
▁avi	-11.3629
aix	-11.3631
girona	-11.3631
▁síntesi	-11.3633
▁mediambiental	-11.3633
ala	-11.3634
▁convenis	-11.3634
▁competent	-11.3637
▁ciclista	-11.364
▁branques	-11.364
▁xinès	-11.3642
rro	-11.3642
alumini	-11.3643
▁fo	-11.3644
▁crescut	-11.3646
▁militants	-11.3647
▁alfons	-11.3647
н	-11.3647
▁lliurement	-11.3652
laborador	-11.3652
▁úniques	-11.3653
▁cf	-11.3658
▁atletes	-11.3661
ismes	-11.3662
▁empleats	-11.3671
▁free	-11.3672
▁propaganda	-11.3674
▁esperança	-11.3674
gueu	-11.3676
embaràs	-11.3681
▁media	-11.3683
▁labor	-11.3684
▁ficar	-11.3685
vent	-11.3685
arn	-11.3687
▁revela	-11.3687
▁hitler	-11.3688
fc	-11.369
angle	-11.3692
▁pac	-11.3692
▁confirmació	-11.3698
▁sar	-11.3698
▁entrant	-11.3701
qua	-11.3704
▁bola	-11.3706
▁resol	-11.3708
▁comissari	-11.3711
▁tones	-11.3712
▁familia	-11.3714
▁massiva	-11.3717
expansió	-11.3718
▁gràfics	-11.3718
▁formatives	-11.3722
▁kb	-11.3724
▁dobles	-11.3724
oo	-11.3724
▁lògic	-11.3726
▁cur	-11.3732
▁literaris	-11.3734
▁corriol	-11.3738
▁jutjats	-11.3738
▁pujat	-11.3741
▁salva	-11.3742
▁concentra	-11.3743
aconsegueix	-11.3743
ult	-11.3746
▁berguedà	-11.3748
▁horitzontal	-11.375
▁sentia	-11.375
▁proposen	-11.3751
▁llop	-11.3755
▁eduard	-11.3755
▁adreçada	-11.3758
cli	-11.3759
got	-11.376
▁ideals	-11.3761
▁tractats	-11.3761
▁directius	-11.3765
nò	-11.3769
▁crítics	-11.377
queu	-11.3775
▁2009,	-11.3776
▁amagar	-11.3777
▁tertúlia	-11.3779
my	-11.3782
▁executar	-11.3784
▁1989	-11.3784
mund	-11.3784
deix	-11.3785
▁instància	-11.3786
▁organisme	-11.379
▁casualitat	-11.3791
▁immensa	-11.3793
▁palafrugell	-11.3795
▁artur	-11.3795
▁barceloní	-11.38
▁enfrontar	-11.3801
▁injust	-11.3805
▁destacades	-11.3807
▁disputat	-11.3808
dol	-11.3809
▁entrenador	-11.381
▁inserció	-11.3814
▁extensa	-11.3816
▁sílvia	-11.3816
▁conclou	-11.3817
▁metall	-11.3819
bla	-11.3823
eries	-11.3825
▁62	-11.3825
▁llimona	-11.3825
▁íntim	-11.3826
▁destruir	-11.3828
evi	-11.3831
pia	-11.3832
▁rodalies	-11.3832
▁judicials	-11.3837
ordenança	-11.384
intent	-11.384
▁realitzem	-11.3844
▁meritxell	-11.3846
▁ubicada	-11.3854
red	-11.3855
▁contestar	-11.3857
▁afegint	-11.3858
▁cs	-11.3859
▁retro	-11.3859
▁kar	-11.386
▁funcionari	-11.386
▁contribueix	-11.3864
▁trofeu	-11.3865
ous	-11.3865
òleg	-11.3865
▁contribució	-11.3871
cot	-11.3874
constru	-11.3874
▁pdecat	-11.3878
▁localitzar	-11.3878
atzar	-11.3879
▁condemnat	-11.3879
▁digna	-11.3881
▁urbanístic	-11.3882
▁votants	-11.3885
▁travessar	-11.3888
▁remarcar	-11.3889
itats	-11.3891
▁comparar	-11.3891
[6]	-11.3891
▁flora	-11.3892
▁gestor	-11.3895
eines	-11.3896
▁mam	-11.3899
edu	-11.39
▁votat	-11.3902
ular	-11.3903
▁mitjan	-11.3904
rea	-11.3905
emoció	-11.3905
▁gua	-11.3907
usa	-11.3908
▁cabells	-11.3909
▁veureu	-11.391
▁montjuïc	-11.3912
▁necessàriament	-11.3914
▁navegant	-11.3916
▁inquietuds	-11.3916
apropa	-11.3917
uk	-11.3917
incident	-11.392
▁ban	-11.3921
stes	-11.3921
▁dòlars	-11.3924
▁aparentment	-11.3926
▁brut	-11.3926
▁mail	-11.3926
expresident	-11.3928
▁infant	-11.3931
vera	-11.3931
▁deixava	-11.3931
▁tras	-11.3937
▁ciclistes	-11.3938
▁previs	-11.394
ban	-11.3942
tics	-11.3943
▁explicava	-11.3945
enderroc	-11.3945
fr	-11.3947
▁desigualtats	-11.3949
▁estant	-11.3952
▁perfecció	-11.3953
inci	-11.3954
fora	-11.3955
▁mides	-11.3957
▁junqueras	-11.3957
pass	-11.3959
rés	-11.3959
▁altament	-11.3962
▁barreres	-11.3962
adequació	-11.3964
▁grega	-11.3964
▁blogs	-11.3964
▁convèncer	-11.3967
▁rostre	-11.3968
▁estrena	-11.3968
▁nega	-11.397
eren	-11.397
▁caldes	-11.3971
▁tingués	-11.3971
▁tingué	-11.3973
▁convocatòries	-11.3979
sti	-11.3979
▁carbó	-11.398
▁kg	-11.398
ït	-11.3983
▁passatgers	-11.3983
▁conceptual	-11.3984
estava	-11.3984
oblit	-11.3985
▁traduït	-11.3986
▁localitats	-11.3986
indi	-11.3987
▁mobilitzacions	-11.3989
▁previsions	-11.3989
haurien	-11.3991
vid	-11.3992
▁desperta	-11.3993
▁fidels	-11.3994
rich	-11.3995
▁atorgat	-11.3995
sp	-11.3999
▁precisa	-11.3999
▁fonaments	-11.4001
▁parlo	-11.4006
▁arquitectes	-11.4007
▁deixarà	-11.4007
▁accidents	-11.4009
▁daurada	-11.401
▁trobes	-11.4015
▁conductes	-11.4017
▁religiosos	-11.4017
▁cadires	-11.4019
▁tru	-11.402
▁privilegi	-11.4022
▁cn	-11.4022
▁black	-11.4022
ultim	-11.4023
▁preses	-11.4024
▁rebuda	-11.4024
▁avança	-11.4028
▁mínims	-11.4028
▁ferides	-11.4031
▁monarquia	-11.4031
sk	-11.4034
▁russa	-11.4036
▁compleixen	-11.4042
▁recollides	-11.4043
▁suports	-11.4044
▁vermut	-11.4049
▁btt	-11.4051
▁flota	-11.4053
у	-11.4053
▁bisbal	-11.4056
ae	-11.4056
▁ordinari	-11.4056
atemptat	-11.4058
▁fosca	-11.406
▁lleugera	-11.4061
▁autonomia	-11.4061
▁design	-11.4062
▁actives	-11.4064
▁multimèdia	-11.4065
▁plantejament	-11.4065
▁itineraris	-11.4067
▁físics	-11.4068
pas	-11.4068
▁bala	-11.4068
▁càtedra	-11.407
▁mossèn	-11.407
▁disfrutar	-11.407
▁mercantil	-11.4071
▁marí	-11.4072
▁700	-11.4073
▁sumat	-11.4074
▁gratis	-11.4074
oriol	-11.4076
▁app	-11.4077
▁barrera	-11.4078
▁candidatures	-11.408
▁estàndard	-11.408
estem	-11.4083
▁ferm	-11.4085
▁bau	-11.4087
▁abandonat	-11.4087
▁solsona	-11.4087
▁2007,	-11.4088
▁protegida	-11.4091
▁mireu	-11.4092
▁geni	-11.4095
▁voluntari	-11.4095
▁anima	-11.4096
▁desapareix	-11.4098
▁arquitectura	-11.4099
▁vegetal	-11.41
▁llatina	-11.4101
ug	-11.4101
▁continue	-11.4101
ètiques	-11.4106
▁moreno	-11.4107
▁distinció	-11.4108
▁carril	-11.4109
▁genètica	-11.411
▁anuncis	-11.411
▁mèrit	-11.4113
▁ponts	-11.4114
▁admet	-11.4115
▁significatiu	-11.4117
▁rebrà	-11.4119
mina	-11.4119
▁capçalera	-11.4121
avis	-11.4121
espècies	-11.4122
▁tub	-11.4123
▁peculiar	-11.4124
▁previstos	-11.4124
▁gèneres	-11.4128
nce	-11.4128
▁energies	-11.4136
▁posava	-11.4136
mba	-11.4136
loca	-11.4138
▁destinar	-11.4142
▁cam	-11.4143
bro	-11.4144
▁resident	-11.4145
▁presta	-11.4145
▁fortalesa	-11.4149
▁companya	-11.415
▁bad	-11.4152
ols	-11.4152
xer	-11.4153
hr	-11.4156
▁textura	-11.4157
▁guardó	-11.4166
▁segarra	-11.4166
▁calenta	-11.4169
▁fixat	-11.4173
▁implementació	-11.4174
▁greix	-11.4175
▁ample	-11.4175
▁dolent	-11.4177
▁acabats	-11.4178
▁joia	-11.4179
escoltar	-11.4181
fit	-11.4182
▁centrada	-11.4182
▁desplaçament	-11.4182
▁enquestes	-11.4186
electricitat	-11.4187
▁satèl	-11.4188
▁innovador	-11.4188
▁ob	-11.419
autobús	-11.4191
▁fàcils	-11.4192
▁adult	-11.4196
▁equivalent	-11.4201
individu	-11.4202
▁dents	-11.4203
▁pescadors	-11.4204
▁assaig	-11.4204
mobil	-11.4205
▁za	-11.4205
▁columnes	-11.4206
▁trasllada	-11.4206
articles	-11.4207
▁rau	-11.4208
▁invertir	-11.4208
▁cardona	-11.4209
▁artístics	-11.4209
▁arribava	-11.421
▁aparegut	-11.4215
▁editor	-11.4216
▁especialitats	-11.4216
cam	-11.4217
▁diputada	-11.4217
▁policials	-11.4224
}	-11.4224
▁terrible	-11.4225
▁puntual	-11.423
▁passades	-11.423
▁vetllar	-11.4231
escrit	-11.4232
▁gats	-11.4235
▁prestar	-11.4236
▁entren	-11.4236
▁macro	-11.4236
▁consumir	-11.4243
▁confi	-11.4245
▁promet	-11.4247
netes	-11.4249
▁plaques	-11.4251
▁1984	-11.4253
oni	-11.4256
▁mite	-11.4256
▁orquestra	-11.4257
▁emblemàtics	-11.4258
▁humil	-11.426
▁impedeix	-11.4261
▁tretze	-11.4262
▁senzillament	-11.4262
instrument	-11.4266
▁utilitzades	-11.4267
▁planificar	-11.4268
▁1978	-11.4269
▁alacant	-11.4272
gua	-11.4273
800	-11.4274
americans	-11.4277
gam	-11.4282
▁tapes	-11.4282
▁46	-11.4284
▁investigacions	-11.4285
▁residencial	-11.429
▁fix	-11.4292
àudio	-11.4293
▁encarregar	-11.4294
▁modernista	-11.4295
▁tip	-11.4298
▁canadà	-11.4298
casa	-11.4298
▁tracten	-11.4301
▁variant	-11.4309
locat	-11.4311
▁postal	-11.4312
▁rivera	-11.4313
responsabilitats	-11.4314
▁bay	-11.4315
avanç	-11.4315
extrema	-11.4316
▁tecnològics	-11.4316
▁ulleres	-11.4316
orella	-11.4317
▁tela	-11.432
▁desena	-11.4321
▁investigar	-11.4323
▁pareix	-11.4325
▁mani	-11.4329
▁dedicats	-11.4332
▁show	-11.4333
ega	-11.4334
▁productor	-11.4334
adn	-11.4335
rá	-11.434
▁princesa	-11.434
▁lligada	-11.4342
emp	-11.4344
▁annex	-11.4344
▁reuni	-11.4346
▁lesió	-11.4347
▁poètic	-11.4348
egen	-11.4349
abilitat	-11.4349
obliga	-11.435
▁nacionalista	-11.4351
▁pagat	-11.4352
▁aus	-11.4354
▁funcionen	-11.4354
▁memòries	-11.4355
▁cons	-11.4355
▁ponència	-11.4357
▁978	-11.4359
veure	-11.4359
▁conserven	-11.436
▁simbòlic	-11.4361
obtenir	-11.4362
▁terminis	-11.4362
▁confederació	-11.4365
▁amenaces	-11.4366
▁concedir	-11.437
▁naturalment	-11.4373
▁donaran	-11.4374
▁cadet	-11.4374
incendi	-11.4375
▁filologia	-11.4376
extensió	-11.4378
▁parer	-11.4378
▁mots	-11.4379
exigència	-11.438
▁discursos	-11.4381
▁tresor	-11.4382
▁queixes	-11.4383
▁hectàrees	-11.4384
ata	-11.4384
ícia	-11.4385
▁imperial	-11.4385
▁arma	-11.4386
▁terrorisme	-11.4386
iniciar	-11.4387
especial	-11.4388
▁successió	-11.439
▁biografia	-11.4393
▁igualada	-11.4393
▁eixa	-11.4394
▁menció	-11.4394
lan	-11.4395
ocupa	-11.4398
▁mals	-11.4398
tures	-11.4398
▁jugada	-11.4399
▁elèctriques	-11.4402
▁agafem	-11.4402
▁47	-11.4404
info	-11.4405
▁guiades	-11.4409
▁síndrome	-11.4409
▁típica	-11.4411
audi	-11.4412
▁acadèmics	-11.4417
▁masculina	-11.4417
▁molina	-11.4418
obri	-11.4421
oceà	-11.4422
amp	-11.4424
▁cobreix	-11.4424
▁sabates	-11.4425
▁tingueu	-11.4425
▁descansar	-11.4426
▁juvenils	-11.4428
▁finalistes	-11.4428
ted	-11.4429
eixi	-11.4434
bona	-11.4438
▁exposat	-11.4439
tt	-11.4441
lectives	-11.4444
▁vestuari	-11.4447
▁plenari	-11.4448
▁encert	-11.4449
inger	-11.4451
▁correcció	-11.4452
▁james	-11.4452
▁pasqua	-11.4455
▁respectius	-11.4455
▁envoltat	-11.4456
enfrontament	-11.4459
▁estrictament	-11.4459
▁sopa	-11.446
▁aplicada	-11.446
▁postura	-11.446
▁positius	-11.4462
▁fama	-11.4465
▁adolescent	-11.4467
inca	-11.4468
▁signe	-11.4469
▁posarem	-11.4475
▁parteix	-11.4475
▁baixant	-11.4475
▁castelldefels	-11.4477
altitud	-11.4479
▁commemorar	-11.448
mut	-11.4481
hauran	-11.4482
▁temporals	-11.4483
licita	-11.4485
ich	-11.4485
elecomunicacions	-11.4487
▁dediquen	-11.4487
▁compartim	-11.4489
llan	-11.4491
▁desastre	-11.4493
▁falten	-11.4493
▁amable	-11.4494
▁preferències	-11.4495
▁pretenen	-11.4497
▁secretària	-11.4498
▁oi	-11.4498
aixeca	-11.4501
▁documentals	-11.4504
▁arnau	-11.4508
sempre	-11.4509
qués	-11.4514
▁oliver	-11.4518
▁variable	-11.4518
▁xile	-11.452
▁opera	-11.4521
▁limitada	-11.4521
▁cognoms	-11.4523
▁concloure	-11.4523
ign	-11.4523
adjudicació	-11.4524
▁obrera	-11.4527
▁freqüents	-11.4528
mor	-11.4532
▁ampla	-11.4532
▁polígon	-11.4533
teix	-11.4536
hores	-11.4537
▁gravetat	-11.4537
▁americà	-11.4539
▁patrons	-11.454
zer	-11.4541
actuacions	-11.4542
guessin	-11.4544
▁campions	-11.4545
▁mc	-11.4545
▁entrenaments	-11.4548
hisenda	-11.4548
▁actualització	-11.4551
▁mina	-11.4553
▁angel	-11.4554
▁acordat	-11.4554
▁situades	-11.4558
▁renovables	-11.4559
ofereixen	-11.4562
▁millorant	-11.4563
▁indispensable	-11.4563
lusions	-11.4564
▁estranya	-11.4565
▁obligació	-11.4565
▁rebutjar	-11.4567
▁tomba	-11.4569
▁conéixer	-11.457
▁dada	-11.4571
▁avantatge	-11.4572
▁ratolí	-11.4575
bio	-11.4577
▁polònia	-11.4578
▁pri	-11.4585
pie	-11.4586
▁juli	-11.4596
▁aproximació	-11.4596
▁coherència	-11.4597
▁aprovació	-11.4597
estètica	-11.4599
▁recullen	-11.4601
cari	-11.4603
▁jaciment	-11.4606
▁informatius	-11.4609
ful	-11.4609
▁òrgan	-11.4609
arenys	-11.4611
espècie	-11.4611
▁festivitat	-11.4613
▁proporció	-11.4615
▁mancomunitat	-11.4615
▁project	-11.4616
▁síndic	-11.4617
▁1988	-11.4617
▁recomanar	-11.4619
dica	-11.4619
▁penjat	-11.4621
▁minerals	-11.4622
incompliment	-11.4624
▁beguda	-11.4625
▁barat	-11.4627
▁projectar	-11.4628
vall	-11.4629
▁festius	-11.4629
▁trio	-11.4631
riques	-11.4632
▁financeres	-11.4633
tació	-11.4634
▁reivindicacions	-11.4634
▁reclamacions	-11.4636
▁fenòmens	-11.4637
▁quinzena	-11.4637
nès	-11.4639
▁dissenys	-11.4639
▁magnitud	-11.4641
ow	-11.4643
▁sortirà	-11.4647
pv	-11.4648
▁escoltat	-11.4651
entreteniment	-11.4651
▁diego	-11.4655
para	-11.4656
▁proclamar	-11.4658
associa	-11.4658
▁senat	-11.4659
▁corregir	-11.4661
▁buits	-11.4662
sch	-11.4662
▁pam	-11.4662
▁consistent	-11.4664
▁cantó	-11.4664
get	-11.4666
▁beneficiar	-11.4666
pic	-11.4666
encaix	-11.467
petit	-11.467
color	-11.4672
▁ràbia	-11.4674
▁expressions	-11.4674
▁determina	-11.4674
▁lleuger	-11.4675
0,	-11.4677
▁haureu	-11.4679
ingressos	-11.468
avantatge	-11.468
▁targetes	-11.4684
▁verdaguer	-11.4685
▁pautes	-11.4687
▁declara	-11.4688
mai	-11.4688
pm	-11.469
▁80%	-11.469
▁puguen	-11.469
▁cv	-11.4691
▁fites	-11.4692
▁expressat	-11.4695
▁viola	-11.4696
▁núvol	-11.4696
▁tornant	-11.4698
▁puga	-11.47
▁ministres	-11.4701
▁evidència	-11.4702
▁pascual	-11.4702
▁sana	-11.4705
gres	-11.4705
▁danses	-11.4708
▁vaja	-11.4708
llenc	-11.4709
àsia	-11.4712
▁indicacions	-11.4712
2004	-11.4712
▁narcís	-11.4712
▁cercavila	-11.4713
▁1970	-11.4714
¿	-11.4716
▁plus	-11.4717
àtic	-11.4718
▁poso	-11.4721
over	-11.4723
▁up	-11.4723
▁films	-11.4725
uv	-11.4727
exposicions	-11.4728
experimentació	-11.4729
▁read	-11.4729
agressió	-11.473
historiador	-11.4731
▁hip	-11.4734
▁enquesta	-11.4734
▁filòsof	-11.4735
▁efectius	-11.4736
ecologia	-11.4737
▁neus	-11.4739
ian	-11.474
▁dependències	-11.474
anda	-11.4742
social	-11.4742
▁singulars	-11.4742
▁fantasia	-11.4743
indica	-11.4744
▁1979	-11.4746
▁arquitectònic	-11.4746
ònia	-11.4746
▁moderns	-11.4747
▁subjectes	-11.4749
▁guix	-11.475
▁exclusiu	-11.4753
▁meravella	-11.4756
▁aires	-11.4757
▁dissabtes	-11.476
▁limitació	-11.4761
informàtica	-11.4762
itzacions	-11.4762
▁radi	-11.4763
▁ripollès	-11.4764
▁cit	-11.4766
immoble	-11.4766
▁joana	-11.4768
▁gironines	-11.4769
▁dinàmic	-11.4769
▁diversa	-11.477
▁compromès	-11.4771
▁indiquen	-11.4773
▁tron	-11.4774
▁rectangular	-11.4774
▁dotació	-11.4775
històric	-11.4775
▁ideologia	-11.4781
ward	-11.4782
▁mòduls	-11.4783
▁obtinguts	-11.4783
▁cou	-11.4784
atrevi	-11.4785
▁variables	-11.4789
tx	-11.4789
×	-11.4794
▁dotat	-11.4796
wer	-11.4797
▁mostrant	-11.4799
sion	-11.4799
▁suplement	-11.48
▁matx	-11.48
quets	-11.48
▁mercaderies	-11.48
mpl	-11.4801
▁procedir	-11.4802
▁sans	-11.4803
▁veieu	-11.4806
▁puguis	-11.4808
▁reaccions	-11.481
▁diàriament	-11.481
▁succeir	-11.4812
rina	-11.4812
▁seo	-11.4814
▁surti	-11.4814
angoixa	-11.4815
▁prioritats	-11.4816
excusa	-11.4819
▁vii	-11.482
vert	-11.482
fen	-11.4823
▁engany	-11.4823
wood	-11.4823
▁fulla	-11.4823
▁quedant	-11.4826
▁bulli	-11.4827
▁flo	-11.4828
▁haguessin	-11.4832
▁realitats	-11.4833
ial	-11.4835
▁mola	-11.4837
bb	-11.4837
▁batlle	-11.484
▁1987	-11.4842
allarga	-11.4843
▁canya	-11.4845
▁editorials	-11.4846
gro	-11.4847
queta	-11.4848
▁nadó	-11.485
▁trentena	-11.4851
▁enginyeria	-11.4855
▁vega	-11.4858
xu	-11.4858
bili	-11.4862
▁dividir	-11.4866
▁fascinant	-11.4867
▁protegit	-11.4867
▁visualitzar	-11.4867
▁distingir	-11.487
▁obligats	-11.4871
uro	-11.4872
▁atacar	-11.4872
▁americana	-11.4872
▁repeteix	-11.4873
▁automàtica	-11.4873
disc	-11.4877
▁sum	-11.4878
pis	-11.4882
▁càritas	-11.4883
▁debò	-11.4884
diu	-11.4885
atracció	-11.4886
▁vinculada	-11.4886
escultor	-11.4886
tribu	-11.4886
▁ioga	-11.4887
▁afavoreix	-11.4888
▁avenços	-11.4888
▁confia	-11.4889
graf	-11.4899
▁conquesta	-11.4899
▁viabilitat	-11.4899
▁íntegrament	-11.49
alter	-11.49
▁pib	-11.4901
▁distàncies	-11.4901
▁corporativa	-11.4901
▁globus	-11.4901
▁discos	-11.4902
▁actualitzat	-11.4903
zen	-11.4904
intentar	-11.4907
bli	-11.4908
eficàcia	-11.4913
▁taxi	-11.4914
▁muñoz	-11.4917
▁mèdiques	-11.4917
▁degudament	-11.492
▁ferrocarril	-11.4921
▁preciós	-11.4922
▁vents	-11.4925
key	-11.4925
▁derivades	-11.4926
▁turístiques	-11.4927
exc	-11.4928
onu	-11.4929
lls	-11.4932
▁desgràcia	-11.4932
▁criatures	-11.4933
▁veuràs	-11.4935
▁innovadores	-11.4935
rats	-11.4936
▁trump	-11.4938
▁converteixen	-11.4939
▁depressió	-11.494
▁cassola	-11.4941
▁automàtic	-11.4941
▁passà	-11.4941
himne	-11.4942
escultura	-11.4943
▁saragossa	-11.4947
▁imprescindibles	-11.4947
▁complements	-11.4949
▁aclarir	-11.495
▁domina	-11.4952
itzador	-11.4952
▁interns	-11.4954
▁reforç	-11.4956
▁dossier	-11.4956
▁setmanal	-11.4958
dament	-11.4959
tivitat	-11.4961
▁salari	-11.4961
assetjament	-11.4963
▁amaga	-11.4963
mol	-11.4966
▁rebent	-11.4967
àr	-11.4967
▁bonet	-11.4967
▁gri	-11.4968
out	-11.4969
▁viària	-11.4969
▁econòmicament	-11.497
gel	-11.4972
aïllament	-11.4973
ïtat	-11.4974
▁naus	-11.498
▁dvd	-11.4981
nà	-11.4982
▁nobel	-11.4982
ïda	-11.4984
altar	-11.4984
▁escal	-11.4985
▁cadenes	-11.4985
lim	-11.4991
▁connexions	-11.4993
▁inaugural	-11.4994
alberg	-11.4994
▁financers	-11.4994
pere	-11.4996
editor	-11.4999
roll	-11.5001
▁classificar	-11.5001
▁agradi	-11.5002
nies	-11.5002
▁elaborats	-11.5003
quí	-11.5005
▁1985	-11.5007
▁terç	-11.5008
▁carro	-11.5013
▁malestar	-11.5016
▁ocupats	-11.5016
àstic	-11.5017
▁08	-11.5019
ició	-11.5019
lustrat	-11.502
▁emetre	-11.5021
fic	-11.5023
dona	-11.5024
▁concretar	-11.5027
▁sau	-11.5029
▁obvi	-11.5031
▁detenció	-11.5033
▁best	-11.5033
▁gata	-11.5037
▁socialment	-11.5039
▁directiu	-11.504
▁agrària	-11.5043
▁encarregats	-11.5044
▁ferits	-11.5044
▁relaxar	-11.5046
▁creences	-11.5051
llar	-11.5052
▁ètica	-11.5052
▁vulguis	-11.5053
▁japonès	-11.5059
▁enrique	-11.5061
▁cròniques	-11.5062
▁videojocs	-11.5062
▁presencial	-11.5062
▁innovadora	-11.5063
▁seleccionats	-11.5063
▁nutrició	-11.5064
atlàntic	-11.5064
afa	-11.5064
▁defensor	-11.5065
primi	-11.5065
▁féu	-11.507
▁establiment	-11.5072
▁experimental	-11.5073
tges	-11.5075
aprofitar	-11.5076
▁xiquetes	-11.5076
gb	-11.5078
▁dni	-11.5078
▁particularment	-11.5082
▁cobla	-11.5082
▁satisfet	-11.5085
▁cc	-11.5087
▁mantega	-11.5091
▁1000	-11.5091
vella	-11.5092
▁referir	-11.5093
▁ridícul	-11.5094
▁amplia	-11.5094
▁comprat	-11.5096
ots	-11.5097
▁1986	-11.5098
▁ensenya	-11.5098
▁moro	-11.5099
▁trossos	-11.51
escau	-11.51
▁adequats	-11.5104
▁sumen	-11.5107
cres	-11.5108
▁metal	-11.5109
▁factures	-11.5115
▁acompanyant	-11.5115
▁reconstrucció	-11.5116
ik	-11.5116
▁pensada	-11.5117
joan	-11.5117
▁obligades	-11.5117
artesania	-11.512
nza	-11.5121
acreditació	-11.5121
▁vetlla	-11.5124
▁1977	-11.5124
▁endinsar	-11.5125
▁turquia	-11.5126
well	-11.5126
▁complicada	-11.5126
▁llibreries	-11.5126
▁pebre	-11.5126
▁frau	-11.5135
▁mos	-11.5136
activa	-11.5142
▁cla	-11.5144
ològiques	-11.5146
▁comunes	-11.5147
tric	-11.5149
▁resultant	-11.5149
▁arcs	-11.5151
nces	-11.5153
▁paviment	-11.5154
▁nàutic	-11.5157
màtic	-11.516
nin	-11.516
▁cria	-11.5161
▁procedència	-11.5163
▁participativa	-11.5164
▁trobi	-11.5167
adults	-11.517
▁mític	-11.5172
▁unida	-11.5173
▁enemics	-11.5174
▁modernitat	-11.5174
leta	-11.5174
objectes	-11.5177
embo	-11.5177
pdf	-11.518
▁demostració	-11.518
▁day	-11.518
lem	-11.5181
▁rumb	-11.5181
vul	-11.5182
unitat	-11.5183
pan	-11.5184
▁sobirà	-11.5187
cola	-11.5187
idiomes	-11.5188
▁impulsada	-11.5188
▁milà	-11.5188
▁borges	-11.5188
▁enfocament	-11.519
▁devia	-11.5193
israel	-11.5193
▁constants	-11.5194
▁sortia	-11.5194
▁associades	-11.5198
▁diàmetre	-11.52
ejo	-11.5203
▁partint	-11.5204
log	-11.5212
▁comandament	-11.5212
uit	-11.5212
fons	-11.5215
▁catorze	-11.5217
▁penes	-11.5217
▁vin	-11.5219
▁suposen	-11.5221
▁leo	-11.5224
▁pàg	-11.5226
▁1982	-11.5227
▁picasso	-11.5228
▁penseu	-11.5228
▁costes	-11.5228
▁2008,	-11.523
▁crim	-11.523
▁personalitats	-11.5231
▁persecució	-11.5235
▁creen	-11.5236
especialitat	-11.5237
▁arribada	-11.524
lament	-11.5245
▁sofà	-11.5248
san	-11.5248
▁dirigits	-11.5248
▁vinculació	-11.525
▁distribuir	-11.525
▁ves	-11.525
▁domènech	-11.5251
agafar	-11.5252
ys	-11.5255
▁parcialment	-11.5257
▁trobant	-11.5264
rica	-11.5264
▁vessants	-11.5264
▁àgil	-11.5266
parc	-11.5266
▁boira	-11.5267
▁ritmes	-11.5268
▁políticament	-11.527
▁enviant	-11.5273
▁viatja	-11.5276
▁quotes	-11.5277
▁diumenges	-11.5278
▁but	-11.5279
▁desigualtat	-11.5281
▁demanava	-11.5282
▁precarietat	-11.5284
▁òbviament	-11.5285
▁germanes	-11.529
▁menús	-11.5291
▁tauler	-11.5293
▁ramaderia	-11.5293
▁recolzament	-11.5296
cup	-11.5298
▁pais	-11.5299
▁acollida	-11.5302
▁simples	-11.5302
▁complexos	-11.5311
▁excursionista	-11.5311
emmagatzematge	-11.5311
▁superació	-11.5312
pè	-11.5312
▁díaz	-11.5312
▁gasos	-11.5312
▁instant	-11.5314
▁patiment	-11.5315
▁bach	-11.5315
amplada	-11.5317
▁adoptat	-11.5319
▁discutir	-11.5319
locació	-11.532
▁creacions	-11.532
▁andrés	-11.5321
▁adquirit	-11.5322
edificis	-11.5324
▁gin	-11.5328
cop	-11.5329
▁específicament	-11.5331
▁broma	-11.5333
lé	-11.5336
▁puntuals	-11.5338
▁patrimonial	-11.5339
▁prohibició	-11.5342
▁recaptació	-11.5345
afegir	-11.5345
▁mati	-11.5346
▁estreta	-11.5347
▁lliura	-11.5349
▁ya	-11.5351
uts	-11.5353
ràs	-11.5354
ale	-11.5356
▁exposa	-11.5357
▁províncies	-11.5358
▁bretanya	-11.5358
▁52	-11.536
osament	-11.536
tada	-11.5364
▁sardana	-11.5366
grama	-11.5367
nie	-11.5372
▁coordinat	-11.5373
▁condueix	-11.5374
▁saga	-11.5377
oxigen	-11.5378
àlbum	-11.5381
actualització	-11.5381
pl	-11.5382
apa	-11.5382
▁privilegiat	-11.5383
gl	-11.5384
autoestima	-11.5386
▁diferencia	-11.5386
▁rang	-11.5387
▁pernil	-11.5388
▁estendre	-11.5391
nov	-11.5392
tag	-11.5393
▁acabi	-11.5397
▁raonable	-11.54
▁sino	-11.5401
▁sorgit	-11.5402
▁eulàlia	-11.5402
▁40%	-11.5403
amenaça	-11.5404
▁britànica	-11.5405
▁actualitzar	-11.5405
▁criminal	-11.5407
▁inicials	-11.5407
▁raça	-11.5407
▁gravació	-11.5408
són	-11.5411
▁ordenar	-11.5415
▁promesa	-11.5415
▁supressió	-11.5415
▁informem	-11.5416
▁carnestoltes	-11.5418
▁modificat	-11.542
▁ch	-11.542
▁constituït	-11.5421
aus	-11.5421
▁cremar	-11.5421
▁especifica	-11.5422
▁dedicades	-11.5425
avís	-11.543
iec	-11.5431
▁certificats	-11.5431
▁matemàtica	-11.5431
ría	-11.5431
▁tocava	-11.5432
▁tempesta	-11.5434
rr	-11.5436
▁afectada	-11.5438
sec	-11.544
▁sta	-11.544
▁artesans	-11.544
▁extrems	-11.544
▁volíem	-11.5441
▁ull	-11.5444
▁yo	-11.5448
▁compl	-11.5449
especialització	-11.5449
cè	-11.5449
▁rutina	-11.5452
▁agradaria	-11.5452
▁bai	-11.5456
aparador	-11.5457
adaptar	-11.5457
▁inferiors	-11.5457
▁cotó	-11.5458
sible	-11.5459
▁exigències	-11.5459
▁visibles	-11.546
▁pròximes	-11.5462
▁lluitant	-11.5464
▁interessada	-11.5468
▁organitzats	-11.547
servi	-11.5471
▁escau	-11.5472
▁complementa	-11.5472
▁pilots	-11.5472
▁capes	-11.5473
▁comprèn	-11.5473
▁fun	-11.5475
▁cims	-11.5475
▁fonamentalment	-11.5476
▁massís	-11.5477
▁cardenal	-11.5479
▁càmping	-11.548
▁llençar	-11.548
viu	-11.5482
▁visiten	-11.5482
ket	-11.5482
▁arqueològic	-11.5483
▁curiosament	-11.5484
arro	-11.5485
llet	-11.5485
▁school	-11.5487
▁sagrat	-11.5488
▁monte	-11.549
▁conducció	-11.549
▁sisena	-11.5491
▁recta	-11.5491
▁sotmetre	-11.5492
▁lúdic	-11.5493
▁finques	-11.5494
ieu	-11.5494
▁mediàtic	-11.5494
pag	-11.5495
▁eficiència	-11.5495
▁flux	-11.5496
actriu	-11.5496
ubica	-11.5497
▁virgili	-11.5498
cv	-11.5499
▁bufa	-11.5499
▁secundari	-11.55
uch	-11.5502
▁autoritzat	-11.5503
▁desplaçaments	-11.5504
▁gestions	-11.5505
▁inevitable	-11.5505
ung	-11.5506
▁volant	-11.5511
▁lliçó	-11.5512
després	-11.5513
rico	-11.5513
▁estarem	-11.5514
▁disminuir	-11.5515
▁acusat	-11.5515
▁blues	-11.5516
▁reaccionar	-11.5517
▁residències	-11.5517
▁sorprèn	-11.5517
▁segurs	-11.5518
▁determinació	-11.552
ners	-11.552
▁joies	-11.5523
ole	-11.5524
▁human	-11.5526
▁rànquing	-11.5526
▁crits	-11.5527
az	-11.5529
▁tre	-11.5529
nyà	-11.553
deta	-11.5531
ا	-11.5531
▁nervis	-11.5532
esdeveniments	-11.5532
▁transcorre	-11.5532
▁iso	-11.5533
▁antigament	-11.5533
▁situ	-11.5534
▁elecció	-11.5536
▁construeix	-11.5537
▁interpretat	-11.5538
esti	-11.554
▁administratives	-11.554
▁càlid	-11.5541
itzi	-11.5544
▁detinguts	-11.5545
▁acabant	-11.5546
▁trobarà	-11.5547
▁sonar	-11.5547
▁elegit	-11.5547
▁parlamentària	-11.5547
[7]	-11.5548
▁tinta	-11.5549
▁aportat	-11.5549
▁feliços	-11.555
▁presidit	-11.5551
adjudica	-11.5551
▁derivar	-11.5551
▁duent	-11.5551
olor	-11.5555
▁hernández	-11.5556
operador	-11.5559
▁estrangera	-11.556
▁camina	-11.5561
establ	-11.5561
▁dominar	-11.5562
▁emp	-11.5563
▁acumulat	-11.5565
▁campionats	-11.5565
▁feixisme	-11.5566
▁excusa	-11.5567
▁habita	-11.5568
▁progressiva	-11.557
▁gratuïtes	-11.5571
▁configurar	-11.5571
▁electro	-11.5571
▁molèsties	-11.5573
▁gps	-11.5575
front	-11.5576
empresari	-11.5577
exist	-11.5579
▁apartaments	-11.5579
▁correus	-11.5583
▁deuen	-11.5583
▁incendi	-11.5585
▁deixi	-11.5587
▁ofici	-11.5587
bà	-11.5589
▁recaptar	-11.5591
posició	-11.5591
▁deure	-11.5592
▁llogar	-11.5593
gant	-11.5596
lics	-11.5596
▁imposat	-11.5598
òr	-11.5601
▁implicar	-11.5601
▁ànima	-11.5604
uren	-11.5604
dat	-11.5605
▁respecta	-11.5613
▁aportant	-11.5617
▁actuen	-11.5619
▁2020	-11.562
▁militant	-11.5621
▁veurà	-11.5623
▁dibuixant	-11.5623
▁cites	-11.5624
itis	-11.5625
▁vocabulari	-11.5626
▁estades	-11.5626
▁protegits	-11.5629
▁acollidor	-11.5629
cles	-11.5629
▁acabo	-11.563
envelliment	-11.5632
homes	-11.5635
jes	-11.5636
▁ke	-11.5638
▁urv	-11.5638
assassinat	-11.5638
▁peter	-11.5639
enci	-11.5641
▁cantonada	-11.5641
estén	-11.5642
▁burgesia	-11.5643
▁presentant	-11.5643
▁legalment	-11.5645
▁ret	-11.5647
▁gavà	-11.5648
▁telèfons	-11.5649
lè	-11.5651
▁pràctics	-11.5651
lars	-11.5652
▁recordant	-11.5653
edit	-11.5655
▁mitjanes	-11.5656
▁cerebral	-11.5657
▁cullera	-11.5658
inspira	-11.5659
hard	-11.5659
▁apostar	-11.5661
ània	-11.5661
▁memorial	-11.5662
▁inde	-11.5663
▁barba	-11.5666
▁cereals	-11.5666
▁minoria	-11.5668
▁detectat	-11.567
▁perpinyà	-11.5671
▁domingo	-11.5674
▁buida	-11.5675
▁paula	-11.5675
▁foscor	-11.5676
nota	-11.5677
▁pianista	-11.5677
empúries	-11.5677
▁humitat	-11.5677
▁observa	-11.5678
oles	-11.5678
▁atractius	-11.5682
▁assumptes	-11.5682
▁jurídiques	-11.5683
▁presentava	-11.5686
▁relaciona	-11.5687
▁perduda	-11.5689
▁indicant	-11.569
▁poliesportiu	-11.5691
sexual	-11.5695
▁relatiu	-11.5696
▁aplega	-11.5697
▁pagaments	-11.57
▁proteïnes	-11.5702
índex	-11.5703
▁ministra	-11.5703
▁urbanes	-11.5705
▁rab	-11.5706
▁lliurat	-11.5706
▁cavaller	-11.5707
▁veïna	-11.571
▁cobertes	-11.571
▁donacions	-11.5713
dera	-11.5714
▁agència	-11.5717
ore	-11.5718
▁salvat	-11.5719
▁pineda	-11.572
▁lluc	-11.5721
▁univers	-11.5722
segons	-11.5723
▁ressenya	-11.5725
▁mundo	-11.5732
▁tarifa	-11.5734
▁esmentats	-11.5734
▁litres	-11.5737
▁900	-11.5737
▁siguen	-11.5738
▁mutu	-11.574
▁mereixen	-11.5745
▁montcada	-11.5746
▁rac	-11.5747
acompanya	-11.5747
▁saviesa	-11.5748
▁artesanal	-11.5749
▁acompanyament	-11.5749
р	-11.5749
▁rebran	-11.575
estadística	-11.5751
▁administratius	-11.5753
▁gai	-11.5753
▁sòlida	-11.5757
▁inaugurat	-11.5757
▁house	-11.5758
▁trobaven	-11.576
carrer	-11.576
gri	-11.5763
▁lingüístics	-11.5764
iza	-11.5767
▁llegendes	-11.5768
▁commemora	-11.577
▁invitació	-11.5773
▁esposa	-11.5774
▁navegar	-11.5776
▁rivals	-11.5776
acceptar	-11.5776
▁javascript	-11.5776
▁establertes	-11.5776
▁revolucionari	-11.5777
▁conforme	-11.5777
▁existir	-11.5778
▁confort	-11.5778
▁bancària	-11.5779
▁urgell	-11.5779
▁tragèdia	-11.5779
▁esquerre	-11.578
▁1975	-11.5781
ther	-11.5787
ligents	-11.5788
▁casament	-11.5788
▁botànic	-11.579
▁disposicions	-11.5792
ties	-11.5792
▁boix	-11.5792
cò	-11.5794
lular	-11.5796
▁cub	-11.5802
imp	-11.5804
▁materna	-11.5806
▁parat	-11.5807
▁sous	-11.581
▁claredat	-11.581
▁entén	-11.581
▁olímpic	-11.5811
mc	-11.5812
▁curiosa	-11.5813
hàbitat	-11.5819
inclou	-11.582
▁qualificat	-11.5822
▁consol	-11.5825
▁comissaria	-11.5826
▁pc	-11.583
▁obri	-11.5832
▁oblidat	-11.5832
▁conreu	-11.5834
▁plàstica	-11.5835
/2018	-11.5839
escacs	-11.584
ball	-11.5845
orgull	-11.5846
trans	-11.5848
▁poblat	-11.5849
▁your	-11.5852
crea	-11.5853
▁fils	-11.5858
▁convocada	-11.5858
cru	-11.5858
▁reivindica	-11.586
▁començaran	-11.586
▁herbes	-11.5862
▁apartats	-11.5866
ible	-11.5868
▁creia	-11.5868
cem	-11.5871
▁històricament	-11.5871
▁ocupen	-11.5874
▁aplicant	-11.5875
tig	-11.5876
ansietat	-11.5876
▁obrint	-11.588
ample	-11.5881
▁macià	-11.5884
▁concedit	-11.5888
▁avançant	-11.5889
2002	-11.5889
▁detallada	-11.589
▁senyalització	-11.5891
▁1983	-11.5893
▁duel	-11.5894
▁sindicals	-11.5894
▁rebutja	-11.5896
▁grecs	-11.5897
▁cnt	-11.5897
▁allargar	-11.5898
▁doctora	-11.59
▁fulls	-11.5902
▁refr	-11.5903
abús	-11.5904
▁perillós	-11.5904
pendre	-11.591
▁lent	-11.591
▁microsoft	-11.5911
▁metre	-11.5912
▁parlarem	-11.5916
▁canet	-11.5917
▁tend	-11.5917
ite	-11.5918
esos	-11.5919
??	-11.5921
▁passats	-11.5922
▁romàntic	-11.5926
escriptora	-11.5927
premi	-11.5927
▁japonesa	-11.5928
▁traduccions	-11.5928
▁esqui	-11.5929
▁emprendre	-11.593
▁cec	-11.593
sil	-11.5931
▁flexibilitat	-11.5931
▁construint	-11.5931
▁matisos	-11.5935
▁agent	-11.5937
▁zapatero	-11.5937
▁èmfasi	-11.5938
▁editors	-11.594
nacional	-11.5942
▁espacial	-11.5943
▁precedents	-11.5943
▁sencera	-11.5943
▁intents	-11.5944
ificada	-11.5945
▁circuits	-11.5945
▁externes	-11.5945
món	-11.5946
▁motos	-11.5946
cro	-11.5948
▁jubilació	-11.5949
pri	-11.595
eros	-11.5951
plu	-11.5951
finança	-11.5956
▁ajudarà	-11.5956
bau	-11.5957
▁escrivint	-11.5957
fini	-11.5962
▁1981	-11.5964
assolir	-11.5965
▁conviure	-11.5966
▁qüestiona	-11.5966
▁profit	-11.5968
▁provat	-11.5969
▁vulnerabilitat	-11.5969
▁argentina	-11.5972
asso	-11.5973
▁narrador	-11.5973
▁permetran	-11.5975
▁piscines	-11.5975
our	-11.5976
▁teories	-11.5978
prove	-11.5978
fre	-11.5979
▁variada	-11.5979
▁seny	-11.598
▁ángel	-11.598
▁dominant	-11.598
▁succeeix	-11.5983
▁nascuda	-11.5983
▁paràgraf	-11.5983
▁finalització	-11.5984
observa	-11.5985
▁pessebre	-11.5986
▁::	-11.5988
inspector	-11.5989
▁insisteix	-11.599
▁suggeriments	-11.5993
▁passejada	-11.5995
д	-11.5997
articula	-11.5997
▁editar	-11.5999
▁paradís	-11.5999
▁robatori	-11.5999
stro	-11.6
▁aparcament	-11.6003
▁estadística	-11.6004
adhesió	-11.6007
▁sardanes	-11.601
▁seda	-11.6011
ametlla	-11.6013
ld	-11.6013
▁concentrar	-11.6014
▁inspecció	-11.6015
▁seleccionat	-11.6016
▁experimentat	-11.6017
▁coves	-11.602
▁exàmens	-11.6022
▁famosos	-11.6022
▁excés	-11.6023
▁1960	-11.6023
▁alternatiu	-11.6025
arca	-11.6027
▁bartomeu	-11.6027
▁tradueix	-11.6027
ordena	-11.6028
ade	-11.6028
▁esperava	-11.6028
▁solars	-11.6031
vegeu	-11.6031
enfronta	-11.6032
anell	-11.6033
rades	-11.6035
▁atorgar	-11.6035
▁1976	-11.6035
ive	-11.6037
▁arrenca	-11.6038
▁presentaran	-11.6038
▁presentats	-11.604
▁borràs	-11.6042
▁composicions	-11.6044
▁54	-11.6044
islam	-11.6047
▁intenten	-11.6049
▁agraden	-11.605
▁preferent	-11.605
escu	-11.6053
▁circumstància	-11.6056
▁compartint	-11.6057
71	-11.6057
700	-11.6059
▁49	-11.606
▁clars	-11.606
ajust	-11.6064
▁pastoral	-11.6067
▁prosa	-11.6069
▁climent	-11.6069
▁siguem	-11.6075
▁aplicat	-11.6078
▁preparada	-11.6078
▁tam	-11.6079
▁obrer	-11.6079
▁crisis	-11.6079
munt	-11.6081
▁serem	-11.6081
▁madur	-11.6081
spir	-11.6083
▁pròleg	-11.6085
▁michael	-11.6092
fest	-11.6092
▁corpus	-11.6092
▁filial	-11.6093
▁tallat	-11.6094
egi	-11.6095
har	-11.6095
ològica	-11.6096
ska	-11.6097
▁conductors	-11.6098
rera	-11.6099
▁cb	-11.6101
▁vilar	-11.6101
▁llur	-11.6102
▁eixir	-11.6102
▁forats	-11.6102
▁agrupa	-11.6104
català	-11.6107
▁aprop	-11.6107
▁carreres	-11.6109
▁renovat	-11.6109
▁rosselló	-11.6109
ika	-11.6117
▁agraït	-11.6118
▁agraïment	-11.6118
▁viena	-11.6119
vida	-11.6121
▁tecnològiques	-11.6121
—,	-11.6123
▁aconsegueixen	-11.6123
▁diploma	-11.6125
▁tocant	-11.6125
▁intèrprets	-11.6126
▁calçat	-11.613
▁criticar	-11.613
▁accessos	-11.6134
▁prejudicis	-11.6135
èria	-11.6136
▁constatar	-11.6137
▁àrabs	-11.6138
ali	-11.6138
▁suècia	-11.6139
win	-11.6141
▁grossa	-11.6142
handbol	-11.6145
▁deien	-11.6149
▁bit	-11.6149
▁estàndards	-11.6152
▁link	-11.6154
▁sergio	-11.6155
▁56	-11.6156
▁apreciar	-11.6157
▁indiferent	-11.6157
ello	-11.6158
▁encant	-11.6159
▁perfum	-11.6161
▁literàries	-11.6163
▁pantalles	-11.6163
ña	-11.6163
▁orientat	-11.6164
▁medievals	-11.6165
idor	-11.6166
▁salaris	-11.6166
▁wifi	-11.6168
reny	-11.6175
▁indústries	-11.6176
▁plasma	-11.6176
cum	-11.6178
estra	-11.6179
▁monogràfic	-11.618
ids	-11.6181
▁conscienciar	-11.6182
▁preciosa	-11.6182
▁tornarem	-11.6183
arma	-11.6183
▁temp	-11.6183
xes	-11.6183
▁modifica	-11.6183
▁cursar	-11.6184
autors	-11.6184
valència	-11.6186
media	-11.6187
/11/	-11.6189
▁costar	-11.619
▁international	-11.6192
▁musulmans	-11.6192
▁multa	-11.6194
▁exigent	-11.6194
histori	-11.6199
armari	-11.62
ord	-11.62
▁sexualitat	-11.6201
ístic	-11.6215
▁premià	-11.6216
▁legislatiu	-11.6219
▁vegi	-11.622
▁sup	-11.6222
ern	-11.6223
▁bull	-11.6226
▁comportaments	-11.6227
liques	-11.6228
▁fonament	-11.6228
▁diables	-11.6232
arri	-11.6232
▁conforma	-11.6232
▁remunta	-11.6232
▁ciment	-11.6233
▁irregular	-11.6234
zu	-11.6235
▁porti	-11.6235
▁win	-11.6236
▁pintat	-11.624
evo	-11.624
▁farcit	-11.6246
▁negatius	-11.6246
ium	-11.6246
▁mentals	-11.6246
▁desitjat	-11.6247
▁sabent	-11.6247
▁gastronòmic	-11.625
▁gespa	-11.625
aya	-11.6252
▁aixó	-11.6252
▁imagina	-11.6253
▁qualitats	-11.6258
adopt	-11.6258
▁falsa	-11.6262
▁terminal	-11.6264
und	-11.6265
▁colau	-11.6267
▁exerceix	-11.6267
▁banderes	-11.6268
addi	-11.6269
▁formatges	-11.6272
▁semblat	-11.6273
▁remodelació	-11.6274
▁jugadores	-11.6275
estre	-11.6277
lon	-11.6281
▁botifarra	-11.6283
produ	-11.6284
viol	-11.6284
▁visc	-11.6287
argentina	-11.6288
▁icv	-11.6288
▁contar	-11.6288
▁externs	-11.6291
▁mallorquí	-11.6291
▁projeccions	-11.6294
▁paradigma	-11.6297
▁tim	-11.6297
▁autònom	-11.6299
avió	-11.6299
vina	-11.6305
txo	-11.6306
▁infantesa	-11.6306
▁estimada	-11.6307
▁casas	-11.6311
▁donaven	-11.6311
ifiquen	-11.6313
▁complexes	-11.6315
rosa	-11.6315
tea	-11.6317
▁mèrits	-11.6318
pare	-11.632
foto	-11.632
cad	-11.6325
▁estel	-11.6328
▁interessar	-11.6331
▁situen	-11.6335
▁mural	-11.6336
▁químics	-11.6336
▁retaule	-11.6337
afers	-11.6337
algú	-11.6341
▁delegats	-11.6342
advocat	-11.6344
▁productiu	-11.6347
▁renova	-11.6348
▁venien	-11.6349
▁senti	-11.6351
▁requisit	-11.6354
jà	-11.6355
▁estructural	-11.6355
nell	-11.6359
▁positives	-11.636
▁kit	-11.6361
▁observacions	-11.6362
▁eficàcia	-11.6364
▁necessitar	-11.6364
▁episodi	-11.6366
▁promocions	-11.6367
▁corea	-11.6367
escolta	-11.6368
arena	-11.6372
▁escrites	-11.6373
organitzen	-11.6374
▁aspira	-11.6375
bic	-11.6377
▁ordenat	-11.6377
plan	-11.6378
map	-11.6379
▁sancions	-11.6379
▁autora	-11.638
nto	-11.6381
▁captura	-11.6381
▁alberto	-11.6381
experts	-11.6382
▁this	-11.6383
▁preveure	-11.6383
▁productivitat	-11.6384
▁típics	-11.6386
▁cristià	-11.6388
▁gimnàs	-11.6388
▁mega	-11.6396
▁etiqueta	-11.6398
hen	-11.6401
habilita	-11.6402
▁perdó	-11.6403
▁redactar	-11.6405
▁mútua	-11.6406
▁progressivament	-11.6406
ajuts	-11.6407
▁vèncer	-11.6408
eixida	-11.6409
▁basades	-11.6411
▁serrat	-11.6412
▁variar	-11.6412
equips	-11.6413
▁arrel	-11.6413
sic	-11.6417
▁baixat	-11.6418
▁conjunts	-11.6418
▁vicepresidenta	-11.6418
▁comiat	-11.642
▁descàrrega	-11.6421
▁folk	-11.6421
▁abraçada	-11.6421
▁evitant	-11.6423
▁retrobar	-11.6425
▁sostenibles	-11.6426
▁celebrem	-11.6427
▁súper	-11.6427
▁permetia	-11.6428
▁immobiliària	-11.643
▁estatals	-11.643
▁española	-11.6431
ires	-11.6433
▁velles	-11.6433
▁agafant	-11.6436
▁game	-11.6437
ort	-11.6437
itzem	-11.6439
▁decidim	-11.6439
▁adaptada	-11.644
punt	-11.6442
▁periòdicament	-11.6443
▁busquem	-11.6445
▁educar	-11.6447
▁est	-11.6448
▁green	-11.6449
▁constituent	-11.6451
seca	-11.6452
▁variacions	-11.6452
inserció	-11.6454
▁setze	-11.6459
▁alliberar	-11.646
infern	-11.646
agra	-11.6463
enganxa	-11.6463
ped	-11.6465
▁preguntat	-11.6469
▁xat	-11.6469
▁140	-11.6469
▁amant	-11.6469
▁emblemàtic	-11.6469
▁polit	-11.647
▁ponents	-11.6471
▁porteria	-11.6472
▁evita	-11.6473
▁tronc	-11.6474
▁explora	-11.6474
▁patint	-11.6475
▁fp	-11.6479
alcoi	-11.6479
ceb	-11.6481
▁perpètua	-11.6481
▁ciclisme	-11.6481
▁center	-11.6482
▁confiar	-11.6482
obs	-11.6484
▁xef	-11.6488
▁descobrint	-11.649
▁provenen	-11.649
laboren	-11.6493
▁incon	-11.6493
▁cable	-11.6493
▁renfe	-11.6494
▁fitxes	-11.6495
▁escoltant	-11.6495
▁pioner	-11.6495
▁comarcals	-11.6498
▁pia	-11.6499
▁detenir	-11.6501
back	-11.6501
pensa	-11.6503
▁perjudicis	-11.6504
▁viladecans	-11.6506
▁atractiva	-11.6509
endinsa	-11.6509
▁advocats	-11.651
▁complementar	-11.651
▁barroc	-11.6511
▁arribà	-11.6516
flor	-11.6516
▁collita	-11.6518
▁parlamentaris	-11.6522
▁extern	-11.6522
font	-11.6525
▁estones	-11.6526
pò	-11.6528
▁vingui	-11.6528
estira	-11.6529
▁inoblidable	-11.653
▁sectorial	-11.6531
tenen	-11.6533
▁destacada	-11.6534
▁aturades	-11.6535
▁síria	-11.6536
▁decisiu	-11.6538
▁goig	-11.654
▁tocs	-11.654
cti	-11.6541
▁prefereix	-11.6542
▁haja	-11.6545
arquebisbe	-11.6546
▁testament	-11.6546
quina	-11.6551
mne	-11.6552
▁resistir	-11.6553
▁transcurs	-11.6553
absis	-11.6553
▁formalitzar	-11.6556
trà	-11.6557
ssi	-11.6561
▁ventura	-11.6561
▁meravellós	-11.6561
▁boniques	-11.6564
▁mancances	-11.6565
▁programades	-11.657
▁innova	-11.657
▁teòrica	-11.6572
▁catalanisme	-11.6572
implant	-11.6572
cab	-11.6573
▁superficial	-11.6574
▁còmoda	-11.6574
ind	-11.6576
▁cristianisme	-11.6577
▁ses	-11.6578
▁gelat	-11.6579
▁paratge	-11.6582
▁pedal	-11.6583
▁assistencial	-11.6588
esp	-11.6592
entes	-11.6592
▁descarrega	-11.6593
▁rafa	-11.6593
▁mirem	-11.6593
▁naix	-11.6593
niques	-11.6594
▁llibret	-11.6596
▁vulnerables	-11.6598
atlètic	-11.6598
má	-11.6603
▁clos	-11.6603
horror	-11.6603
▁noranta	-11.6605
▁estos	-11.6609
▁1931	-11.661
gg	-11.6611
▁25%	-11.6612
▁bancari	-11.6612
▁beat	-11.6614
▁montblanc	-11.6614
▁llits	-11.6615
▁acabava	-11.6616
▁reflexiona	-11.6617
▁dolços	-11.6618
▁escull	-11.6621
sort	-11.6624
duc	-11.6626
▁amistat	-11.6628
▁72	-11.6628
α	-11.6632
▁obligada	-11.6637
▁característic	-11.6638
▁star	-11.6639
▁identificat	-11.6641
▁trista	-11.6643
▁lúdica	-11.6645
mira	-11.6646
assalt	-11.6647
encert	-11.6648
▁promogut	-11.6651
mel	-11.6653
▁acusa	-11.6654
elit	-11.6654
▁integritat	-11.6654
▁cartró	-11.6655
▁sueca	-11.6656
▁emprar	-11.6657
▁tipologia	-11.6661
exploració	-11.6661
▁ernest	-11.6662
emet	-11.6664
▁modernes	-11.6664
▁intimitat	-11.6664
examen	-11.6664
bos	-11.6664
▁rebuts	-11.6665
м	-11.6667
▁bis	-11.6668
▁estes	-11.667
▁xinesa	-11.667
itu	-11.6671
esmena	-11.6673
▁ep	-11.6676
▁músiques	-11.6676
▁conservador	-11.6676
hostaleria	-11.668
fl	-11.668
▁cures	-11.6681
▁ibèric	-11.6683
▁defecte	-11.6683
▁treballava	-11.6684
▁educadors	-11.6684
▁enhorabona	-11.6688
anomenen	-11.6689
▁1968	-11.6689
▁senzilles	-11.6691
ïr	-11.6692
▁pepe	-11.6692
▁pasqual	-11.6692
▁logo	-11.6693
isca	-11.6695
▁nerviós	-11.6698
emporda	-11.6698
abandonament	-11.6699
cade	-11.67
▁vigents	-11.6701
▁substituït	-11.6704
▁logística	-11.6705
▁aguantar	-11.6705
equ	-11.6706
▁tripartit	-11.6707
▁51	-11.671
▁tarifes	-11.671
▁dimissió	-11.6711
vies	-11.6712
▁còmics	-11.6713
▁led	-11.6713
▁secs	-11.6716
uz	-11.6719
conf	-11.6719
▁governador	-11.6719
▁actualitat	-11.672
▁cocció	-11.672
cosa	-11.6728
estrella	-11.6728
▁canvien	-11.6729
▁partícules	-11.6732
adona	-11.6734
mag	-11.6736
ding	-11.6737
▁tribu	-11.6738
sto	-11.6738
▁apart	-11.6738
museu	-11.6739
style	-11.6739
▁aprova	-11.674
▁màximes	-11.6741
ompli	-11.6743
▁enginyer	-11.6746
▁florals	-11.6747
▁sembli	-11.6751
▁combinat	-11.6752
ògraf	-11.6753
▁clàssiques	-11.6754
admissió	-11.6755
▁llu	-11.6755
▁frenar	-11.6758
2005	-11.6758
▁eivissa	-11.6761
iner	-11.6764
fon	-11.6766
▁dotzena	-11.6766
▁apartament	-11.6767
consell	-11.6772
▁coordina	-11.6773
tern	-11.6775
▁extrema	-11.678
▁oficis	-11.6781
aliança	-11.6782
▁aula	-11.6782
▁nacionalistes	-11.6783
▁renúncia	-11.6786
▁fidelitat	-11.6789
▁breus	-11.679
▁actuat	-11.6792
▁oscil	-11.6793
uma	-11.6794
esquer	-11.6794
▁barcelonès	-11.6795
▁tramitar	-11.6795
▁encaixa	-11.6797
▁off	-11.6797
▁1940	-11.6799
▁acumula	-11.6799
▁substància	-11.6801
▁anàlisis	-11.6802
roja	-11.6802
▁respira	-11.6809
▁trail	-11.6812
▁gratuïts	-11.6816
vio	-11.6818
mac	-11.6819
ness	-11.6819
▁misèria	-11.682
▁viable	-11.6822
▁kat	-11.6825
cast	-11.6826
▁mirades	-11.6829
▁tutela	-11.6829
▁impartit	-11.683
orgue	-11.683
ney	-11.6831
tros	-11.6832
▁preinscripció	-11.6832
▁vindrà	-11.6833
▁decideixen	-11.6837
▁duia	-11.6837
▁emportar	-11.6839
▁constar	-11.684
mora	-11.6841
dina	-11.6842
▁incendis	-11.6844
idescat	-11.6844
incloure	-11.6846
▁fundat	-11.6848
▁ocupacional	-11.6849
▁fortuna	-11.6851
▁recolzar	-11.6853
й	-11.6855
▁suspendre	-11.6856
urgència	-11.6856
▁53	-11.6856
▁aeri	-11.6856
▁tornava	-11.6857
▁tortura	-11.6858
▁lingüístiques	-11.6858
▁pad	-11.6861
ríem	-11.6862
▁contínuament	-11.6862
assumpte	-11.6862
▁torno	-11.6863
autoritza	-11.6863
sua	-11.6864
▁còpies	-11.6865
argent	-11.6868
▁flexible	-11.6869
▁pàtria	-11.6871
primer	-11.6872
gle	-11.6873
mica	-11.6875
▁àcid	-11.6877
àlia	-11.6879
rm	-11.6879
▁will	-11.688
▁compro	-11.6881
quera	-11.6882
▁abundant	-11.6883
tit	-11.6883
▁programar	-11.6883
òloga	-11.6883
▁pedrera	-11.6884
▁noble	-11.6885
▁interpreta	-11.689
▁recompensa	-11.689
▁combustible	-11.6892
▁suportar	-11.6892
▁rovell	-11.6894
erra	-11.6895
▁conversió	-11.6901
▁march	-11.6903
▁andorrana	-11.6903
▁raig	-11.6903
▁fabricant	-11.6903
▁podíem	-11.6903
▁tenda	-11.6903
▁servidors	-11.6905
▁alimentari	-11.6905
▁signa	-11.6906
gla	-11.691
▁codis	-11.691
wh	-11.691
▁uoc	-11.6913
▁alonso	-11.6913
▁cordes	-11.6914
▁colonial	-11.6916
▁verb	-11.6916
▁gaires	-11.6918
т	-11.6919
▁estigués	-11.692
dif	-11.6922
▁quartet	-11.6925
▁esmentat	-11.6926
carre	-11.6926
▁romandre	-11.6927
quia	-11.693
▁tort	-11.6931
tats	-11.6932
extracció	-11.6932
▁margarida	-11.6932
onet	-11.6933
▁participarà	-11.6933
explosió	-11.6935
▁psicològica	-11.6937
mot	-11.6938
▁confusió	-11.6939
▁titulada	-11.694
▁atemptats	-11.6943
▁xut	-11.6945
▁vigència	-11.6946
▁ratlla	-11.6946
verd	-11.6946
▁contenir	-11.6946
▁protegeix	-11.6948
gràcies	-11.6952
▁charles	-11.6952
▁internes	-11.6952
▁magistral	-11.6954
vern	-11.6956
rom	-11.6956
▁acostumats	-11.6957
▁talls	-11.6958
▁emès	-11.6959
▁fàbriques	-11.6961
▁time	-11.6962
▁desitjar	-11.6962
▁façanes	-11.6964
▁cobra	-11.6967
ram	-11.6968
▁anarquista	-11.6968
▁llavis	-11.6968
▁recomanació	-11.6969
sala	-11.6975
empara	-11.6976
▁avisar	-11.6977
▁donà	-11.6981
úria	-11.6982
▁basílica	-11.6983
sobre	-11.6983
▁degustar	-11.6984
esplendor	-11.6984
▁vial	-11.6984
▁castellar	-11.6987
▁pors	-11.6988
▁vestíbul	-11.699
▁urban	-11.699
▁limitades	-11.699
▁llindar	-11.699
▁cai	-11.6994
▁robot	-11.6995
▁morta	-11.6996
▁formularis	-11.6997
▁mayo	-11.6997
▁passe	-11.6997
▁instagram	-11.7
▁granada	-11.7
▁life	-11.7
inc	-11.7005
▁ruptura	-11.7006
▁pausa	-11.7007
▁consideri	-11.7007
psoe	-11.701
marca	-11.7011
▁afers	-11.7014
lid	-11.7016
autocar	-11.7018
▁existia	-11.7019
▁68	-11.7022
▁terrasses	-11.7024
▁garrigues	-11.7027
▁potencia	-11.7027
▁feminisme	-11.7031
▁entregar	-11.7032
▁júlia	-11.7035
▁millorat	-11.7035
▁tai	-11.7036
▁eh	-11.7037
ordi	-11.7041
▁italians	-11.7044
▁historiador	-11.7044
▁impre	-11.7046
▁enfortir	-11.7047
▁criança	-11.7048
▁ànims	-11.7048
▁tab	-11.7048
stre	-11.7049
/2017	-11.7049
▁rodatge	-11.7049
▁adreçar	-11.7052
▁camions	-11.7052
▁tramuntana	-11.7057
arrossega	-11.7059
▁dividit	-11.7059
explicació	-11.7061
▁facturació	-11.7062
▁anomenades	-11.7065
▁gaudeixen	-11.7067
▁vàries	-11.7067
omni	-11.7067
▁prote	-11.7068
alerta	-11.707
ciutat	-11.7071
▁130	-11.7073
qü	-11.7076
legals	-11.7077
alemany	-11.7085
iniciarà	-11.7085
▁gastar	-11.7087
▁legítim	-11.7087
▁invisible	-11.709
▁inf	-11.709
▁mara	-11.7091
▁acomiadar	-11.7092
▁imperi	-11.7094
▁tremp	-11.7096
▁noruega	-11.7096
▁postguerra	-11.7097
▁desplaçat	-11.7097
▁plorar	-11.7098
▁dissenyada	-11.7099
▁lidera	-11.7099
▁flama	-11.7099
▁pantalons	-11.7099
▁assassinat	-11.71
▁traves	-11.7102
▁càstig	-11.7103
▁infra	-11.711
▁significar	-11.7111
▁produint	-11.7113
▁optat	-11.7114
▁teclat	-11.7114
▁advocat	-11.7115
lea	-11.7117
▁doctrina	-11.7119
▁calcular	-11.712
▁calgui	-11.7121
▁calen	-11.7122
▁cuit	-11.7124
ací	-11.7127
▁plantegen	-11.7132
▁simfònica	-11.7132
▁bec	-11.7134
▁marco	-11.7135
▁rapidesa	-11.7135
▁respectives	-11.7136
envolta	-11.7137
▁recital	-11.7138
▁gabinet	-11.7139
▁preferit	-11.714
▁existència	-11.7141
atleta	-11.7142
assumir	-11.7143
▁periòdic	-11.7144
▁navarra	-11.7145
▁dirigent	-11.7146
▁piles	-11.7146
page	-11.7148
gracia	-11.7148
▁quilos	-11.7148
▁disparar	-11.7149
automòbil	-11.715
▁representats	-11.715
▁sobiranista	-11.7152
acumulació	-11.7152
▁egipte	-11.7154
star	-11.7154
▁basats	-11.7155
bí	-11.7155
cp	-11.7158
uca	-11.716
franqu	-11.7161
▁¡	-11.7165
uria	-11.7167
▁emili	-11.7168
▁guardiola	-11.7168
ologies	-11.7168
enta	-11.7169
▁depenen	-11.7171
▁comprometre	-11.7173
▁diàries	-11.7174
▁varis	-11.7174
▁digué	-11.7178
▁assajos	-11.7178
▁experiment	-11.7182
▁desgast	-11.7183
kh	-11.7183
▁fm	-11.7184
▁augmentant	-11.7184
▁projecta	-11.7185
▁pressupostària	-11.7185
▁normals	-11.7185
old	-11.7186
nz	-11.7187
euia	-11.719
▁respiració	-11.719
▁intencions	-11.7191
▁jovent	-11.7191
▁xar	-11.7192
arnau	-11.7193
▁soviètica	-11.7194
treball	-11.7195
arre	-11.7195
trin	-11.7197
▁índex	-11.7199
▁socio	-11.72
▁proclama	-11.72
▁pensió	-11.7203
▁pronunciar	-11.7207
ela	-11.7207
escàndol	-11.7207
▁denúncies	-11.7207
▁difícilment	-11.7208
▁plant	-11.7209
▁psicològic	-11.721
▁cruz	-11.7211
▁metodologies	-11.7211
det	-11.7216
▁sòlid	-11.7217
▁repercussió	-11.7217
▁referit	-11.7218
▁emoció	-11.7218
▁assistent	-11.7218
2000	-11.7219
oner	-11.722
ontinyent	-11.7221
esfera	-11.7225
▁arri	-11.7225
▁pedagògic	-11.7226
txe	-11.7227
▁xip	-11.7227
▁escric	-11.7227
▁semestre	-11.7231
▁relatives	-11.7232
aco	-11.7235
▁activar	-11.7235
▁2006,	-11.7235
▁teòric	-11.7241
▁guardons	-11.7244
▁aprofitem	-11.7247
▁nadons	-11.7248
п	-11.7248
infermer	-11.7249
ibles	-11.725
gli	-11.7251
hum	-11.7252
▁immobiliari	-11.7254
▁venut	-11.7255
▁ombres	-11.7256
▁prohibir	-11.7256
▁esto	-11.7257
▁associada	-11.7258
▁ceip	-11.7258
▁àlex	-11.7258
▁devolució	-11.7258
afegeix	-11.7258
▁solà	-11.726
▁natal	-11.7261
▁niu	-11.7262
▁suite	-11.7263
▁contribuït	-11.7264
ars	-11.7265
▁uniforme	-11.7265
▁provoquen	-11.7267
americanes	-11.7267
emissora	-11.7268
bs	-11.7269
obert	-11.7269
▁güell	-11.727
▁degustació	-11.728
▁equipada	-11.728
▁1937	-11.7281
▁moros	-11.7283
▁maduresa	-11.7284
▁born	-11.7284
▁obsequi	-11.7285
▁collserola	-11.7287
▁polivalent	-11.7287
▁jan	-11.7287
▁rai	-11.7288
incorporar	-11.729
▁tolerància	-11.729
place	-11.7291
mig	-11.7292
▁cognom	-11.7292
ient	-11.7293
▁compensa	-11.7293
rena	-11.7294
▁documentat	-11.7298
▁educa	-11.7299
▁pregària	-11.73
▁nocturna	-11.73
▁batle	-11.7301
▁seminaris	-11.7301
num	-11.7301
▁autoritat	-11.7301
▁planxa	-11.7302
moni	-11.7303
▁redactat	-11.7303
▁miracle	-11.7304
▁òptim	-11.7305
▁aliats	-11.7307
▁majoritari	-11.731
▁efectuar	-11.7311
word	-11.7317
▁associatiu	-11.7319
ming	-11.7319
▁agressions	-11.7319
▁repeti	-11.7322
▁trencament	-11.7323
▁civilització	-11.7325
▁solé	-11.7325
▁preocupar	-11.7326
▁atenent	-11.733
▁triangle	-11.733
▁descrit	-11.7332
▁ampliació	-11.7334
tions	-11.7335
lustra	-11.7335
▁favorables	-11.7336
▁investiga	-11.7337
▁protector	-11.7337
roig	-11.7337
▁quadrat	-11.7339
curs	-11.7347
▁sobra	-11.7347
▁actualitzada	-11.7351
▁cabra	-11.7351
▁cantautor	-11.7352
▁lenta	-11.7354
nico	-11.7355
▁quadern	-11.7356
iii	-11.7357
▁implementar	-11.7358
▁fórmules	-11.736
▁estrenat	-11.736
▁diferenciar	-11.736
▁terceres	-11.7361
cidi	-11.7362
xen	-11.7363
oms	-11.7365
olí	-11.7365
▁proporcionen	-11.7366
▁sorprès	-11.7367
enveja	-11.7367
▁màxims	-11.7367
udes	-11.7368
2003	-11.737
hoquei	-11.7371
▁victor	-11.7372
▁amagat	-11.7372
▁biel	-11.7373
▁motxilla	-11.7374
▁char	-11.7375
andreu	-11.7376
▁agències	-11.738
▁déus	-11.738
▁defensen	-11.7383
▁gestors	-11.7384
▁conill	-11.7387
▁moderat	-11.7389
▁pacífic	-11.7392
▁magdalena	-11.7397
▁quedin	-11.7397
▁comenci	-11.7398
alia	-11.74
▁bestiar	-11.74
▁setge	-11.7402
▁llicenciada	-11.7402
▁respectant	-11.7403
▁notificació	-11.7404
▁múltiple	-11.7406
▁llegiu	-11.7407
▁elaborada	-11.741
▁optimitzar	-11.7413
▁incapaç	-11.7414
▁paguen	-11.7414
▁catal	-11.7416
▁camió	-11.7416
▁concedeix	-11.7417
▁reforça	-11.7417
lloc	-11.7418
▁signatures	-11.7418
ngu	-11.7418
reg	-11.7419
▁dinamitzar	-11.7426
▁1974	-11.7427
empatia	-11.7427
anime	-11.7429
▁maternitat	-11.7431
▁seriosament	-11.7431
licitant	-11.7431
▁samarretes	-11.7434
▁mut	-11.7435
▁polar	-11.7435
▁iglesias	-11.7435
▁impost	-11.7438
▁español	-11.7439
▁brand	-11.7439
▁jueu	-11.7439
▁previsible	-11.744
▁hagué	-11.7441
▁passaran	-11.7442
▁feixista	-11.7445
▁endins	-11.7446
▁planejament	-11.7446
▁detallat	-11.7446
▁adreçades	-11.7446
iste	-11.7447
▁considerats	-11.7447
▁pinya	-11.7449
▁thomas	-11.745
▁bob	-11.7454
▁wo	-11.7456
▁vilassar	-11.7458
tru	-11.746
▁supervisió	-11.7461
▁percussió	-11.7464
▁perden	-11.7464
nyes	-11.7465
▁pack	-11.7465
▁introduït	-11.7467
▁assemblees	-11.7468
▁safata	-11.7471
▁especialitzades	-11.7471
▁investigadora	-11.7471
▁llana	-11.7473
▁1950	-11.7473
▁meravellosa	-11.7474
ight	-11.7475
▁richard	-11.7478
enorme	-11.7478
▁tributària	-11.7478
aval	-11.748
▁diabetis	-11.7481
▁orientar	-11.7481
▁argumenta	-11.7481
▁cedit	-11.7482
club	-11.7484
▁alimentaris	-11.7484
▁competitiu	-11.7485
▁galeries	-11.7485
▁caos	-11.7485
▁formula	-11.7485
abat	-11.7487
▁ong	-11.7488
▁preservació	-11.7489
▁puny	-11.7489
▁llotja	-11.7491
ònic	-11.7493
tino	-11.7494
▁etcètera	-11.7494
▁percebre	-11.7498
▁barrejar	-11.7499
▁qu	-11.7501
▁doctoral	-11.7501
sur	-11.7502
usos	-11.7502
▁miro	-11.7502
nk	-11.7503
▁rotonda	-11.7504
▁citar	-11.7506
mall	-11.7507
enemic	-11.7508
▁oportú	-11.7511
▁transports	-11.7513
informar	-11.7513
▁rot	-11.7514
▁portaven	-11.7515
▁instrumental	-11.7516
▁patronal	-11.7517
▁baralla	-11.7517
oz	-11.7517
▁preocupacions	-11.7518
mens	-11.7522
vil	-11.7522
▁posseeix	-11.7522
▁dramàtic	-11.7523
escollir	-11.7523
▁capitalista	-11.7524
▁democràtics	-11.7525
uab	-11.7528
plaça	-11.753
edo	-11.7531
▁intentem	-11.7532
▁classificats	-11.7532
▁indis	-11.7533
▁decorar	-11.7536
▁acostumen	-11.7537
▁1714	-11.7537
▁encàrrec	-11.7538
habitants	-11.7538
▁necessitava	-11.7539
▁tutors	-11.7539
▁normatives	-11.7539
к	-11.7539
▁faciliten	-11.754
▁justificació	-11.7541
▁ur	-11.7542
lec	-11.7542
▁innovadors	-11.7542
▁capitals	-11.7543
▁entrenar	-11.7544
▁promotor	-11.7544
assembla	-11.7545
▁ganivet	-11.7545
▁cercador	-11.7548
▁delicat	-11.7548
▁1930	-11.7552
▁pod	-11.7553
▁bacallà	-11.7555
▁carr	-11.7557
cf	-11.7557
anava	-11.7558
oficial	-11.7559
▁incidències	-11.7559
▁gla	-11.7564
▁cdc	-11.7566
▁box	-11.7566
▁desplaça	-11.757
administrador	-11.7572
▁seguia	-11.7572
▁bétera	-11.7573
▁tristesa	-11.7573
▁teatrals	-11.7573
▁01	-11.7574
▁virtuts	-11.7575
mari	-11.7576
▁britànics	-11.7577
▁cridat	-11.7582
anglaterra	-11.7583
▁cantants	-11.7583
▁contesta	-11.7585
bcn	-11.7586
ill	-11.7588
abonar	-11.7588
mita	-11.7588
reig	-11.7589
expulsió	-11.7589
▁protagonitzat	-11.7591
▁70%	-11.7591
▁arque	-11.7591
incorporen	-11.7592
▁merda	-11.7592
▁90%	-11.7594
ogràfiques	-11.7594
stru	-11.7595
▁chan	-11.7596
▁canalla	-11.7596
ils	-11.7597
▁llavor	-11.7599
lc	-11.7599
▁lineal	-11.7601
▁ps	-11.7603
▁57	-11.7603
▁jiménez	-11.7603
▁viii	-11.7608
▁finançat	-11.7608
▁manga	-11.7612
▁confecció	-11.7613
aproxima	-11.7613
▁còmodes	-11.7614
▁benvinguts	-11.7614
▁preocupant	-11.7616
▁complementàries	-11.7617
orfeó	-11.7619
▁berenguer	-11.762
▁permanència	-11.762
nec	-11.7622
▁violenta	-11.7622
▁hivern	-11.7622
▁promotors	-11.7623
▁quilòmetre	-11.7625
agu	-11.7628
▁seriós	-11.7628
▁nazi	-11.7628
▁sensibilitzar	-11.7629
▁indu	-11.7631
о	-11.7632
▁terr	-11.7632
accedir	-11.7632
fel	-11.7632
▁suposadament	-11.7633
lera	-11.7633
▁conservat	-11.7634
▁baró	-11.7634
▁superfícies	-11.7634
▁brou	-11.7636
▁jurídics	-11.7636
convert	-11.7637
flex	-11.7639
preu	-11.7642
day	-11.7642
▁divideix	-11.7642
▁clausura	-11.7644
▁promeses	-11.7644
▁repassar	-11.7645
▁plom	-11.7645
▁fallera	-11.7648
▁romanes	-11.7648
cra	-11.765
▁maco	-11.765
dades	-11.7653
▁fluid	-11.7654
▁jerusalem	-11.7655
▁125	-11.7655
las	-11.7656
adi	-11.7656
▁lamenta	-11.7657
▁provocant	-11.7657
migra	-11.7659
▁qualificar	-11.766
▁directrius	-11.7661
urs	-11.7664
▁1:	-11.7666
▁protocols	-11.7671
ode	-11.7671
▁òptica	-11.7671
▁globalització	-11.7671
▁recomanat	-11.7672
quatre	-11.7672
▁masies	-11.7673
▁àpats	-11.7674
òlegs	-11.7674
▁solemne	-11.7676
▁cir	-11.7676
▁costats	-11.7676
▁àmpliament	-11.7677
▁apel	-11.7678
<	-11.7678
▁corba	-11.768
éssim	-11.768
▁afany	-11.7681
ismo	-11.7682
▁logotip	-11.7682
▁sanitàries	-11.7683
▁cultius	-11.7683
posar	-11.7684
▁liderar	-11.7686
▁matinal	-11.7687
sia	-11.7688
▁considero	-11.7689
▁bolet	-11.769
▁cèlebre	-11.7691
santa	-11.7693
▁autonòmica	-11.7696
afrontar	-11.7697
▁repartits	-11.7698
▁massatge	-11.77
▁350	-11.77
▁nazis	-11.7702
ocu	-11.7702
▁seqüència	-11.7703
▁voluntàries	-11.7703
▁protestes	-11.7703
▁obstacles	-11.7704
▁cabrera	-11.7705
onda	-11.7705
▁sàpiga	-11.7706
▁robòtica	-11.7706
▁esmentar	-11.7708
▁dom	-11.7709
▁massana	-11.7709
hur	-11.7719
▁càrregues	-11.7722
▁donin	-11.7723
lots	-11.7723
inversions	-11.7723
▁parlarà	-11.7723
▁invasió	-11.7724
▁permisos	-11.7724
▁assigna	-11.7726
acusació	-11.7726
connect	-11.7727
espatlla	-11.7727
▁muralles	-11.7728
▁orgull	-11.773
nyol	-11.7731
▁reclam	-11.7732
eny	-11.7733
▁cercant	-11.7733
▁rafel	-11.7737
▁cansat	-11.7739
▁exercit	-11.7741
profit	-11.7742
▁discapacitats	-11.7742
▁llevar	-11.7744
ofensiva	-11.7744
▁extreure	-11.7745
▁proveïdor	-11.7746
espina	-11.7746
▁engegar	-11.7747
ette	-11.7747
▁1973	-11.775
▁obrers	-11.7752
▁canó	-11.7753
▁bac	-11.7754
▁teulada	-11.7756
alternativa	-11.7757
millor	-11.7759
▁desenvolupada	-11.776
▁process	-11.7761
▁singularitat	-11.7764
▁mites	-11.7768
estudiar	-11.7768
▁exiliats	-11.7769
field	-11.7771
▁addicionals	-11.7773
human	-11.7774
▁montsant	-11.7774
ixer	-11.7775
▁composta	-11.7776
▁noticia	-11.7776
aboca	-11.7776
incendis	-11.7777
mate	-11.7778
▁cobri	-11.7779
dan	-11.778
▁elaboració	-11.7781
dons	-11.7782
▁west	-11.7782
▁problemàtiques	-11.7783
aplicacions	-11.7783
▁seure	-11.7784
▁insta	-11.7784
cristian	-11.7785
▁master	-11.7786
▁dictador	-11.7786
excés	-11.7787
▁tractant	-11.7789
potser	-11.7789
▁preventiva	-11.779
estrat	-11.779
teres	-11.7791
avenç	-11.7791
▁bonics	-11.7791
▁plató	-11.7793
▁washington	-11.7793
▁1945	-11.7794
llat	-11.7796
▁fabricar	-11.7798
aperitiu	-11.7801
tània	-11.7801
▁estrangeres	-11.7802
▁substitueix	-11.7804
aura	-11.7804
▁cometre	-11.7806
▁serralada	-11.7806
eng	-11.7809
[8]	-11.781
▁bèl	-11.7811
▁immens	-11.7811
astro	-11.7814
inclouen	-11.7815
hop	-11.7817
▁fonamenta	-11.7818
gram	-11.7819
▁llaços	-11.7819
▁gama	-11.782
▁divers	-11.782
▁curtes	-11.7821
▁evoca	-11.7821
▁quadra	-11.7823
▁monjos	-11.7825
arbres	-11.7826
▁jun	-11.7826
▁oliva	-11.7827
iran	-11.7827
▁incapacitat	-11.7828
enllumenat	-11.7828
▁rey	-11.7828
nch	-11.7828
▁veterans	-11.7831
▁reading	-11.7833
▁frederic	-11.7833
▁sorprenents	-11.7833
estand	-11.7835
miques	-11.7836
heu	-11.7836
▁pila	-11.7837
▁anàvem	-11.7837
omplir	-11.7838
insult	-11.7838
▁noticies	-11.784
▁colòmbia	-11.7841
versió	-11.7841
bò	-11.7842
▁luc	-11.7843
jove	-11.7845
▁solidàries	-11.7845
▁recordava	-11.7846
table	-11.7847
▁diré	-11.7848
▁from	-11.7848
▁sanció	-11.785
▁60%	-11.7851
▁edu	-11.7851
bec	-11.7852
▁cúpula	-11.7852
fé	-11.7855
▁rebot	-11.7857
▁ballet	-11.7857
▁vermelles	-11.7858
▁quedaran	-11.7858
sub	-11.7858
lleida	-11.7859
▁formigó	-11.786
confidencialitat	-11.786
ate	-11.7862
▁criticat	-11.7863
▁incorporant	-11.7864
dels	-11.7865
▁sem	-11.7866
▁raspall	-11.7867
▁cercles	-11.7867
▁coincideixen	-11.7868
vu	-11.7868
iosa	-11.7869
▁estret	-11.7873
esmentat	-11.7873
iraq	-11.7873
▁generant	-11.7874
▁aprenentatges	-11.7874
fp	-11.7876
▁picar	-11.7878
▁impecable	-11.7881
▁plantilles	-11.7881
▁mensuals	-11.7882
▁cristal	-11.7883
▁especialitat	-11.7884
▁pitjors	-11.7886
escalfa	-11.7886
▁orient	-11.7888
vè	-11.789
tors	-11.7891
▁organitzem	-11.7891
llegir	-11.7892
kon	-11.7894
▁primari	-11.7898
▁whatsapp	-11.7898
▁variants	-11.79
equitat	-11.7901
▁establerta	-11.7901
digital	-11.7902
▁divertides	-11.7904
▁convenció	-11.7905
▁practicant	-11.7905
esplugues	-11.7905
▁mn	-11.7906
▁guardonat	-11.7906
fet	-11.7909
▁sabors	-11.7909
▁cuiner	-11.7911
ax	-11.7912
▁diguem	-11.7914
▁literalment	-11.7915
▁palestina	-11.7916
alzira	-11.7916
prior	-11.7916
▁dipòsits	-11.7917
▁moltíssimes	-11.7918
▁simp	-11.7919
▁66	-11.7919
▁insistir	-11.7919
▁venècia	-11.7919
▁oblidem	-11.7919
▁miren	-11.792
▁compatible	-11.792
▁racisme	-11.7921
nan	-11.7921
uta	-11.7922
▁cart	-11.7925
cob	-11.7926
▁procedeix	-11.7928
▁satisfets	-11.7929
evolucion	-11.7931
▁sacrifici	-11.7931
▁cros	-11.7932
ato	-11.7933
▁vitals	-11.7935
▁cot	-11.7935
ller	-11.7935
ken	-11.7936
▁bruixes	-11.7937
▁compromesa	-11.7937
llu	-11.794
▁extremadament	-11.7941
▁absurd	-11.7941
analitzar	-11.7942
▁paris	-11.7944
gt	-11.7945
ñe	-11.7945
▁ossos	-11.7945
▁folre	-11.7947
extra	-11.7947
güe	-11.7947
▁permetent	-11.7947
▁marquès	-11.7948
▁copiar	-11.7948
▁llurs	-11.7951
avantguarda	-11.7951
▁renaixement	-11.7951
icv	-11.7952
▁plor	-11.7952
▁aplegar	-11.7954
▁valentí	-11.7954
▁cònsol	-11.7955
▁direccions	-11.7955
▁lentament	-11.796
book	-11.796
▁diàlegs	-11.7962
assegurança	-11.7963
▁estimular	-11.7964
▁relata	-11.7965
▁call	-11.7966
▁crims	-11.7966
▁ponències	-11.7973
▁express	-11.7973
▁coneixedor	-11.7973
▁trias	-11.7977
open	-11.7978
admiració	-11.798
▁visualització	-11.798
▁moren	-11.7981
▁remet	-11.7982
▁bisbat	-11.7983
▁semifinals	-11.7984
▁primàries	-11.7987
▁marges	-11.7989
▁orientada	-11.799
twitter	-11.7994
ores	-11.7994
▁aromes	-11.7994
▁actriu	-11.7994
▁manuals	-11.7996
▁penja	-11.7997
educador	-11.7997
▁desitgem	-11.7997
▁marquen	-11.7998
▁arrencar	-11.7999
▁rodó	-11.8
▁adaptats	-11.8003
▁llor	-11.8003
▁funcionalitat	-11.8003
▁redu	-11.8004
▁gaudiu	-11.8005
▁pacífica	-11.8006
▁poblenou	-11.8006
▁diferencial	-11.8007
▁mines	-11.8008
▁escultures	-11.8008
▁sinònims	-11.8012
▁pertinents	-11.8014
▁credibilitat	-11.8019
▁difon	-11.8022
▁immers	-11.8023
nas	-11.8023
aportar	-11.8024
aj	-11.8024
▁carena	-11.8025
▁[+]	-11.8025
▁gratuïtament	-11.8027
▁mundials	-11.8028
▁varia	-11.8028
{	-11.8029
▁trobaran	-11.8031
crònic	-11.8031
▁sentimental	-11.8032
▁democràtiques	-11.8033
▁morera	-11.8034
2001	-11.8036
▁defineixen	-11.8038
sses	-11.8039
iro	-11.8039
▁analitzat	-11.8039
▁llàgrimes	-11.804
estel	-11.804
▁emergents	-11.8041
▁requeriments	-11.8041
®	-11.8044
lie	-11.8045
▁flash	-11.8047
▁contacta	-11.8048
▁2/4	-11.8048
ascensió	-11.8048
▁interpretacions	-11.8049
▁tau	-11.8051
▁fomenta	-11.8051
▁telefònica	-11.8051
▁posats	-11.8052
banc	-11.8053
llera	-11.8054
gp	-11.8055
urban	-11.8056
▁suprimir	-11.8056
▁julio	-11.8059
▁segment	-11.8061
▁mentides	-11.8064
rós	-11.8066
▁historiadors	-11.8068
▁caramel	-11.807
▁ensenyat	-11.8072
work	-11.8072
mic	-11.8073
ecosistema	-11.8073
▁alimentar	-11.8074
▁responen	-11.8075
boe	-11.8076
▁variació	-11.8078
▁mediàtica	-11.8078
ïdes	-11.8081
▁continuarem	-11.8083
▁tals	-11.8083
▁sensorial	-11.8083
rata	-11.8083
▁aqui	-11.8084
▁tracti	-11.8085
▁cívica	-11.8085
▁patrocini	-11.8087
▁monedes	-11.8087
▁successor	-11.8091
▁acudit	-11.8091
estampa	-11.8092
▁1938	-11.8092
vés	-11.8097
▁senador	-11.8104
▁rent	-11.8105
▁físicament	-11.8107
▁prèvies	-11.8108
▁sànchez	-11.8108
▁produïda	-11.8108
▁alteracions	-11.8109
pedre	-11.811
▁imprimir	-11.811
▁ideològica	-11.8112
▁localitzat	-11.8113
▁encapçala	-11.8113
enfila	-11.8114
▁irlanda	-11.8115
oració	-11.8115
mó	-11.8116
▁pretenia	-11.8119
▁cabuda	-11.812
▁hipo	-11.812
urbanització	-11.8121
tria	-11.8121
▁dubtar	-11.8122
▁bast	-11.8122
▁agrari	-11.8128
▁ampolles	-11.8128
▁meditació	-11.8128
zel	-11.8129
▁confondre	-11.813
itàries	-11.8131
▁impulsor	-11.8132
dú	-11.8133
ando	-11.8135
retir	-11.8136
▁esmentades	-11.8139
▁boníssim	-11.814
▁tensions	-11.814
alzheimer	-11.8141
▁itinerant	-11.8141
▁ambients	-11.8143
▁llunyà	-11.8144
▁von	-11.8145
administra	-11.8145
▁acurada	-11.8146
ving	-11.8146
rp	-11.8147
▁autonòmiques	-11.8148
indigna	-11.8151
▁miqueta	-11.8152
▁petons	-11.8153
▁fonda	-11.8153
▁110	-11.8157
ingredient	-11.8158
peda	-11.8161
▁ritual	-11.8162
▁completat	-11.8163
tum	-11.8167
annex	-11.8168
▁observat	-11.8169
anella	-11.817
▁registra	-11.817
lliga	-11.8171
▁reclamen	-11.8171
▁84	-11.8172
▁adequadament	-11.8173
indret	-11.8174
emple	-11.8174
abel	-11.8174
▁pressions	-11.8176
▁escultura	-11.8178
ença	-11.8178
▁passo	-11.8178
▁mosaic	-11.8179
enfrontar	-11.818
▁street	-11.8181
grafia	-11.8182
▁extraescolars	-11.8182
dies	-11.8184
▁convicció	-11.8184
▁cànon	-11.8184
▁mediana	-11.8187
▁adquireix	-11.8188
comp	-11.8188
▁madura	-11.8191
tech	-11.8193
mbol	-11.8193
▁cuc	-11.8194
▁grandària	-11.8195
/2014	-11.8196
▁entrem	-11.8197
▁rob	-11.8198
tenim	-11.8198
contra	-11.8199
▁anècdotes	-11.82
màtiques	-11.82
psi	-11.8201
▁contrasenya	-11.8202
▁atribueix	-11.8205
▁focs	-11.8207
astre	-11.8207
wan	-11.8208
▁prec	-11.8208
▁apa	-11.8208
ray	-11.8208
▁intercanviar	-11.8211
▁regir	-11.8214
àl	-11.8214
inspiració	-11.8214
▁fluix	-11.8217
▁160	-11.8223
▁78	-11.8224
▁americans	-11.8226
я	-11.8231
▁móra	-11.8231
normal	-11.8233
▁entusiasme	-11.8234
▁trigar	-11.8234
castell	-11.8235
▁dissenyador	-11.8235
trau	-11.8236
▁animem	-11.8236
stone	-11.8238
▁repassa	-11.8243
cura	-11.8243
▁retallar	-11.8243
alarma	-11.8244
lau	-11.8247
▁odi	-11.8248
▁fèlix	-11.825
▁sonor	-11.825
▁conscienciació	-11.825
▁mart	-11.8252
▁transportar	-11.8252
▁germanor	-11.8253
près	-11.8255
▁significatius	-11.8256
▁barcelonina	-11.8257
▁ren	-11.8257
▁mentalitat	-11.8258
▁calaix	-11.8258
▁tecla	-11.8259
▁febles	-11.826
adores	-11.826
▁assoleix	-11.826
integra	-11.8261
▁correspondència	-11.8261
▁mé	-11.8261
pé	-11.8261
▁moscou	-11.8264
▁prenem	-11.8269
▁desconeguda	-11.827
ping	-11.8273
advocats	-11.8278
▁iogurt	-11.8279
▁segrest	-11.828
▁animat	-11.828
▁haig	-11.828
▁castellera	-11.828
lumina	-11.8282
▁represa	-11.8284
▁fòssils	-11.8284
empres	-11.8285
inat	-11.8286
▁business	-11.8286
▁envoltada	-11.8287
contract	-11.8287
liar	-11.8287
▁feix	-11.8287
more	-11.8288
▁acompanyen	-11.8291
▁simbòlica	-11.8291
legar	-11.8291
uït	-11.8291
▁rentar	-11.8292
lio	-11.8295
▁caves	-11.8297
▁spa	-11.8297
▁exempt	-11.8297
195	-11.8299
anima	-11.8301
antena	-11.8302
fugi	-11.8304
▁setena	-11.8305
pod	-11.8307
▁sincerament	-11.8309
▁bombes	-11.8309
▁press	-11.831
bc	-11.8311
▁accès	-11.8311
▁contextualitzar	-11.8313
▁quedaven	-11.8314
▁dental	-11.8315
▁usuàries	-11.8315
▁segueixo	-11.8316
acolliment	-11.8319
▁bloqueig	-11.8319
▁hipoteca	-11.8319
▁consulteu	-11.8323
estimació	-11.8324
▁resulten	-11.8326
▁anglesos	-11.8329
identificació	-11.8329
▁falses	-11.8331
▁louis	-11.8331
allau	-11.8333
▁grams	-11.8333
▁partidaris	-11.8334
▁grand	-11.8335
▁prof	-11.8335
▁minimitzar	-11.8337
▁pessetes	-11.8338
ssar	-11.8338
▁daurat	-11.8339
▁destacant	-11.8339
▁belga	-11.8339
catalan	-11.8339
alimenta	-11.834
▁frescos	-11.8341
▁privilegis	-11.8343
ità	-11.8345
▁socialisme	-11.8346
atreveix	-11.8349
▁pirates	-11.8349
▁mouen	-11.8351
▁pintors	-11.8351
▁citat	-11.8352
▁passaria	-11.8354
assegurar	-11.8354
projecte	-11.8355
▁presentador	-11.8355
enamora	-11.8356
▁sensibles	-11.8357
▁passaport	-11.8358
▁gorg	-11.8358
▁muscular	-11.8359
▁avions	-11.8359
tades	-11.8362
lons	-11.8363
torre	-11.8363
▁qüestionari	-11.8364
▁considerava	-11.8366
▁besòs	-11.8367
lida	-11.8368
opera	-11.837
▁sòcies	-11.8374
mí	-11.8375
▁food	-11.8376
audiovisual	-11.8377
▁vetllada	-11.8378
▁inclusiva	-11.8378
ation	-11.8378
mans	-11.8379
▁medalles	-11.8379
▁bitllet	-11.838
ampli	-11.8381
▁inscrit	-11.8381
▁equilibrada	-11.8382
estats	-11.8383
▁enginyers	-11.8384
▁presumpte	-11.8384
▁oscar	-11.8385
py	-11.8385
estableixen	-11.8388
▁borja	-11.8389
errades	-11.839
▁ferit	-11.8391
▁1920	-11.8391
▁cra	-11.8392
▁tenor	-11.8393
▁cruel	-11.8395
▁cues	-11.8396
▁expedient	-11.8397
▁2000,	-11.8401
president	-11.8402
▁cremat	-11.8403
organ	-11.8404
▁ajut	-11.8406
▁tardes	-11.8406
afició	-11.8406
▁califòrnia	-11.8408
yn	-11.8409
а	-11.8409
abraça	-11.8409
▁participatius	-11.8411
▁parròquies	-11.8411
▁humit	-11.8414
▁pujades	-11.8414
▁most	-11.8414
dul	-11.8418
▁william	-11.8419
▁precís	-11.8419
▁criatura	-11.8419
▁potents	-11.842
otes	-11.842
▁modernisme	-11.842
space	-11.8422
▁cinquantena	-11.8422
muni	-11.8426
aren	-11.8428
▁gestos	-11.8428
▁disminueix	-11.843
▁identifica	-11.843
escombraries	-11.8434
▁envolten	-11.8434
▁campament	-11.8437
▁nicolau	-11.8437
▁war	-11.844
▁files	-11.844
▁1969	-11.8441
▁frank	-11.8442
ní	-11.8443
pd	-11.8443
▁deixarem	-11.8444
▁mic	-11.8444
▁track	-11.8445
▁1972	-11.8446
▁muntat	-11.8448
▁implantar	-11.8451
▁unilateral	-11.8454
abad	-11.8455
▁governants	-11.8456
▁escollida	-11.8456
▁amena	-11.8459
òniques	-11.8461
mur	-11.8465
bl	-11.8466
numer	-11.8466
▁intervenen	-11.8467
▁torelló	-11.8471
▁convençuts	-11.8472
▁estris	-11.8472
ias	-11.8473
▁dosi	-11.8474
ute	-11.8474
▁contenta	-11.8475
live	-11.8476
poc	-11.8478
▁dinamarca	-11.8478
api	-11.8478
▁pactar	-11.848
oblida	-11.848
▁sandra	-11.848
▁arròs	-11.8481
▁58	-11.8481
▁consultoria	-11.8485
torn	-11.8485
▁castro	-11.8486
àcia	-11.8487
▁mínimes	-11.8488
▁apunten	-11.8489
▁entrenadors	-11.849
▁king	-11.8491
750	-11.8492
▁restaurar	-11.8494
на	-11.8497
▁robar	-11.8497
estona	-11.8498
▁sign	-11.8499
▁jutjar	-11.85
▁bitllets	-11.8503
▁arenys	-11.8503
▁periódico	-11.8505
▁presidents	-11.8506
esmentada	-11.8507
ump	-11.8511
▁contextos	-11.8511
▁llenya	-11.8512
▁solitud	-11.8514
▁pd	-11.8514
▁mixt	-11.8514
▁compositors	-11.8515
▁sabien	-11.8515
▁09	-11.8516
م	-11.8516
▁dono	-11.8517
▁vaca	-11.8517
entrades	-11.8518
sem	-11.8519
▁smart	-11.852
sons	-11.8524
▁adjunta	-11.8525
▁reservat	-11.8525
▁davanter	-11.8526
mant	-11.8527
▁secundaris	-11.8529
▁love	-11.8529
▁masnou	-11.853
▁empren	-11.853
esperava	-11.8534
▁marbre	-11.8536
▁aprenen	-11.8537
▁regionals	-11.8537
▁15%	-11.8538
▁rodar	-11.8539
òmic	-11.854
▁foix	-11.854
▁reposar	-11.8542
▁festiva	-11.8544
aprecia	-11.8545
excepció	-11.8546
▁she	-11.8546
▁ei	-11.8549
▁garant	-11.855
hotels	-11.8551
▁contractat	-11.8554
▁glaç	-11.8556
▁convencionals	-11.8558
▁descarta	-11.8558
▁85	-11.8558
▁facultats	-11.8559
▁trucades	-11.8559
▁violí	-11.856
▁detecta	-11.856
▁preparen	-11.8561
▁captació	-11.8562
▁destina	-11.8564
▁android	-11.8566
▁davall	-11.8566
quad	-11.8566
▁fràgil	-11.8568
▁pugueu	-11.8573
hon	-11.8573
rac	-11.8577
ïs	-11.8577
▁360	-11.8578
instrucció	-11.8579
▁aixecat	-11.8581
▁calç	-11.8582
▁hidro	-11.8583
▁andorrà	-11.8583
▁afirmen	-11.8584
▁gro	-11.8585
amar	-11.8586
▁renom	-11.8588
▁puigcerdà	-11.8591
/2	-11.8592
present	-11.8594
▁júnior	-11.8595
▁últimament	-11.8595
yan	-11.8598
▁imposició	-11.8599
▁antelació	-11.86
temps	-11.8602
▁terratrèmol	-11.8602
▁emotiu	-11.8603
▁vice	-11.8606
elegància	-11.8606
òlit	-11.8608
term	-11.8609
ame	-11.861
lt	-11.8612
▁cultiva	-11.8613
▁vulgueu	-11.8614
▁regeneració	-11.8616
▁comunió	-11.8618
die	-11.8619
▁experiments	-11.862
estes	-11.862
lú	-11.8622
▁marcats	-11.8624
▁integra	-11.8624
formació	-11.8624
obscur	-11.8627
clau	-11.8628
▁cartera	-11.8629
▁vacuna	-11.8631
▁passeja	-11.8633
▁rendibilitat	-11.8636
▁mona	-11.8638
ciu	-11.8638
màtica	-11.8639
bella	-11.8639
▁passejant	-11.864
▁gestionat	-11.8641
▁derivat	-11.8642
cula	-11.8644
iniciatives	-11.8646
▁competents	-11.8648
abonament	-11.8648
▁deixin	-11.865
nac	-11.865
▁clam	-11.8651
▁escollits	-11.8651
▁setmanals	-11.8651
▁indicador	-11.8653
cies	-11.8653
soci	-11.8655
▁predica	-11.8656
mort	-11.8656
tòries	-11.8656
▁cinematogràfica	-11.8657
▁assignatura	-11.8658
▁prioritari	-11.8659
forma	-11.866
▁trau	-11.866
▁vinil	-11.8661
▁emmagatzemar	-11.8663
rock	-11.8664
▁die	-11.8665
▁fundadors	-11.8666
▁lúdiques	-11.8667
ash	-11.8667
▁resolucions	-11.8671
▁basant	-11.8673
▁llançat	-11.8676
▁greixos	-11.8677
▁dignes	-11.8678
▁cabdal	-11.8679
ovelles	-11.8679
▁feixistes	-11.8679
iss	-11.8683
▁sincer	-11.8684
▁compensar	-11.8685
signa	-11.8686
▁afortunadament	-11.8686
elaborar	-11.869
madrid	-11.8691
▁mèdics	-11.8693
▁sofert	-11.8693
▁desfilada	-11.8693
▁lamentable	-11.8694
▁esbrinar	-11.8696
▁escènic	-11.8696
espasa	-11.8696
tans	-11.8696
▁licitació	-11.8698
▁jugarà	-11.8698
▁immobles	-11.8698
influ	-11.87
lecta	-11.8701
abstenció	-11.8701
url	-11.8703
▁silvestre	-11.8705
▁ajustat	-11.8705
▁recipient	-11.8705
▁garatge	-11.8705
▁implicades	-11.8706
▁visions	-11.8707
sobretot	-11.8709
ejada	-11.8709
▁book	-11.8709
▁veïnal	-11.8712
▁sinònim	-11.8712
▁portuguès	-11.8713
▁estructurals	-11.8714
▁berlin	-11.8714
▁llest	-11.8715
ão	-11.8715
▁filtre	-11.8717
▁exposats	-11.8717
rium	-11.8718
▁aixi	-11.8718
empra	-11.8719
enes	-11.8719
▁zu	-11.872
assumpció	-11.872
▁álvarez	-11.872
boli	-11.8721
▁angeles	-11.8724
▁national	-11.8728
▁miler	-11.8732
▁atents	-11.8736
▁causat	-11.8736
encàrrec	-11.8737
product	-11.8738
inte	-11.8738
▁introdueix	-11.8739
▁emocionals	-11.874
amaga	-11.874
aqui	-11.8741
ança	-11.8741
anim	-11.8742
▁ampolla	-11.8742
olga	-11.8743
▁restriccions	-11.8743
▁controlat	-11.8744
▁variat	-11.8745
▁fen	-11.8746
▁minva	-11.8746
embolcall	-11.8747
empremta	-11.8748
▁virtuals	-11.8749
▁aparent	-11.8749
▁59	-11.8754
▁obté	-11.8755
▁informal	-11.8756
ile	-11.8758
gil	-11.8759
ech	-11.8759
▁sentències	-11.8759
▁actuant	-11.876
aplec	-11.876
▁acusats	-11.8761
▁auxiliar	-11.8762
▁acceptació	-11.8768
▁perills	-11.8769
▁calafell	-11.8771
▁ampliant	-11.8771
das	-11.8771
gru	-11.8772
▁generositat	-11.8773
▁inventar	-11.8773
▁començo	-11.8774
▁creixen	-11.8778
▁avançats	-11.8778
▁tac	-11.8781
▁hipòtesi	-11.8782
▁carreras	-11.8783
▁cistella	-11.8785
dot	-11.8786
▁recon	-11.8788
▁asiàtic	-11.8789
▁religions	-11.8793
acompanyar	-11.8794
▁consultor	-11.8795
▁nombres	-11.8797
gos	-11.8798
▁retallada	-11.8799
▁enormes	-11.88
240	-11.88
▁arribin	-11.8801
tac	-11.8802
▁aèria	-11.8802
▁excepcionals	-11.8803
▁imaginari	-11.8805
▁opina	-11.8808
▁coco	-11.8811
▁nobles	-11.8812
▁dosis	-11.8813
▁galícia	-11.8813
apunt	-11.8816
▁plàstiques	-11.8816
▁sadurní	-11.8816
▁ferroviari	-11.8816
▁superant	-11.8818
bacteri	-11.882
▁distancia	-11.882
polis	-11.8822
▁afició	-11.8823
ios	-11.8823
escenografia	-11.8824
▁paquets	-11.8825
nem	-11.8826
▁aragó	-11.8828
àtica	-11.883
▁explotació	-11.8831
▁aturada	-11.8832
▁enriquir	-11.8832
▁recte	-11.8835
▁tornaran	-11.8835
▁sotmesos	-11.8836
àcid	-11.8836
▁entranyable	-11.8836
▁molest	-11.8837
▁complementària	-11.8837
▁llamp	-11.8837
uff	-11.8838
▁como	-11.8838
not	-11.884
agraeix	-11.884
▁curiositats	-11.884
rida	-11.8841
▁inspiració	-11.8841
afilia	-11.8842
assi	-11.8843
▁retre	-11.8843
▁pollença	-11.8843
▁19:30	-11.8843
▁normatiu	-11.8847
així	-11.8847
▁penses	-11.8849
▁nata	-11.8849
▁tancades	-11.885
lés	-11.8852
▁retirat	-11.8857
ambaixador	-11.8857
igo	-11.8858
alfred	-11.8859
▁càr	-11.8859
▁traspàs	-11.8859
▁premiats	-11.8859
▁montilla	-11.886
tero	-11.8861
▁òmnium	-11.8862
boy	-11.8863
▁realista	-11.8868
▁teua	-11.8868
▁mitges	-11.887
▁validesa	-11.887
▁legitimitat	-11.8871
но	-11.8871
tana	-11.8872
▁informatives	-11.8873
funcion	-11.8873
àrem	-11.8873
manda	-11.8874
▁brigada	-11.8875
▁fart	-11.8875
▁microones	-11.8875
▁zoo	-11.8878
▁lot	-11.8878
dt	-11.8879
▁veritables	-11.888
ova	-11.888
▁properament	-11.8889
▁controla	-11.889
▁apte	-11.889
▁nomenar	-11.8891
non	-11.8891
▁savi	-11.8893
pina	-11.8893
▁recorreguts	-11.8895
▁ampliat	-11.8895
▁musica	-11.8896
▁angles	-11.8896
▁yu	-11.8897
ïa	-11.8898
▁podent	-11.8898
▁mah	-11.8899
▁trobin	-11.8899
accion	-11.89
▁avió	-11.8902
▁barcelonins	-11.8902
gul	-11.8902
▁ph	-11.8902
▁aconseguim	-11.8903
pies	-11.8903
especulació	-11.8903
▁hisenda	-11.8904
lustre	-11.8904
zona	-11.8904
agents	-11.8905
▁tordera	-11.8906
escriptori	-11.8906
emporta	-11.8908
▁diòcesi	-11.8909
▁creatives	-11.891
▁sotmet	-11.8911
vingut	-11.8911
▁desconeguts	-11.8912
responsable	-11.8912
▁menyspreu	-11.8912
▁vermells	-11.8914
▁paterna	-11.8915
▁encanta	-11.8916
з	-11.8917
▁proposició	-11.8917
▁adonat	-11.892
▁guany	-11.8921
espe	-11.8922
déu	-11.8923
▁cavallers	-11.8923
▁execució	-11.8924
espectre	-11.8925
lula	-11.8925
▁prades	-11.8927
assoliment	-11.8929
▁salarial	-11.8932
laborant	-11.8933
▁impartir	-11.8934
▁personalitzats	-11.8935
host	-11.8936
mò	-11.8936
▁aturat	-11.8936
▁vencedor	-11.8937
uix	-11.8939
▁protagonitzar	-11.8942
▁contrària	-11.8943
▁67	-11.8943
rú	-11.8944
hy	-11.8946
▁incertesa	-11.8948
▁buscat	-11.8949
▁baixem	-11.8949
▁duració	-11.895
engany	-11.895
▁cinematogràfic	-11.895
maz	-11.8951
escampa	-11.8951
▁retrats	-11.8953
▁matins	-11.8953
point	-11.8953
▁goma	-11.8953
▁1934	-11.8954
habilitar	-11.8956
▁pastisseria	-11.8956
pica	-11.8957
▁cami	-11.8957
▁derivada	-11.8959
▁gracies	-11.8961
erta	-11.8965
amaguen	-11.8965
▁segones	-11.8967
▁impactes	-11.8967
▁desplegar	-11.8968
▁ortogràfiques	-11.8968
asil	-11.8968
ás	-11.8969
▁pagant	-11.897
▁gironès	-11.8972
escriptors	-11.8973
index	-11.8973
▁adaptant	-11.8973
ast	-11.8974
▁entesa	-11.8974
▁perfectes	-11.8975
ej	-11.8975
▁sos	-11.8975
▁borrell	-11.8976
▁vicens	-11.8976
▁pimes	-11.8978
▁dures	-11.8978
▁vigilant	-11.8978
▁respirar	-11.8979
▁hauràs	-11.8979
▁resten	-11.8985
▁generador	-11.8986
▁nets	-11.8986
▁aroma	-11.8987
stein	-11.8989
▁tallada	-11.899
oller	-11.899
▁potencials	-11.8992
▁passatge	-11.8995
emma	-11.8999
▁variades	-11.8999
dò	-11.8999
gm	-11.9
espectacles	-11.9003
▁jesucrist	-11.9003
agent	-11.9004
▁suposarà	-11.9005
▁imposa	-11.9006
▁recrea	-11.9007
eira	-11.9007
ístiques	-11.9008
▁contribueixen	-11.9008
abadia	-11.9009
▁seleccionades	-11.9009
▁centímetres	-11.9011
uneixen	-11.9011
▁reprendre	-11.9011
▁determinant	-11.9011
lava	-11.9013
▁aspirants	-11.9014
/4	-11.9014
▁carpa	-11.9016
omplen	-11.9018
nega	-11.9019
▁contradiccions	-11.9019
explico	-11.9019
▁arribats	-11.9019
armada	-11.9019
embarca	-11.9022
gy	-11.9023
jó	-11.9026
▁tarannà	-11.9027
▁oest	-11.9027
▁engloba	-11.9027
▁boles	-11.9029
tc	-11.903
▁viver	-11.9031
▁1967	-11.9031
▁presidir	-11.9032
▁publiquen	-11.9035
esbart	-11.9036
▁vorera	-11.9038
▁transformat	-11.9039
▁impossibilitat	-11.904
▁creatius	-11.904
▁superen	-11.9042
lusion	-11.9043
▁xinesos	-11.9043
automòbils	-11.9046
miento	-11.9048
▁votacions	-11.905
allibera	-11.9051
▁estratègics	-11.9054
lux	-11.9054
σ	-11.9055
▁comunistes	-11.9056
utilitat	-11.9058
històries	-11.9059
▁exprés	-11.906
▁aconseguí	-11.906
▁1933	-11.906
▁deteriorament	-11.9061
ficció	-11.9061
ideal	-11.9062
▁coordinada	-11.9062
▁viquipèdia	-11.9063
efectivitat	-11.9063
dow	-11.9063
▁batut	-11.9065
▁solidaris	-11.9067
agrega	-11.9067
apliquen	-11.9068
▁aturats	-11.9069
▁integren	-11.9069
espoli	-11.907
▁remarca	-11.9071
▁configura	-11.9071
▁apassionant	-11.9071
indústria	-11.9072
▁mags	-11.9072
rega	-11.9073
▁custòdia	-11.9074
▁acompanyades	-11.9075
▁sosté	-11.9075
▁out	-11.9077
propi	-11.9079
sens	-11.9085
▁gregori	-11.9086
▁op	-11.9089
originalitat	-11.909
▁organitzant	-11.909
junt	-11.9092
stand	-11.9092
▁occidentals	-11.9093
▁formular	-11.9097
ampliar	-11.9097
▁dubta	-11.9098
▁passaven	-11.9098
xic	-11.9099
▁mirat	-11.9102
▁etiquetada	-11.9102
▁orelles	-11.9103
▁romero	-11.9103
▁perillosa	-11.9109
▁retorna	-11.9111
▁dirà	-11.9113
cai	-11.9117
▁sotmès	-11.9118
▁entrenament	-11.9119
▁pedagog	-11.9123
nge	-11.9123
▁adverteix	-11.9124
▁arquitecte	-11.9125
uni	-11.9125
anul	-11.9126
▁patata	-11.9127
▁subministra	-11.9129
▁consolida	-11.913
alla	-11.9131
og	-11.9132
▁remarcat	-11.9132
interessat	-11.9133
ê	-11.9134
▁gramàtica	-11.9135
▁dissenyadors	-11.9135
▁simultàniament	-11.9138
▁tambor	-11.9138
▁persistent	-11.9138
amazon	-11.9139
▁separats	-11.914
▁enllaça	-11.9141
▁bene	-11.9141
ciã	-11.9143
▁explotacions	-11.9143
aliment	-11.9145
▁modernització	-11.9145
▁estatut	-11.9146
▁armengol	-11.9146
▁champions	-11.9146
▁harry	-11.9146
cú	-11.9148
impulsar	-11.9149
▁encantat	-11.915
▁neguit	-11.915
▁encapçalat	-11.9153
▁enginy	-11.9155
pli	-11.9157
emmagatzema	-11.9157
allunya	-11.9158
▁insuficient	-11.9159
▁hospitalari	-11.9159
▁febre	-11.9163
▁relatius	-11.9164
▁expedients	-11.9165
▁that	-11.9165
lopd	-11.9166
▁apunts	-11.9167
landes	-11.9168
▁començarem	-11.917
▁vàlida	-11.9175
▁etern	-11.9177
▁1971	-11.9178
experiment	-11.9178
▁làser	-11.9179
▁remo	-11.918
ivitat	-11.9181
▁compensació	-11.9181
▁garantit	-11.9181
▁prototip	-11.9181
▁2005,	-11.9182
▁productora	-11.9182
▁tractades	-11.9185
▁reputació	-11.9186
programa	-11.9186
▁maquillatge	-11.9186
èrgic	-11.9187
▁radiació	-11.9187
encant	-11.9189
fè	-11.9191
obté	-11.9191
▁mobile	-11.9192
▁caracteritzat	-11.9193
▁ocorre	-11.9193
▁line	-11.9195
▁buenos	-11.9197
▁ferida	-11.9197
▁afronta	-11.9198
▁fóra	-11.9198
aixa	-11.9198
▁terapèutic	-11.9199
▁contemporanis	-11.9199
▁proclamació	-11.9201
▁contribu	-11.9201
▁federacions	-11.9202
àtiques	-11.9204
▁oposat	-11.9204
fs	-11.9208
habitual	-11.9208
▁panoràmica	-11.921
▁calci	-11.9212
ope	-11.9212
▁executat	-11.9213
▁simon	-11.9214
zz	-11.9214
fici	-11.9215
estimo	-11.9215
▁raquel	-11.9217
▁roberto	-11.9217
1999	-11.9218
▁mediambientals	-11.9218
▁ortega	-11.9218
esbarjo	-11.9218
▁formava	-11.9219
▁selectiva	-11.9219
bur	-11.922
▁immersió	-11.9222
▁brillants	-11.9223
▁quedem	-11.9224
▁groga	-11.9225
fòbia	-11.9226
▁adjudicat	-11.9227
tons	-11.9229
cient	-11.9231
▁informant	-11.9231
▁email	-11.9231
▁regulador	-11.9232
arru	-11.9233
▁107	-11.9233
àrbitre	-11.9234
▁posta	-11.9235
actiu	-11.9235
▁comptable	-11.9237
▁valentia	-11.9239
▁laboratoris	-11.9239
lp	-11.9239
spi	-11.9239
▁redactor	-11.9241
apartament	-11.9241
▁formem	-11.9241
▁barceló	-11.9242
volem	-11.9243
▁fumar	-11.9245
zy	-11.9247
▁potable	-11.9247
▁beu	-11.9247
universitats	-11.9248
▁adulta	-11.9252
ndi	-11.9252
▁acusacions	-11.9252
▁victoria	-11.9253
▁sand	-11.9254
▁accessibles	-11.9254
▁male	-11.9255
▁negatives	-11.9255
▁bab	-11.9255
▁abusos	-11.9257
▁penyes	-11.9259
▁dretes	-11.9259
▁lligats	-11.926
▁circula	-11.9262
oferim	-11.9262
▁seguí	-11.9262
esmenta	-11.9263
▁veien	-11.9269
▁herois	-11.9269
aguanta	-11.927
hongria	-11.9271
▁vocals	-11.9271
▁drap	-11.9272
▁incert	-11.9276
lapse	-11.9277
▁nutrients	-11.9279
▁arqueològiques	-11.9279
▁influir	-11.928
▁duresa	-11.928
▁bir	-11.9281
nci	-11.9285
▁corren	-11.9286
▁arreglar	-11.9291
▁provença	-11.9291
▁liberals	-11.9295
▁dramaturg	-11.9295
▁panxa	-11.9295
▁derrotar	-11.9296
▁obtinguda	-11.9296
▁mark	-11.9297
▁defectes	-11.9297
▁resistent	-11.9301
▁dibuixa	-11.9301
metre	-11.9303
▁austràlia	-11.9307
▁colon	-11.9308
▁bous	-11.9308
▁individu	-11.9309
uga	-11.9309
read	-11.9309
▁dramàtica	-11.931
public	-11.931
▁màniga	-11.9311
lícit	-11.9312
©	-11.9315
▁autèntics	-11.9316
▁orgullosos	-11.9316
▁lluir	-11.9316
▁reclamat	-11.9317
▁assegut	-11.9318
quetes	-11.932
▁5%	-11.9322
▁representada	-11.9323
▁rebudes	-11.9323
▁robatoris	-11.9324
▁grip	-11.9324
▁sociologia	-11.9325
▁qüestionar	-11.9325
bm	-11.9327
▁1962	-11.9327
▁epi	-11.9327
bern	-11.9329
▁truc	-11.9331
▁contagi	-11.9331
▁funda	-11.9332
acabi	-11.9333
gü	-11.9333
▁domèstic	-11.9333
▁mars	-11.9335
▁upf	-11.9337
▁admetre	-11.9337
▁politic	-11.9338
▁cambrer	-11.9339
optimisme	-11.9339
▁assignat	-11.934
enregistrament	-11.934
bru	-11.9341
▁coratge	-11.9342
▁alliberat	-11.9342
▁transfer	-11.9343
▁mantindrà	-11.9344
▁irene	-11.9344
▁omplint	-11.9344
▁080	-11.9345
▁objectiva	-11.9345
ícula	-11.9347
▁inclourà	-11.9348
▁necessiteu	-11.9348
▁massiu	-11.9348
▁purament	-11.9348
▁caràcters	-11.9351
▁degradació	-11.9352
▁aplica	-11.9352
▁dependents	-11.9352
▁padró	-11.9353
▁droga	-11.9354
jat	-11.9355
▁inconscient	-11.9355
▁rebaixa	-11.9357
▁vitalitat	-11.9357
posi	-11.9358
acc	-11.9359
enter	-11.936
▁sumant	-11.936
ique	-11.9361
▁despert	-11.9363
▁alcoi	-11.9363
▁propietària	-11.9364
▁procurar	-11.9364
ambició	-11.9365
encarregada	-11.9367
▁manifestants	-11.9367
▁picada	-11.9368
tim	-11.9369
▁pesat	-11.937
audio	-11.937
▁elena	-11.9371
▁rendes	-11.9371
ivament	-11.9374
▁prioritza	-11.9374
▁ruïnes	-11.9376
▁gav	-11.9378
espiral	-11.9378
company	-11.938
instint	-11.9381
▁incrementat	-11.9382
▁llacs	-11.9383
▁desplega	-11.9384
▁metàfora	-11.9384
▁ironia	-11.9386
▁concentracions	-11.9387
▁punx	-11.9387
▁senderisme	-11.9387
▁raonament	-11.9388
▁assessorar	-11.9388
▁bibliografia	-11.9388
itx	-11.9389
▁remot	-11.9389
▁greuges	-11.9389
▁vesti	-11.939
▁varies	-11.9391
▁coneixent	-11.9392
morf	-11.9394
excava	-11.9395
lògiques	-11.9395
900	-11.9396
▁prohibeix	-11.9397
▁escriptora	-11.9397
▁floral	-11.9397
▁power	-11.9397
▁absència	-11.9398
▁simó	-11.9398
▁suec	-11.9398
▁plànol	-11.9399
passa	-11.94
exp	-11.94
eliminar	-11.9401
▁gramenet	-11.9401
press	-11.9402
▁percep	-11.9403
▁debilitat	-11.9403
▁tinguis	-11.9403
▁unitària	-11.9404
bank	-11.9406
▁omple	-11.9408
[...]
